[PAD]
[UNK]
[CLS]
[SEP]
[MASK]
##.
##다
##는
##,
##에
##을
##이
##하
##의
##은
##를
##)
##고
##년
##(
##에서
##으로
있
##가
##었
##로
##한
##되
##과
##들
이
##였
##월
##와
그
##했
##적
##도
##인
##어
것
##일
##기
##게
##여
하
##지
##며
되
수
1
2
##된
##던
##한다
3
않
"
##지만
##았
##할
##-
##에게
등
##까지
##으며
##"
4
##해
##만
##라고
제
한
##자
'
##는데
때
##'
5
##라는
##부터
##면
받
##·
사용
이후
##아
없
##면서
《
중
(
같
후
한다
6
말
두
10
##다고
했
전
대한
##》
때문
8
미국
7
##개
##대
시작
##나
또한
많
및
##성
##된다
##라
일
함께
사람
9
다른
경우
위해
12
지역
일본
그러나
##_
##화
##다는
##1
##세
기록
##명
formula
주
가장
다음
11
##2
이름
당시
##이나
못
된다
그리고
더
대한민국
자
세계
따라
하나
##권
뒤
보
##차
의해
국가
또는
##째
현재
아니
다시
~
가지
‘
통해
##번
경기
활동
##:
##으나
조선
선수
해
여러
##위
##시
)
사이
시
##군
##다가
포함
만들
##있
한국
첫
##’
##서
번
모두
내
영국
##주
위치
모든
큰
##보다
##신의
##는다
팀
처음
##로서
##3
등의
안
시즌
중국
##국의
들
독일
주장
##였으며
정부
존재
전쟁
##대의
대
##/
위한
이러
##호
프랑스
20
영화
일부
최
할
##거나
각
역
또
가능
서울
##세기
문제
끝
동안
대해
자신
남
정도
성
발표
##도록
높
연구
약
알
세
일반
##~
##함
데
대표
가
##로부터
##형
도시
##시키
구성
작품
##상
아들
대부분
##]
##m
사건
## 
##%
얻
개발
##받
맡
〈
“
등이
발견
##어서
역사
리그
##했으며
공격
15
##전
곳
대통령
감독
생각
##와의
특히
크
이것
전투
사회
속
16
적
##명의
결과
된
같이
의미
계속
발생
##회의
##5
사실
30
즉
예
##씨
점
##군의
대학
좋
##”
새로운
다
##4
##자의
##계
##기의
신
##회
나
유럽
관련
##팀
필요
진행
영향
이용
정치
결정
2010
인해
게임
2008
현
총
시간
중심
중요
불
상태
왕
죽
##아의
위
관계
참여
우승
지원
매우
설치
##될
비
사망
뜻
다양
대회
아버지
##으로서
부분
지방
##〉
한편
2009
살
결국
시대
기술
지
제작
18
국제
13
잘
군
이상
반
2011
작
사
따르
성공
-
발매
##였으나
14
주로
##분
##처럼
재
2007
교육
음악
수도
등장
19
<
설립
2012
과정
운영
조직
계획
경제
##음
많이
이전
방송
차지
##해서
주요
##리그
##간
17
##km
고려
오
##중
출신
형태
축구
방법
##000
명
따라서
갖
섬
##등
이루
프로그램
상대
자리
독립
2006
2014
역할
2013
문화
해당
열
##제
볼
앨범
##으로부터
승리
로마
가운데
그녀
초
제공
여기
강
모습
##성의
지정
##서의
내용
25
임명
이르
삼
거의
소속
아래
데뷔
인간
##당
##>
전체
유명
표현
##부
아
구조
운동
기준
직접
불리
여성
러시아
##도의
만
공식
보이
입
##부의
대신
마지막
동시
##6
유지
참가
생산
##학교
달
곡
##으로써
##시켰
인구
추가
출전
부
평가
시스템
##본의
2015
군사
물
##됐
역시
연결
당
상황
##해야
##조
기능
21
##수의
2005
초기
그것
뿐
자유
100
##층
나라
##겠
##억
프로
선
##원
시기
몇
정보
##[
쓰
비롯
의하
##졌
서로
##세의
방식
발전
외
본
지금
##시의
집
활약
##트
이야기
2016
##초의
##사
2000
24
알려져
시리즈
정의
공간
중앙
반대
변화
양
건물
진출
##내
졸업
회사
대학교
요구
##스
대해서
길
올림픽
2004
목적
이론
##대학교
각각
22
제국
##위원회
형성
앞
23
생활
산
이탈리아
그리스
건설
기
구
날
어떤
이때
##」
타
변경
원
후보
0
원래
기본
국민
우리
개인
결혼
관한
##야
##대학
##용
소련
비판
달리
##니
의한
공개
대상
고
형
선거
출연
수상
최초
of
열린
노래
딸
##므로
관리
##주의
제외
학교
언어
##제의
거쳐
기간
인정
공
##가지
##8
##했으나
##7
운행
학생
,
도입
상
28
찾
낮
가진
만든
비슷
26
개최
[
27
인물
세력
계약
아닌
설명
##상의
2017
##0
맞
##》(
이미
실시
##경기
어머니
##선
대전
최고
무
보통
##")
바로
새
2002
특징
책
정책
교황
개의
「
혹은
지구
교수
시절
A
##란
모델
자기
막
조사
그러
될
##단의
2003
보내
그룹
선정
수행
##체의
전통
에
없이
명칭
##대표
자연
인도
스페인
간
적용
조
##점
위해서
장
보여
밖
##기에
태어났
##교의
법
##장
##천
군대
힘
29
증가
이끌
음반
##선의
네
비교
현대
##오
부르
아이
잡
50
손
확인
크기
##테
기원전
실패
싱글
종교
남쪽
대하
철도
황제
열차
마을
이런
과학
출시
##르
제도
행정
사상
컴퓨터
북쪽
나오
지지
FC
정
역임
##시대
별
##론
위하
사업
분류
노선
넣
##시간
분야
거리
공연
서비스
연방
월드컵
민족
어느
1990
의원
인기
존
개념
도쿄
##골
먹
2018
일어나
##마다
여자
작업
기반
넘
높이
미
##金
규모
##계의
배우
##엔
마음
##려
추정
##리의
지배
##지의
##간의
이상의
나이
이유
##李
담당
##!
공동
시장
수록
환경
국내
차이
2001
##는지
전국
우주
방향
맺
##어야
유일
##집
최근
##드
드라마
##으면
기업
눈
##9
효과
이적
동쪽
온
차량
단
소
##려고
부족
밴드
몸
##장의
차
:
밝혔
규정
버전
행동
##재의
형식
다르
종류
선택
곧
단체
##법
##씩
교회
능력
조건
자체
##왕
통합
##종의
##한다는
문
##인의
##대로
##때
##수
서쪽
사랑
31
보호
클럽
배
영어
시민
최대
##10
특정
##사의
이유로
##후
그렇
길이
점령
##고자
과거
선출
들어가
나타나
예정
##개월
판매
불구
가문
보인다
##고의
산업
1980
##구
에너지
연속
종
동
기독교
선언
##네
성장
##운동
최종
걸쳐
야구
가족
주변
##보
더욱
##cm
##시켜
자료
특별
시도
##나라
평균
편
만나
선발
년
40
전기
동일
구간
왔
가수
바
멤버
배치
연기
FIFA
의
언급
부상
도움
##임
이듬해
고대
관심
개
1999
사고
속도
부산
아직
##려는
작전
조약
남자
##녀의
모
잃
인
땅
백
1998
##진
비해
친구
애니메이션
엔진
##지역
육군
확장
##식
구분
놓
이곳
지속
강화
작가
거두
등과
##인데
오늘날
목표
피해
통과
방
내부
노력
##다면
요청
발달
##곡
획득
경찰
기타
북한
##류
이해
##동의
스스로
·
##급
글
명의
북
##식의
원인
성적
##현
난
데이터
경기도
체제
로
천
모양
명령
B
제한
TV
분리
연합
완전히
##후의
그대로
##기관
처리
남부
헌법
설계
입장
저
실제로
지휘
##러
정당
바뀌
마찬가지
정권
실험
폴란드
방문
널리
뉴욕
##티
호
지냈
줄
현상
요소
##로써
이렇
준비
쉽
the
행사
주민
##키
알려진
전자
1997
머리
##》,
거부
소설
먼저
동물
K
혁명
반응
피
영토
의사
##치
패배
의회
둘
##초
주도
함수
반면
신라
가치
디자인
##위원
발
부대
나머지
영역
자주
파괴
기관
바탕
네덜란드
파리
지명
복귀
유사
은퇴
1970
이동
오래
일제
지나
해군
행위
추진
경험
##안
리
1995
넓
분석
서
제안
1996
도착
정식
폐지
##정부
용어
공화국
##이란
주의
표준
잉글랜드
인터넷
프로젝트
##직
성립
##으므로
나타내
유래
결성
달러
북부
유
1960
바꾸
채
##당의
지적
##가능
##그
##한다고
그림
민주
파견
전문
체계
##어의
##인민공화국
면
대중
인식
후반
짧
통일
문자
##승
왕국
차례
강력
##가의
팬
##신
대체
입단
##정의
올랐
겪
쓰이
정리
거주
##별
##강
##",
정규
법률
1994
##단
##비
도
쪽
수많
캐릭터
부여
해석
투수
정신
##뿐
스
##구의
회의
##날
왕조
임시
성격
##?
##s
물질
개혁
믿
200
수학
사진
##경
단계
기초
돌
##루
논란
접근
일정
나중
방영
안정
확대
생
체포
부문
더불
##배
실제
죽음
1992
상호
조정
골
아시아
캐나다
통치
드
제품
돈
##The
게
연주
보도
중단
묘사
김
1945
체결
결합
C
##산
##인지
표기
작용
무대
몇몇
런던
기존
소유
자동차
해결
##사회
소프트웨어
경계
떠나
겸
##타
버스
장관
표시
장치
UEFA
옛
구단
지도
권력
타이틀
시설
##크
##하의
##대회
##량
대응
언론
설정
국립
반란
낳
##mm
제시
##관계
회장
출판
장군
다만
함
##생
제기
총리
키
##판
##지방
시행
##족
부인
##존의
##11
완성
문서
빛
##케
##전의
직후
계기
##즈
공사
부른다
승강장
##아서
통하
편성
장소
1993
집단
국왕
관측
1991
팔
항공
행성
##데
태양
##민주주의
##살
여름
아프리카
베트남
1950
달성
따른
판단
도로
득점
위험
병
교체
##A
여
강한
##',
의견
세웠
권리
웹
대구
집합
철학
조성
동생
평화
긴
값
1988
작곡
근거
붙
##두
싶
과
초대
금지
60
담
활용
충돌
##12
상징
그리
듣
보였
서부
##각의
음
종료
본래
가정
기사
문학
쓴
지도자
어린
시험
물론
실행
친
삶
취임
약간
만화
치
본관
##물의
1989
근무
##소의
업무
고등학교
특성
정확
##15
제거
만약
병력
위의
밤
인사
인천
무렵
##교육
어
식민지
##칸
각종
도중
부정
공부
다루
승격
경쟁
방어
발행
소개
패
스웨덴
기여
단어
##달
불교
강조
지위
나누
간의
파일
##노
만드
아내
적극
박사
주제
그해
수준
공작
무기
##리
계산
##"(
##속
##동안
소리
##량의
##氏
책임
『
주목
입학
##률
근처
기자
마련
예술
훈련
스포츠
갖추
지내
즉위
중간
귀족
번역
감소
바다
치료
가까운
수가
배경
갔
전달
##大
M
##편
준
정상
##당하
됐
##문화
등록
측정
측면
이래
완전
학문
##난
##습니다
##역
제정
항상
개통
##형의
계승
의해서
나무
발사
##이의
보냈
##으면서
가입
남성
##측
조지
재직
플레이
보존
판
읽
기념
깊
작성
지난
차트
황
##의의
세포
보유
합류
제조
촬영
동부
본선
##것
해외
##라며
##컵
나가
##활동
새로
##마의
다리
검
여전히
걸
거대
##16
씨
분포
진
교통
허용
만들어진
건축
오후
##님
병사
는
알려
보고
조각
인한
특수
동맹
종합
협력
##단체
하지만
광주
부근
귀국
기회
##분의
중화
##과정
##로서의
표
##민족
외부
노동
일어난
상당
집중
주인공
노
##만의
장면
텔레비전
##양의
형제
불린다
##과학
##학년
##C
마이크
측
전략
##시킨
인수
##말
군인
붕괴
##시즌
당선
점차
오스트리아
경영
비디오
##백
생성
세상
확보
그래서
면적
카드
##에게서
영상
##태의
##기술
오르
기계
아일랜드
##당했
디지털
##도시
고구려
그곳
1987
해체
제목
학자
의식
##왔
전개
##20
이외
원소
탑재
동료
이끄
질량
##』
##남
개선
공항
수립
##법원
예선
##반
증명
지식
경
대립
마
##라도
##행위
채택
만족
인근
1986
해안
##원의
이집트
##족의
국회
센터
뮤직
소재
살해
세우
파
혐의
궤도
인하
계열
투표
썼
불과
침공
상업
당하
너무
현실
마치
##방송
위협
양자
##질의
##율
목
지하
.
와
이미지
무장
전환
한다는
단순
지상
가톨릭
나온
##왕의
사후
스타
F
남북
##작용
표면
젊
개정
위기
대륙
왕위
나뉘
##카
##山
나왔
강제
##관의
코드
수사
결승전
홈
얼굴
가격
전력
뛰
1984
임
가졌
##인민
외교
멕시코
독자
수정
공장
##'(
라디오
저항
사회주의
80
##위의
화
##;
비난
회원
연장
70
##권의
##광역시
풀
유형
##문제
뛰어난
##해의
청
##사업
홍콩
녹음
500
이번
식물
승인
올
출생
한다고
화학
##대전
##특별시
1985
영
공급
##져
원정
얼마
칸
이루어진
and
매년
##법의
월드
본격
총선
종종
요리
##규모
##됨
##코
이루어지
관할
부모
자동
은
온도
##조사
코
브라질
##쓰
항복
##치의
정착
명단
임무
근대
##王
개봉
여행
네트워크
불렀
일어났
지키
미사일
##국
유리
##국가
##협회
예상
하루
회복
구체
선고
조금
했으나
홈런
##산의
에서
##寺
전혀
##일의
논문
##길
분
기대
##센터
32
이루어져
확정
잘못
제임스
##반의
##전쟁
1920
출발
해방
장착
km
지시
원칙
후손
따
기원
윈도우
1982
신문
##정보
단위
##세계
천황
##톤
비용
다섯
재판
##고등학교
참석
빠르
떨어진
U
편입
검사
을
D
##면의
향상
밑
강하
경향
합의
투입
초반
##D
미군
코치
영향력
1930
유로
대수
전차
애
진화
##13
X
돌아가
1940
카
그런
오른쪽
태어난
국경
##파
그린
태어나
은하
복잡
왼쪽
##에선
어떻
남편
자격
오히려
대형
양식
앞서
고전
추측
##라면
1983
##18
아주
합병
전사
겨울
잡지
거절
장비
지하철
간주
공군
스위스
연대
범위
좀
성인
##밖에
무역
##롭
부터
토지
주위
짓
교
세운
정치인
건강
암살
증거
우선
광고
중의
S
수입
떨어져
옆
강의
개편
노동자
흔히
목록
##먼
300
오사카
핵심
보수
삼성
1979
수용
공화
잠시
##파의
폭발
##쟁의
만큼
식
쇼
전반
끌
##시킬
일원
성과
국회의원
장식
지점
창설
집안
견해
T
##언스
포
중반
##제도
칼
사례
KBS
바람
통한
국
##같
음식
구역
탄생
유학
태평양
자원
##레
저장
경기장
권한
전역
통신
##연구
1973
들어갔
일으키
90
비율
저서
빈
성질
통제
통해서
##미
##더라도
시각
핵
##사단
투자
학위
/
인정받
신화
기억
쌓
노예
시위
병원
어렵
내각
교사
##령
참
이스라엘
경상북도
순위
##더
구별
1981
##경제
개시
가사
전해
소장
1972
꽃
훨씬
##교회
##동
##차원
논의
오랜
채널
1946
##패
잇
비록
재정
마리아
경력
오전
소식
방출
재산
##개발
인터뷰
이승만
관찰
##고는
##종
##시장
환자
제출
1948
기후
후기
##잡
탑
E
터키
덴마크
미래
거기
핀란드
수여
이사
농업
##역의
고향
취하
알려졌
라
장악
죽이
필리핀
##14
승진
윌리엄
를
신학
심각
음력
포기
생기
그런데
이슬람
##《
해서
경주
##17
지진
멸망
옮겨
##소
띠
1963
붉
유도
이용해
러시
미치
영입
##온
직원
기구
##돼
지니
설
##19
##장관
올리
반복
요새
1974
신호
올렸
불렸
감정
밝
전시
운용
##관
##세대
?
청나라
지대
숫자
MBC
마드리드
메이저
비행
##나가
순
직전
갈등
대비
약속
색
빠른
##성과
대항
시인
출장
협상
위원
전후
##조의
반발
열리
대사
채용
상당히
##연대
도달
대기
이용한
##면서도
항성
기획
오스트레일리아
신설
##정책
연맹
종목
주기
##무
민주당
장기
봄
##판서
##문의
##라운드
시의
J
시점
사이트
하늘
챔피
고정
##회사
##쿠
산맥
루이
철수
##탈리
##우리
##공원
##쪽
보장
위성
변호사
극
계급
온라인
아르헨티나
이어지
##공사
흡수
주교
보급
##개국
절대
##토
##해졌
폰
1978
혼란
태풍
공기
플레이어
취급
400
이제
편지
중화민국
구축
중심지
건
##생활
##文
브랜드
다니
위원회
최소
##아야
연극
1949
1975
수단
외국
판결
##바
내렸
울산
역대
근
록
모스크바
##예
비밀
##다의
##토의
숲
의무
몽골
1968
##선수
무엇
##문
##외의
##건
정복
1971
한때
안전
##25
”
물리
결승
##∼
일종
진압
처형
1976
부임
##스럽
신경
건립
수비
##놓
반드시
1969
매
##든
순서
평양
이익
##M
조치
##는가
우수
##합의
응용
입자
어떠
연관
슈퍼
##츠
동원
열렸
관점
내리
연합군
G
관료
이란
##부대
##사건
가리키
무리
사단
털
범죄
지낸
탈출
제자
질
별명
##용의
다수
유엔
마침내
##항
반영
35
발언
공유
오브
투어
출마
##석
1962
선조
뉴스
##21
폭
##B
맞이
##시설
예수
청년
##그룹
##+
&
제대로
##州
명이
단지
충청남도
법칙
##번의
##불
분자
일으켰
중세
동의
금융
오픈
에피소드
망명
단일
하계
번호
폴
함대
은행
논쟁
장애
##조선
육상
1944
한반도
베를린
전설
성경
알리
나치
꿈
소비에트
항
##링
임금
자세
연
요
자살
떠났
##로운
실수
##일본
##기간
관
강원도
포위
규칙
고종
관직
방면
교류
디
1964
요한
1941
귀
전라남도
압력
상륙
인민
진입
##구역
소년
군주
##임의
파악
일치
둘째
오스만
취득
##마
차원
사전
성능
##자리
여겨
##주년
공주
누구
베
만주
##소프트
##스러운
스코틀랜드
예측
내의
연재
구하
나와
제주
명예
교토
타격
고유
##城
움직임
##현재
##30
뉴
1961
##발
##관리
R
대략
##〉,
효율
맨
극장
활발
싸우
구속
합격
토론
##&
싸움
배출
시에
창립
의도
##줄
수출
신성
함락
1977
고문
##%,
스튜디오
회전
자치
흐르
밝히
1919
워싱턴
서버
금
가스
옷
원리
##시킨다
창
시호
주전
공원
평
검찰
솔로
##한국
여부
금속
1967
권
생명
법원
정비
헨리
1965
##색
부활
변환
잎
전선
그때
##했었
V
미디어
상하
점점
플레이오프
##의원
목소리
건조
맞추
명성
죄
대개
기지
de
등판
부진
에도
우려
제어
##정치
해산
행
독특
45
둔
분할
갈
남겼
챔피언
##연합
경상남도
1939
모르
청소년
민간
의지
엔터
선생
##다며
협회
등급
##물
박
소수
베이징
##모의
흑인
유나이티
떨어지
##진다
라인
인상
1000
폭력
개조
논리
사령관
금메달
실질
한국어
의존
풍부
정체
1947
##상태
수원
아침
헝가리
차별
전파
위상
외국인
오랫동안
##500
아메리카
##해도
인종
1966
속하
레
분쟁
부하
무덤
훗날
##공화
술
마리
사태
번의
직업
지급
향하
모드
왜
##자료
세종
레코드
공산당
일대
가을
출간
작곡가
벨기에
##중의
신앙
##써
포로
##여야
문화재
발발
향해
##만큼
보관
수술
앞두
시청
라이브
전화
나폴레옹
현장
찍
유전자
앤
탈락
도구
서양
LG
서식
사장
이룬다
나타났
##연구소
전부
호텔
##구조
전공
I
화면
##우의
좌우
명명
취소
주관
정하
위반
나아가
암
느끼
운
상승
사임
가담
조작
전용
어린이
신분
##변의
태도
1942
악화
움직이
시티
##철도
교환
실현
백제
천체
새롭
##문화재
자금
양성
포지션
포르투갈
인권
소녀
조합
목사
야
##척
##악의
범주
##조직
##삼
신체
##단계
확실
완공
##산업
동작
전면
##에서부터
The
##학자
항구
구현
본인
시조
등지
벡터
손자
단독
나타난다
##브
##번호
요인
분열
대화
장르
운전
1956
추구
영업
##편성
자녀
의혹
완료
##정도
생물
항공기
카메라
메모리
장교
1943
수집
콘서트
입력
건국
유전
쓰인다
사형
불법
당초
접하
백작
해상
##작
##방의
##安
처벌
보병
스타일
편찬
개입
참고
카를
통상
말기
연안
벗어나
의심
1958
농민
전형
기도
캘리포니아
원년
##지대
##병
변형
조조
무게
주둔
자라
명나라
##인가
##의회
확립
##심의
33
무시
1954
절
II
##체제
##냐
경성
프로이센
도와
초등
미술
구성원
신뢰
공헌
본부
한자
출범
1910
직
지닌
최다
##프
지은
##실
추천
충격
벌이
버리
간단
시내
어려운
급제
보안
##여자
in
의장
라고
공공
유적
당나라
학습
인류
충분
##미터
민
38
##현의
박정희
1952
##등의
서명
상품
여론
좁
발음
해도
##곤
조선총독부
영지
아무
##기업
성당
고용
먹이
호수
침략
준다
##선거
원자
박물관
거래
라는
공업
히틀러
##음악
원작
구원
참전
모아
백성
침입
태조
문헌
##계약
층
##학과
임진왜란
보낸
한계
마무리
36
투
공포
꼬리
흐름
송
당했
군의
기둥
공산주의
로켓
CD
방해
세워
연료
연구소
창조
##슈
엄청난
병합
어디
##거의
집권
전문가
분위기
##호의
피하
전신
재료
##S
불만
##터
복무
##公
##지원
뿌리
##》()
양쪽
해야
##kg
윤
순간
정지
발탁
주력
조절
개체
##縣
신자
승려
오페라
##는다는
예전
창단
기체
보물
부부
1955
중부
##공화국
##계획
순수
1959
##’(
PC
1953
1938
컵
##=
##・
##TV
롯데
임대
쿠
족
본명
계통
상위
확산
개칭
##시리즈
저작
늦
탈
의료
##다른
중인
종이
타율
니
성우
맞서
의학
우크라
##당시
가까이
사항
편집
저술
밝혀졌
꺾
육
##업의
=
SK
1918
아테네
통산
일시
독일군
재학
SBS
##川
소비
로버트
모여
H
1937
##元
##요
모형
문장
현지
발굴
늘
연간
가게
다소
탈퇴
히트
##위원장
숨
심지어
출력
활성
1914
옮겼
##렀다
##우스
##나의
##없이
가진다
한글
테
##색의
바이에른
대체로
1935
보컬
동계
선전
##질
확률
구입
##郡
신청
##곳
장남
예산
미국인
개설
이라크
##피
지붕
혼인
왕자
진보
주인
적합
오직
기호
대선
진격
##스타
a
격파
정기
m
개신교
##듯이
본질
변수
신인
따로
##°
어려움
절반
유대
1957
돌아왔
1936
##공의
불상
이혼
인접
복원
벌였
시리아
빠져
징역
##사람
막부
갑자기
성분
##려면
문신
돕
프리
##버스
##본부
나뉜다
소스
협정
프리드리히
##포의
##일반
게다가
기법
밀도
##어도
자극
전원
##랑
희망
선임
##디
도전
터미널
분노
변하
한정
작동
##비트
##한다면
##채
과학자
경로
거
##긴
간행
이른바
즉시
올라가
감염
##폼
##방
주연
##편의
조별
##府
고통
특이
##영화
방지
벽
물체
메
##능력
인디언
화물
글자
합
심
올려
내놓
150
설득
우
##였을
현역
리더
점수
절차
멀리
메이지
어깨
이기
뇌
하여금
적절
엔
##통신
##화의
행렬
정원
나온다
허락
추기경
일본군
1933
자식
WWE
프로듀서
사제
##공
찰스
##東
실
사퇴
##련의
만났
마이클
보조
##君
까지
노출
제사
34
##24
무료
부담
이어
줄어들
타자
허가
학살
대대
생긴
##연맹
방정식
##났
묻
전철
##사이트
홍보
##이닝
위원장
##고등
진정
접촉
승객
중력
동기
원형
##달러
김일성
##석의
갖춘
가설
단백질
사법
제일
남기
##준다
왕의
커
진학
##대학원
FA
위로
빌
손상
##갔
##기록
캐
수소
피아노
##전이
실력
추방
상원
합성
벌어진
힘들
후원
일본인
##입니다
##기구
한국인
##표
소송
모임
##기원전
만한
화재
여겨진다
유행
참조
##설의
##대상
후계자
##본
증상
탄핵
받아들이
##작의
트랙
탄압
##시험
에드워드
느낌
냈
연산
알고리즘
깊이
임기
선의
##세력
생존
이어졌
전라북도
약화
플랫
질병
항의
##또는
##졌으며
속한
##중앙
석유
##값
업체
불러
타이완
기소
관여
##50
조카
소멸
##거리
양의
##청
집행
##고도
##平
나타낸다
고도
이중
강점기
민주주의
노르웨이
사정
관광
##100
마크
아카데미
앉
수송
축제
DNA
헌
1934
선포
##너
습격
##스키
작위
화가
명확
재건
메시지
물건
##개의
정차
하위
화려
변
P
쓸
##朴
건너
##개혁
##오의
공통
일상
석
##부분
거듭
개량
루이스
37
1951
업적
##병원
왕비
##子
인용
거치
감시
로봇
수치
상실
테러
투쟁
후인
고리
돌아오
총독
서구
유대인
1932
뮌헨
처
화제
결론
##감
사냥
타이
띄
L
영웅
칭호
바닥
##조차
##I
바이러스
##처의
주어졌
광
아파트
개성
##강의
##차례
##십
수리
##이상
일으켜
전주
나갔
유물
유효
##내의
본사
각지
##책
##품
프리미어
궁전
보여준다
1924
근본
##심
스토리
걸친
충분히
수석
1928
개방
##道
숙종
판사
와서
긍정
그러므로
그래픽
##이후
중학교
특별히
일본어
대량
사운드
##成
연출
공동체
성의
##쇼
##23
##버리
##황의
##예술
아름다운
미리
전송
노벨
라틴어
끊
개명
공무원
아시안
뮤지컬
민중
질문
행하
##法
맥
##맨
##이론
폭탄
로스앤젤레스
이른다
##’,
날개
##션
1921
가량
진주
철
##듯
세리
통계
블랙
검토
##미의
1931
단순히
##자는
폐쇄
교리
1925
데이비드
휘
지향
태종
장수
받아들여
블루
사용자
시신
줄이
##鄭
공로
발간
여섯
미니
이하
가깝
묘
##義
테스트
돌아와
##체
일컫
수도원
##事
아랍
봉
할아버지
##절
저녁
증언
##례의
##비디오
##품의
##마리
닥터
도서관
들어오
분해
##없
서술
전술
소집
대다수
##비의
##행정
뽑
##h
##천만
혼자
1923
페르시아
단편
분명
주최
정확히
깨
밝혀
##x
잭슨
저지
##22
향
기기
##포
1922
안쪽
석방
홍
동서
뉴질랜드
손실
도덕
지구의
상인
세인트
##글
##지구
가난
광장
##제국
감사
중대
##밖
전투기
이내
커다란
##게임
충청북도
지형
축소
개별
토대
##록
이주
맨체스터
비행기
드래프트
메인
##팔
정조
허
##향의
##베
내전
시카고
##K
##당한
권위
##약
발휘
1929
레알
작사
##교수
종전
##장이
진영
공중
애플
수익
강요
심장
논
벨
김대중
속해
악기
건축물
개국
##자동차
계
유한
덕분
윈도
흔적
막대
형사
빚
밀
편의
살인
묶
1907
비중
##–
도쿠가와
##정
장점
디스크
쿠데타
트레이드
유배
베이스
지불
보고서
방송국
##장치
팝
종사
이어서
고급
##국제
계층
암컷
내지
인터페이스
빌보드
##애
가리킨다
적도
창당
생겼
공정
초점
재개
칠
캠퍼스
빠지
라틴
후임
##26
신부
##술의
올스타
치렀
##민의
축
사양
##열
샤
1900
42
##마을
1912
##저
드물
이벤트
재배
##T
루
백인
##소설
+
일단
보상
소위
1917
산하
완벽
갈색
규제
탓
##사이
수업
강등
to
결심
주택
피해자
학술
크로아티아
거점
나섰
별도
매일
브라
##냈
찬성
암호
가슴
##재위
1905
자랑
##田
1927
경고
세대
1926
##仁
구멍
로드
##판의
본다
덕
영조
##박물관
승
홀
군단
하느님
##>,
프로그래밍
터널
대가
먼
광범위
##순위
고등
주소
##외
55
구글
심사
미드필더
동방
대한제국
위대
탄소
##中
##대신
입대
올라
치르
##재
형상
복수
##인과
선박
몰
##40
##느냐
중지
##은행
주식
수십
천주교
##처
심리
전동차
국방
성향
조지아
챔피언십
여왕
##도로
목숨
의정부
살아남
혼합
추대
극복
##사상
균형
비트
훌륭
준우승
##부문
##준
필수
정면
착용
푸
리처드
마감
청구
벌
사원
언덕
부탁
감각
주식회사
수의
재임
##미국
고양이
소문
맛
##업체
##문학
아무런
##격의
동해
직무
벼슬
의문
심판
##쥐
75
##으니
새끼
##「
재위
국적
답
매장
기온
클래식
##다시
파크
대학원
프랑스어
##투표
싱가포르
사찰
지리
사과
64
첫째
관계자
옮기
##행의
뻗
철거
수요
광복
##E
가상
##녀
포인트
##는다고
##〉(
##때문
대결
##낸
별로
물리학
베스트
무력
##백만
##커
##南
사무
##부장
호주
##使
연락
바위
인쇄
누르
##해진
실천
범
자본주의
자이언츠
삭제
배포
검색
호소
반도
법학
##중학교
용
KBO
산소
후퇴
춤
돌아갔
이웃
프랑스군
압도
##의식
선로
하원
오류
복합
남아프리카
##손
오스트리
##200
##인조
변신
DVD
39
선교사
120
감옥
보편
태
##각
가끔
왕실
차단
저자
집필
1908
골키퍼
##공학
##체계
48
번주
유통
흑
##한의
인증
##明
##학교의
계곡
##법인
비례
속의
이념
태국
통화
JR
빼앗
멀
최우수
수컷
##방식
악
##t
액체
원주민
세월
루마니아
레이
아티스트
주지
출현
##예의
용도
유비
##고서
그리스어
법정
현존
고속
파워
##생의
쌍
지칭
힙합
인도네시아
##동물
늘어나
구매
##로스
흰색
일환
전당
성직자
지휘관
600
선호
드러나
##암
싫
청주
펼쳤
##27
##경의
등도
그래프
보스턴
대법원
희생
##통의
##洞
초청
연설
국정
웨스트
심하
##하나
열매
명시
일찍
사신
재능
세부
무릎
유력
오른
곧바로
##院
##설
수준의
정치가
##P
배열
문명
##연의
가공
트리
접속
##光
W
아동
체
법안
뚜렷
##>(
틀
수백
이날
생애
가하
사도
샤를
혁신
##마저
##35
국도
평소
텍사스
기병
예비
전해진다
기용
800
녹색
전제
관객
세금
분산
##등급
##이사
인지
국제공항
##崔
##나와
꾸준히
예외
군수
처분
매각
for
##헌
##꾼
이온
AFC
화석
소비자
손해
요미우리
쥐
방언
##타의
흰
늑대
선물
조화
평등
진단
되찾
##48
인생
주어진
결의
##우
엄격
인공
##대가
사라지
봉기
정교회
겨우
##탄
##세포
부장
셋째
##메
##학위
##之
마케도니아
건의
성씨
서방
진나라
스탈린
전직
토벌
##29
영구
연습
연계
모바일
북미
##속도
회로
##안타
십
##절의
조상
공세
후속
새벽
쇠퇴
간격
총장
박근혜
대칭
##민주
그려져
선형
세워졌
##주의자
##不
식량
문과
운항
십자군
통
삼국
##德
가르치
##양
때로
식품
서인
아이돌
일행
쓰였
##尹
끝내
라이벌
프로세서
타입
사기
내려
오토
서기
신고
돌파
골든
나타난
철학자
적어도
##張
선두
패션
소화
고안
부친
##사랑
배웠
월
일으킨
##거
##학회
활
##32
약탈
부지
사촌
##범의
##된다는
##우주
##결과
세르비아
평면
행복
##실의
구상
##행
구름
상처
도모
마시
줄기
##原
##시스템
인원
탄
드러내
상의
유용
타원
펼치
사유
독점
주석
김구
호환
해양
토
덜
석사
머물
##정권
##역사
고객
##L
##촌
##사령부
음성
영주
비잔티움
녹
일기
중시
codice
소요
옛날
강도
바깥
##趙
반환
##분야
하우스
티
제의
혼
복
##陽
41
흥미
##학원
스크린
##br
평생
##읍
유입
간부
데리
화성
빨리
원시
선보였
테마
상소
불안
##약의
주류
뛰어나
##R
1911
수직
피부
국방부
사자
##특별
##교통
닮
거친
차체
모시
노무현
권유
글로벌
호조
##후보
##볼
##감독
쿠바
기관차
라이트
##성당
교역
으로
공산
대우
기부
##공간
부속
승강
##물질
극단
하사
창작
##자면
원자력
##×
당해
1906
이민
주문
하드웨어
기리
심한
세워진
앨
##龍
겸임
억제
진술
추적
##宗
##국장
##지금
##부사
슈
##안정
돌아온
회담
##永
수반
정교
측은
붙여
정수
##대사
##카드
##무의
발명
임신
하나님
해제
조항
이행
전류
설이
포트
와중
총재
야당
베네치아
올린
##버렸
잠수함
비하
히로시마
##청의
페이지
독립운동
N
집회
곡선
요코하마
가로
##강전
내셔널
농구
원수
놓여
스승
##長
문제점
##왕후
리눅스
##formula
무산
##G
##전문
바르셀로나
##28
매체
학사
불가리아
촉진
밀라노
대장
##력
신하
대공
이루어진다
그리스도
##환경
##%)
레드
홋카이도
정통
한나라당
##군수
물러나
낸
##n
경유
주간
##國
##열차
유발
##홈런
토마스
이명박
##된다고
모리
46
퇴각
##天
##신문
대령
##렌
체험
##학부
레벨
##武
그럼에도
탐사
동양
입증
빌딩
터
어릴
##興
44
43
믿음
전향
침해
색깔
항공사
댄스
환승
##g
적색
착수
사막
후의
영감
번뇌
진실
찾아가
독일어
초래
나폴리
여객
홈페이지
BBC
하이
납치
##루수
정계
판정
##누스
##新
대만
된다는
농장
듯
성벽
자본
신장
##高
복구
쌀
만난
종족
벌어졌
다이묘
지목
가속
1909
배제
##X
고속도로
국토
묘소
걸리
양국
약칭
루트비히
공학
##쉬
바르
상주
65
벌어지
서독
빅
토너먼트
수감
쏘
개장
대답
##앨범
아마
품
쓴다
##방법
##F
없애
메리
해임
동인
알렉산더
입지
식민
마법
##쯤
조선인
그동안
투구
##공항
##작전
##300
OS
들어간
주체
합동
소형
##里
일곱
##뒤
마틴
당국
버렸
서적
##영의
x
생물학
공전
불화
예루살렘
왕족
티베트
서서히
관하
역의
##60
좌파
##아이
적응
##신라
##목
오늘
권고
화산
선거구
마쳤
업데이트
특유
가리
일체
##방향
몰락
동치
유닛
엘
##기능
수영
짐
아프가니스탄
재즈
독재
둘러싸
귀환
가질
##|
소규모
음악가
출입
포항
킹
산지
스미스
47
중동
##시절
재생
적의
여동생
정벌
해발
순환
후일
항해
유기
1895
사립
아울러
급
##正
부품
신임
언제
압박
##님의
##국민
친일인명사전
브라운
특급
##송의
유치
명문
얼마나
1904
이조
부동산
전적
책봉
##장군
1915
원자로
들어서
##섬
영혼
밥
##료의
아마추어
망원경
삽입
##터미널
교전
##앙의
스테이지
협의
##の
신칸센
약한
수천
타임
사격
##민주당
동영상
메달
곳곳
추락
유고슬라비아
간섭
##아도
추증
1896
상수
칠레
우익
추
지연
##천의
태양의
##참판
코미디
콘텐츠
분화
강릉
##위한
넘겨
동전
훈장
직위
공룡
경제학
한쪽
##음력
서울시
성균관
반격
##환의
비틀즈
##혁명
코파
패턴
수학자
제약
특허
데이터베이스
그쳤
자손
##군단
당한
개업
파생
시체
총회
화이트
##웨
밀려
경전
대로
항목
전의
나들목
1913
입법
##자고
오디션
밀접
##善
공략
포스트
단종
미분
##끼리
##한데
##총
무한
압축
용인
##일자
은메달
호평
##병의
##西
머물렀
MVP
지름
##투
전북
레이블
잭
관중
상속
태자
랭킹
내장
농촌
##속의
체코
원조
시사
개발자
가득
승무원
##재판소
스펙트럼
포맷
##교
51
##韓
글씨
복지
##역학
해설
인조
기재
나서
##막
잔
굴
황후
향년
회
엘리자베스
700
##서울
항일
##V
무관
진군
디젤
제주도
라운드
감
코너
걷
나고야
기점
돔
구사
##고종
클
##昌
##프로
타워
거둔
개막
가톨릭교회
##진의
빅토리아
이탈
동굴
입구
딴
친정
프로세스
사적
부유
1500
얇
모집
성서
재단
알렸
코어
##공식
##00
##기압
통칭
사령부
##리스
던지
사면
수장
##시기
커버
봉해졌
친일
전작
##자치
의거
리드
지휘자
운송
CPU
남녀
##²
클래스
##야구
동독
##대대
일찍이
조종
아메리칸
##軍
질서
걸려
미사
##寧
본토
시가
천문학
##자마자
비상
##스리
##탑
포르투
폐
##31
전두환
개찰구
##유의
##적의
문인
연루
강점
##돈
여인
다룬
경남
전남
좌석
존슨
블록
1916
##금의
발효
##性
후쿠오카
측근
##石
레이다
##턴
원나라
지나치
고기
웨일스
문법
유산
붙이
마친
스타크래프트
##검사
추격
옹호
##구성
##히
멸종
조기
##레스
호칭
모으
남긴
단점
동메달
게재
애플리케이션
##선조
커뮤니티
해전
##든지
자매
표본
##지도
##결정
##벤
별자리
##평가
##철의
짙
전승
판매량
개척
양산
사라졌
##島
##인치
신의
좌익
무사
검증
친척
대책
##올
기다리
국장
##보도
델
흙
##a
스타디움
##忠
창간
##풍의
가르침
죽였
##실점
52
안동
즐기
##몬
동등
자바
쇼군
상임
브
오케스트라
250
수비수
상관
법인
시키
중립
##會
##조약
야기
주니어
착공
##축구
흥행
음모
섭정
구장
##공업
얼음
오리지널
##군사
부패
건너가
학부
마주
폭격
##회장
예방
촉구
##部
아이디어
과도
##싱
국기
##합니다
유신
##룬
사우스
주재
된다고
아이템
기습
떨어졌
차남
##폴리스
뼈
휴대
##아들
다녔
한동안
##틀
지지자
##조정
청와대
빵
기하학
이은
류
트
떠난
하와이
##작가
국무
아르
반사
SS
방위
–
천문학자
할당
액션
방안
의석
샌프란시스코
캠프
전망
##人
규슈
역과
연고
자국
왕립
민족주의
기단
##모양
##선이
민간인
보잉
침몰
스파르타
교향곡
간접
중국어
지중해
##투스
##派
사무실
합리
생태
고위
##번지
약물
채로
쉬
주어
시계
무죄
소설가
무슬림
##흐
##동맹
##북
증기
오염
##생산
주가
센트럴
고교
완화
목성
화폐
54
써서
고시
윤리
혈액
당의
기갑
내내
톰
증
##액
프랑스와
동반
존경
무선
##정상
시집
##눈
근육
##보호
전장
##洪
식사
##..
경상
격렬
무늬
언제나
육성
점유
환
49
당원
동화
로즈
자가
아우
##업
일화
공격수
폐위
이어받
넘어가
파동
얘기
중추원
수명
##통
##철학
##에너지
병조
북서쪽
훼손
관광객
하드
멈추
사헌부
##표의
##보통학교
거느리
세조
그랜드
리버풀
때때로
##的
완
##중국
피터
##께서
##항의
복사
등장인물
프랑크
##林
다양체
퍼져
각본
동경
색상
##정당
국군
대안
통로
56
제수
겸하
칼리지
유역
세로
##틱
파키스탄
고조
공국
##장애
소득
5000
세기
연구자
주파수
외의
해리
##술
요금
호흡
내륙
##레이
고립
중기
##여서
주자
섞
##단위
##박
독립운동가
앞면
실내
##34
존스
융합
의병
맞춰
충족
곤충
탑승
입사
편리
부서
목격
장인
You
연령
##푼
자유주의
전함
##평
떼
합쳐
##℃
매력
주축
싸웠
사료
##종합
효력
펜
##샤
가시
수상자
이에야스
여객철도
##시민
유출
크로스
각국
##학의
3000
토머스
우연히
##빌
##400
문재인
부통령
김영삼
최소한
덮
달린
회색
황금
안드로이드
부과
발족
거슬러
고베
랩
모듈
계수
쉬운
지표
입문
게이
교장
##인간
사당
##회담
부른
리듬
무거운
##信
##柳
자회사
운명
##온의
오다
에어
업
준공
어두운
대리
##80
자전거
중점
유니폼
배정
##論
무려
주한
불편
철저
95
빌헬름
낱말
역설
##모
태어났으며
##和
취지
며칠
회원국
##차량
##45
지분
덧붙여
나선
치열
현의
핀
##학생
어워드
용량
전임
역이
##학
물러났
인력
가져왔
존중
각기
##차별
시드니
둘러싼
진지
##종이
b
여덟
##전선
당신
##금
별다른
기독
과일
안타
반박
충성
궁
지각
농
모순
닌텐도
좌
편곡
##규칙
##"("
성종
별의
나타낼
안의
##효과
프로토콜
후지
이어져
너
향한
독
탈환
혜성
모음
이른
기상청
##칼
천문
##보병
알파
이틀
대조
분배
격퇴
멀티
##타점
포괄
착륙
여신
국민당
부처
##돌
포수
음원
##서비스
몸무게
동지
운반
물고기
##小
인텔
진동
재무
대주교
득표
스마트폰
당사자
해협
##좌상
##덴
벤
자발
보험
전압
##→
##않
여겼
이사장
##카이
##아메리카
발전소
##투쟁
##유
##33
에이스
관해서
##孝
사직
렌즈
##禮
##건의
하버드
근접
학원
콘
걱정
##텐
디즈니
##초등
##자유
간다
송나라
협조
스페셜
상영
전진
거짓
힘입
실업
써
비즈니스
병행
출구
##베르크
##시티
##슬
카이사르
필
양도
서원
##보험
1894
진리
영화제
##海
주지사
당대
고지
디자이너
##누리
메탈
안장
베타
르네상스
저택
견제
파운드
##언의
달려
컸
##함의
빠졌
연주자
##협정
HD
기념물
하인리히
히
##나이
틈
##上
##權
##劉
바오로
팽창
##푸
종결
홀로
53
파트너
왜냐하면
##척의
담배
선교
물의
꽤
학파
유해
##O
소환
##河
바라보
관습
대지
선종
포도주
내려가
복제
피트
유교
##복지
도왔
석탄
##시마
##짜리
루터
거행
성공회
##움
##건설
사망자
1890
낼
##처리
분지
시청자
필름
보건
창건
##‘
##여성
도심
닿
##자금
캐스팅
##사고
줄여서
매주
##프랑스
유소년
용기
##발전
다스리
공적
속성
대사관
외곽
##大夫
급격히
##톱
연세대
DJ
조명
실전
신사
중계
##吉
별칭
전례
산화
천안
주어지
표명
엑스
한강
들어와
개수
대외
노비
직선
생일
지사
더블
승부
일어난다
야간
법령
##조건
출토
##룰
커피
일어날
자문
##계급
##행동
##짓
모방
##官
##줬
##연구원
산악
두려워
항공모함
##공장
동년
스티븐
2019
구리
콜
듯한
금액
설비
초창기
반경
손가락
다운로드
관장
에스파냐
##자원
##보이
생전
도서
친일파
방침
##운
도호쿠
O
부위
시내버스
서식지
바라
소실
동점
승점
##어요
바가
남동쪽
퀸
##도와
히데요시
텍스트
출산
시상식
##서원
기름
##江
바치
보스
역전
협약
질환
여단
##죠
노인
두산
당일
주립
모토
차종
##스테이션
날짜
외계
버지니아
전념
점프
조언
아서
따뜻
##같이
크림
요원
##주일
유인
##도서관
뚫
##여단
병역
지역구
##38
공자
##작업
내린
##800
교섭
시나리오
패전
나눌
남아메리카
이동하
필라델피아
승차
용이
지나가
1898
시칠리아
카페
##랜드
Me
한신
대처
놀이
##린
고발
중장
##36
##漢
셋
귀중
급행
극히
##慶
보일
생명체
우라늄
호의
궁정
했었
로스
노리
치세
엘리베이터
케이블
남서쪽
고민
양상
억압
##풍속
##께
인디
아트
해명
스핀
해소
블랙홀
##협의회
제작자
동아시아
보충
##항공
레이저
포격
허리케인
리메이크
그만두
우주선
각자
부흥
첼시
##의학
똑같
개막전
수습
180
비오
장편
감지
##델
##殿
대원
##탈
##〈
명령어
##캠퍼스
거론
기종
구제
지수
표지
투옥
페리
##센
규격
##칠
##립
일족
광산
교차
##hPa
급격
가구
제독
과제
끼
##비용
십자가
향후
##집단
트럭
1899
출판사
앓
무승부
인터
대폭
경비
쌓았
핫
북동쪽
든
익
인연
노드
디스플레이
확신
강연
##빈
빌리
끈
부착
##사실
파업
모래
밟
쓰인
이긴
##樂
##世
롱
오가
IBM
##팅
72
파티
오디오
종래
자기장
##經
일요일
꼭
흘러
참가자
부당
서브
기타리스트
##자연
##유럽
서자
##극장
잠
평범
앨런
선수단
##광역
##발의
사명
잦
캠페인
소니
남인
##記
둥근
##작품
좌절
##토스
자산
페스티벌
버튼
##사가
라이선스
##트리
차기
##자책점
우세
배급
##플
중심부
후한
전하
플
공인
신전
##日
##으려
섬유
지냈으며
적대
자율
몸길이
코스
발현
##즉
실시간
가르쳤
들어왔
하천
휘하
##堂
##守
중순
크리스
##相
성명
박탈
윤치호
비로소
결코
행적
##검
르
화합물
응답
하부
##白
##知
환영
리가
세트
제휴
칭하
눈물
목조
보완
##새
한화
##사항
##아니
새겨져
비서
인가
##2000
##공격
합계
마케팅
오빠
깨닫
드라이브
##64
번영
1902
시초
경북
의상
봉사
##N
##家
힘든
임용
바이올린
플로리다
제압
리투아니아
미쳤
국무총리
비극
커널
부호
##부인
컨
소닉
마찰
##가들의
한성부
##친구
스페인어
갑
용병
##화학
##알
숭배
##》("
실려
촉
##水
##소리
칭찬
전성기
피에르
업그레이드
일방
##부가
##단지
연애
빼
정자
##책임
입당
##신학
##600
##목적
조류
예언
천연
물리치
##버
문양
골드
고체
링크
##폭
인재
##겐
노르
찾아볼
체육
결혼식
##松
케
##경찰
출입구
##현상
성남
보전
평야
주권
평론가
효소
최대한
##스와
휴전
바티칸
""
##司
물려받
봤
힐
우루과이
##영
그날
전했
빠진
##당과
성리학
##리가
농도
라이브러리
##라인
락
~)
그려
##존
아기
유저
스톤
육체
##열의
##갈의
##소속
85
##스가
##39
1901
연평균
배터리
##전문학교
개관
총독부
평정
술탄
한양
계단
##…
붙였
축출
##멘
척
직책
##정신
강사
성모
피신
섭취
작센
구동
##선과
##블
객관
침
중재
사무소
연인
파장
일관
원주
합작
진짜
그냥
풋볼
프라
꼴
차이점
드러났
##노동
우위
e
시켜
관통
##․
상부
품질
긴급
역학
##37
명목
몰래
##한지
영광
매출
관해
##운의
살펴보
수면
남겨
##孫
복장
##판사
내려오
도주
숙청
##규명
경상도
직장
연이
##주간
장사
구할
건축가
구출
넓이
났
들어온
실체
추모
##宮
##기준
##吳
황태자
일컬
영의정
뉴턴
실용
이토
브라우저
중종
##끈
상당수
상류
##無
변동
카운티
됨
생겨났
주말
포켓몬
로고
아르메니아
진급
다큐멘터리
촌
on
57
정밀
횟수
보다
곡이
##수가
수평
증대
심리학
공의회
##요소
일명
부자
난민
컬러
어렸
포드
미터
협박
사거리
왜곡
번식
박해
탈당
게이지
상하이
공산주의자
58
연봉
미쓰
##所
추상
배후
##주식회사
수령
캘리포니아주
트위터
회화
##킹
아벨
유죄
감행
이민자
공직
내주
연상
후방
소프트
동성애
동아
아마도
##넷
주행
객체
목포
그다지
경사
의뢰
존속
사이드
늘어났
##언어
과목
취재
사위
발해
##무역
즉각
필드
##불교
1903
싱어
##전자
##헌법
현금
공습
창원
무인
##宋
후궁
오스트
##都
호남
성사
앙리
간단히
예조
비평
모험
자랐
긴장
식당
##羅
##코스
초과
##H
크리스마스
##전화
현종
##디의
굉장히
단행
접한다
서울대
##극의
화살
스트리트
##은데
관리자
정서
공과
##단과
##기독교
돌리
최신
언론인
##本
##민
분명히
##회견
지혜
영원
##부르크
제후
##源
북위
범인
##징
가요
어려서
##창
장의
적자
저명
종의
지폐
미루
##클
스타리그
센
설도
소지
가해
##기획
이성계
신도
승부차기
우호
그렸
##館
팔레스타인
샘
체코슬로바키아
야생
말씀
패스
앱
라이온즈
李
나쁜
급진
승계
World
마르크스
##훈련
##86
##사우루스
##뉴스
##승의
투명
옵션
##門
레논
##위기
더욱이
##틴
초연
예술가
중구
##神
흥선대원군
폐기
밝기
포도
강과
##뱅크
원고
상무
신념
테이블
첨가
적분
외교관
유연
오해
베드
총괄
##공신
태생
Love
상대방
왕가
마쓰다이라
마이너
88
퍼시픽
방패
단장
테일러
##기사
##순
강수량
동위
130
낙선
송시열
철회
선비
##47
지식인
피렌체
통증
##대한민국
63
대군
묘지
담긴
그치
##형태
기수
##통합
가동
탐사선
평원
추세
##42
##김
연고지
페루
이산화
바이
양키스
##됐으며
집계
소금
##전기
리만
보좌
열정
대의
##侯
비평가
##시청
곤란
헤
##활의
콩
화해
협
받아들였
벌인
유언
EP
##였으므로
##업무
마약
위임
가마쿠라
##영어
기업인
##전하
확실히
폭넓
##70
Z
훈
##해져
신비
1897
아랍어
자택
잠재
프톨레마이오스
##테스
트윈스
한층
홍수
대두
둥지
주거
형조
##스포츠
아예
닫
공조
사물
축적
북방
말의
##타마
동형
총대주교
##청년
북아메리카
110
##홀
##<
##書
혁
신규
##하우스
소유자
관념
벗
머무르
입성
준결승전
소재지
고수
##貞
어원
가짜
NHK
신학자
수용소
##U
까닭
레오
약자
98
##평등
성주
장거리
밀리
1884
탐지
셈
대학생
##%),
비유
도요토미
뇌물
학
##연패
등용
##圖
99
##ℓ
내정
자유당
뜨거운
테니스
굽
##특히
놀
물리학자
기아
##중심
침투
심의
할머니
드럼
사상자
울
##가치
바꿔
재현
호출
암석
폭행
##라스
##国
##재단
합법
소총
근원
장려
사인
동아일보
냉전
##양식
##입
환상
링컨
윌슨
##협력
고백
통틀
##베리
나열
타이거즈
부리
##09
시범
옹립
##北
입각
유튜브
##b
대거
뿔
학업
원했
동성
퇴장
선원
##수사
잔류
##코치
중위
전인
##더니
베르
인형
행정부
등재
62
말레이시아
최저
##馬
붙인
수렴
두루
오프닝
계절
##가리
셀
게르만
파라
매입
《》
센서
리스트
바깥쪽
모았
체류
연호
##가족
제치
##변화
군부
##대책
##직의
##리아
서일본
나의
##景
키우
##사령관
실종
##90
나올
중국인
##2010
블루스
##有
답변
회수
##룸
어휘
드라이버
함선
총선거
플랫폼
재혼
판타지
부수
비밀리에
##모델
##공주
날씨
책의
백색
콘크리트
##숙종
인격
중성자
##生
##인사
이슈
##左
##부로
학교의
폭동
살아가
스피드
여당
컴백
끊임없이
59
대위
참모
위주
조선일보
축하
가군
외모
##聖
##41
평행
##첸
직면
굵
##독립
스카이
톤
쇼와
##將軍
민법
순조
통보
엔딩
정해진
뒷받침
블로그
##서양
##안전
저기압
##송
위장
##레일리
퍼지
밀란
##위해
상자
통근
끼쳤
도루
##관찰사
윌리엄스
양호
버
석조
폭로
서북
개종
교구
패한
##行
##득점
상세
문하
장갑
세계관
폴리
화장실
연산자
추출
안내
복음
함유
SF
허브
동일본
전한
여겨졌
장안
일반인
장례
##，
##운영
노란색
성숙
주어진다
##曹
암시
명제
쌍둥이
봉쇄
대포
징계
고개
##준비
봉안
임의
고치
베어스
재상
필립
들어간다
늘리
1860
너비
MC
통행
대패
##차트
##황제
##폭풍
결함
##예정자
해고
표방
오리콘
면역
선이
##徐
고원
이어진다
##독일
폭스
누이
중의원
곱
먼지
##鎭
사사
##주인
꼽
##쿠스
보인
##금융
대왕
##省
##어질
##는데도
부천
##아일랜드
옳
단절
광학
정류장
##대손
2020
이순신
공신
가벼운
희
테이프
닛폰
만남
행해
게스트
스트레스
마리오
가죽
기상
##藤
##삼진
칩
##周
제대
탐구
거처
##거지
갱신
##해당
해병대
경성부
위쪽
핵무기
매카트니
댐
러시아어
이글스
시드
##협
##지사
##해진다
≪
충실
둘레
홍문관
##공무원
아웃
##이하
##욕의
##사용
##承
기각
라트비아
도메인
68
찬
등극
궁극
인자
중일
악마
가신
석탑
직결
영국인
만일
시위대
몰아내
그레고리오
리비아
##공개
생겨나
책임자
양주
##셨
혼동
흔하
영문
##“
##기가
##얼
##谷
지류
오키나와
닦
조종사
##비치
##모토
밝힌
##콘
만의
적혀
포크
이성
서유럽
루트
##육
분기
생략
단식
토요일
초상화
##조치
##엘
비문
그려진
##주한
##런
스쿨
넘기
##음의
황실
##혹은
동북
새로이
짐작
##빛
노론
유로파
##55
##목사
1871
##채널
미만
예능
##프로그램
캄보디아
문구
선사
슬로바키아
파트
와인
밀집
##함수
미션
구축함
##주로
반지름
응시
패키지
##2008
드문
껍질
실망
서재필
360
빌려
바른
뒷
프레임
세례
##의사
##박스
##2009
후대
##강점기
노조
우측
잊
블
부도
경신
디비전
조달
구호
명사
##봉
해의
축조
스튜어트
담겨
누군가
##동과
꼭짓점
구릉
혜택
제트
정한
윙
신속
선과
적당
휴식
아인슈타인
선배
##올림픽
허리
돼지
세이부
베이스볼
돌입
지켜
##룡
##축
젊은이
성취
노태우
거뒀
뮤지션
준수
##秀
##으려고
##타운
국소
1880
강풍
##일체
보스니아
명백
교원
경선
##黃
명종
구절
최후
포유
##p
유네스코
모른다
언니
##배의
헝
##마력
##44
##햄
연구원
어른
수호
사살
상용
##다운
##함대
##재산
중독
벌금
가나
타운
대변인
##市
베이
뒤쪽
인테르
짜
삼각형
소통
##폰
가져오
풍경
시선
기고
##사와
야구장
아돌프
갤럭시
광해군
세자
##43
##과장
알루미늄
북동부
난다
정적
고무
##앤
취항
배신
상경
자치구
구의
엄마
상장
##계열
기생
마스터
d
##마루
매니저
무너지
노동당
##700
##미술
##마일
n
##핵
동사
##박사
##훈장
알코올
##뉴
취약
들어갈
동참
아스
고가
##2006
풍속
1800
##모든
##미디어
퇴역
두께
부재
영양
발레
##、
물자
고소
이어진
박스
행진
##매
알바니아
월간
61
서열
지바
연합국
과장
##수학
당연히
설탕
##경찰서
##행사
에릭
하락
##유지
코트
제네바
프랑수아
##운동가
##먹
##련
발각
메이
주사
보헤미아
호응
한인
느리
퇴임
머신
시골
##面
##좋
톱
갈수록
컬럼비아
##弘
##字
##08
후안
대치
충주
표기법
이의
품고
그릇
누가
방사성
목재
저하
감안
일조
##내용
##메이
##명은
##시켰으며
체력
독일인
공용어
##51
##W
→
낸다
추종
프랭크
푸른
교황청
마산
코리아
양측
치명
놀라
##살의
##社
##이전
지능
육지
구조물
정전
다케다
누나
대웅전
##功臣
##어가
쳤
##최
약하
동력
정렬
University
콘스탄티노
노스
노트
##한테
따른다
##대왕
입원
지주
양반
##노선
프랑크푸르트
##배치
탱크
##하위
매치
좌측
외무
이이
교외
달의
나이트
희생자
산다
혈통
함자
시가지
업계
구해
##2011
바르샤바
##타이
피난
판본
헬륨
타당
치안
KT
필리프
##근
##化
거쳤
##축의
##준의
##地
다중
가열
막내
##교사
상점
휴스턴
##定
후자
남한
장례식
##동시
96
바퀴
카를로스
충청도
1885
66
맵
키보드
1870
##46
마이
학과
##걸
##법칙
이슬람교
왕복
##전한
마르
##진상
느꼈
무슨
##분석
노부나가
스키
고고학
허위
일생
##매치
기인
##복의
부피
온갖
##남의
공익
동남아시아
##딩
고양
자유형
이복
선보이
일으킬
1889
##타가
에스토니아
##心
금성
심화
##극
##무기
##인상
##良
세균
탐
론
만료
##모리
정해
돌려
단단
##환
조국
##종교
임관
무신
거울
원반
##영국
취미
##버그
유닉스
신용
위나라
걸렸
중성
분량
러브
공립
##종류
이스트
##투자
활발히
법무부
##루타
부회장
프
정말
용서
상단
파이
중령
##반응
##역과
고쳐
아스널
모서리
기적
파문
프란츠
140
단축
##方
##끝
듯하
거란
모자
공백
나란히
천사
중추
##희
호모
다이아몬드
기동
하워드
##수단
##"),
소령
##梁
친분
특색
일부분
##~)
해변
##學
##공동
옥
유니
##도어
##：
보복
위탁
이겼
##듀
운하
얹
부시
패하
여지
콜롬비아
민감
입수
동성애자
저렴
맏
##주가
##려던
몬트리올
발령
성도
##연
##54
##헝가리
ISO
콜로
느낀
##기지
무용
서신
베네수엘라
##見
기증
##차이
기하
##2012
##75
새겨진
##태수
예배
비단
환원
따랐
##실장
니시
이북
데이
연소
엠
##루스
띤다
대승불교
둥글
##케이드
파병
정점
##政
##세트
배려
사관
남동생
추산
시뮬레이션
일가
브라이언
##後
##com
갓
160
이룩
킬로미터
특권
자세히
##릉
포장
풍자
상상
##피의
##집의
76
가볍
교과서
무효
##2007
단원
솔
게이트
공표
흉노
대승
당수
분광
##="
원본
아리스토텔레스
차관
해역
번성
종속
북서부
세속
무조건
따온
기금
##智
보강
케네디
의의
mm
##野
회계
##太
##전투
낮추
무실점
중복
내기
##52
콤팩트
##평화
군중
평안북도
수신
요크
충남
도장
수색
평일
단기
##村
중도
##인구
##로프
쾌속
플래시
호세
욕구
초빙
진전
투항
1600
쫓
파산
주주
초월
##짐
콩고
포병
땄
발급
사가
무상
##기인
복권
아사히
여파
진상
##John
채권
명분
주역
실권
성전
##동이
극장판
##상황
##는다면
함부르크
청원
집결
계열사
면제
##클럽
던져
원전
꼭대기
##벨
메트로
키프로스
지켰
순회
##랄
궁궐
태양계
##나갔
##넨
##憲
이용자
##선언
UN
##泰
그랑프리
스프링
##재판
순천
출가
대성전
박헌영
네이버
드디어
올라간다
일파
##박쥐
야마토
직경
발의
##연승
마녀
상해
뒷면
보살
##바르
토양
교단
합스부르크
##直
##밴드
1882
대행
##基
나가사키
시공
누리
경질
플라스틱
상연
##켄
긴테쓰
세션
시베리아
희곡
##申
대의원
정립
오른손
##및
##형식
kg
운동가
재선
고쳤
창출
##탄소
발칸
##부에
섬세
따위
대단
이주하
##통일
트리플
멜로디
c
##利
만세
맑
탁월
시달리
딘
##07
자전
##J
근교
연쇄
방송사
누적
##영역
정찰
응
수법
대표작
색채
짝
건담
군함
기르
##데스
유동
챌린지
감금
탐색
##세종
링
극심한
욕
출석
왕권
##淸
멸
##머
상공
즐겨
아래쪽
가축
모인
산의
통치자
##망의
구도
##스카
##대장
하차
흔한
레닌
##왕조
부각
깃발
희귀
##시스
반군
요동
삼성전자
기슭
호랑이
몰수
벽돌
원천
전날
##제품
말미암
찾아내
쏟
시합
경찰의
애칭
##朝鮮
##확실
천장
극대
반도체
1883
타인
##검찰청
##대에
전지
능
만주국
스티브
창고
호위
캐시
김옥균
아나운서
종로구
##어로
후반기
미술관
성체
강남
좌표
##등록
##경영
매매
헤드
한미
##경기장
##集
봉건
인질
##바이
##지인
맹세
신선
소모
왼손
상응
##2005
오렌지
삼각
연도
호족
아이슬란드
옮겨졌
##가스
이식
강경
외야수
##조각
103
스케이팅
77
임상
붙여진
자칭
헌신
페이스
데모
##기기
##팬
##락
##豊
##華
요약
##理
Q
규범
당연
솟
##포스
두개골
동상
넘어갔
러시아인
신축
안토니오
칭
케플러
탐험
택시
수중
##雲
수군
광물
살려
해인
냄새
##의장
사이버
##감사
동래
모은
##공연
접
##플레이
아이디
평안남도
##陳
식별
채우
통용
충
##니스
극동
##증
구경
후작
슈팅
효
공리
란
부설
히어로즈
원로원
구형
##英
빨간색
횡단
##니아
연예인
##유부
레이스
모로코
체중
국내외
경연
압
불린
클라이언트
##기계
고장
##the
리더십
덮여
말년
누
파손
##쌍
진공
신탁
맞붙
필터
은거
카라
읍
였
앞쪽
##관련
CEO
KIA
블라디미르
##전략
##06
광역
몬스터
##나무
신흥
전이
돌보
우유
##버린
##보장
혜
직통
##셔
꼽힌다
거주지
격
자선
학명
복소수
수축
페르시
##全
중엽
유격수
학계
산란
원장
스콧
##절차
아시카가
아름답
모이
다툼
개미
살리
외관
패널
프로게이머
어려웠
워드
맥주
히로
1848
취업
분비
투르크
73
한스
수교
##2013
토니
다룬다
67
오로지
라마
##언
산업의
##텔
##e
법의
단행본
##시가
경과
창시자
스마트
##구간
냉각
세워져
##아래
공이
아종
전년
##쉽
설화
황족
극한
여우
노동조합
##수지
함경남도
##킬로미터
입체
물품
어업
배틀
효종
부드러운
검정
사회학
##물리학
사슬
쳐
펼쳐
기병대
오리
선도
밀양
비리
##리우스
900
##溪
윤보선
매사추세츠
연금
오이
전래
독도
국어
자들
##기자
##객의
III
수료
센다이
##은하
총사령관
배속
##시인
구미
상대식
##맹의
101
어미
웃
수성
사로잡
##立
말레
동행
성문
클라우드
##광
관계없이
첩
아폴로
##공파
제위
##康
센고쿠
화력
내외
기술자
승자
깨달
현저
##필
제재
##펜
케이
치루
케임브리지
올랐으며
##가수
미소
방사선
##順
불타
점성술
동구
동학
붙여졌
##록의
쓰여
차출
증권
감동
열심히
넷째
러일
산타
##오스
듀얼
입국
##월드
상금
예선전
설치류
■
아홉
접수
##공단
金
팔리
파이널
정변
즐길
학설
즈음
홈구장
##퍼센트
69
안양
괴물
어쩔
##정비
윗
폭격기
남서부
이관
지지율
항쟁
##효소
신원
폭풍
##핀
##건물
컨셉
뱀
주조
구실
다를
권장
가솔린
##敬
프랑
시정
청동기
동조
분당
무제
##서기
영화배우
##형제
##원장
메시
1892
##인민군
##통치
##저기압
##버전
둘러싸여
장기간
##완전
결별
##壽
제국주의
김규식
보석
##라서
총칭
광대
개교
제퍼슨
조반니
발트
##令
##연합회
내려졌
느껴
##문자
##時
김해
##디스
##난다
##비행
가미
사라
본국
##古
다투
자결
수년
들여
이상한
뒤집
줄거리
죽인
서문
나눠
당주
##요리
권총
제곱
##셀
다항식
이자
##퍼
생산량
전복
만성
##53
삿포로
린
흥
미세
청사
실적
연기자
##고려
분출
걸린
수동
초신성
관광지
스폰서
전도
증진
부채
기저
##비시
##동당
선행
북경
뜨
##세자
평민
실린
##65
파란색
스님
입양
상표
간토
서임
산출
##帝
우승자
##前
바쳤
##아가
School
##사무소
##드라마
##62
어둠
NBA
상관없이
드러냈
신생
깎
##노동당
대단히
여진
지붕돌
데이비스
##송라이터
왕가의
관람
곰
천도
붓
진도
치즈
와이번스
한족
##로마
캄
CJ
경찰관
연못
라이
##2014
##답
에디션
정사
대변
최상위
##풀
급속히
##"()
분파
곁
생계
##스로
##이름
켄
옥스퍼드
##필요
##래
명은
각도
##建
우파
적외선
1893
졌
반감
##총회
##주택
71
퍼포먼스
1888
서민
때려
방사능
루프
충전
파울
※
결선
페르
거짓말
하노버
남동부
쾰른
토성
##唐
타이거스
찬양
##≫
##무대
장성
함정
비석
스위치
서경
86
##묘
커뮤니케이션
##대통령
염려
##선생
##이온
유아
강원
모친
##98
아날로그
몫
기량
##을까
공약
AC
조립
무함마드
중퇴
97
철도역
찬사
##제작
##장소
미군정
##부원군
78
언
응원
##저의
##범죄
미키
##姜
##곡이
##전차
##阿
변호
고사
꾀하
내무부
##『
##연속
서진
의결
처지
##케이
신이
아베
조리
##망
##중종
인체
대피
기관총
##소송
싣
너무나
##비아
감싸
시야
##福
81
소원
지녔
키스
##衛
##기로
도카이
끼치
##패의
모색
온천
지부
몽
가혹
숙부
입주
##적료
##05
1868
##伯
제우스
회피
교정
엔트리
사업자
천재
##명령
공모
트로피
부르고뉴
청색
포착
히로시
##코드
인명
피고인
##러시아
외국어
간신히
저주
앨리스
룩셈부르크
바꿀
키예프
##에다
드림
역명
슬로베니아
동유럽
올바른
근로자
국정원
어뢰
준결승
IT
포획
부가
일자리
성곽
350
보낸다
줄여
똑같이
남작
계정
개항
방치
토르
사범
양이
농사
꼽히
##문서
##연소
자민
대차
##격
인문
남극
받침
도카이도
사무총장
침체
##전적
고르
##이시아
디트로이트
열린다
사우디아라비아
장벽
수분
런
궁중
마침
1863
사민
미얀마
##2002
국보
패러디
순교
향했
자제
##重
걸쳐서
정작
가계
1886
##01
##지점
따왔
플라톤
미스
왔으며
1866
오피스
공민왕
의과
74
창원시
RNA
형인
##井
후속작
##주기
폼
##죄
타점
82
원격
시국
피겨
##史
비주얼
형법
아키텍처
접어들
##木
산림
깨끗
##58
도망
84
원료
규탄
부파
##인권
번창
발병
##아군
삼촌
모티브
큐
생긴다
명성황후
가족의
중수
##덕
##질서
##廣
엔지니어
87
인민군
맡기
170
비준
종파
복음서
##인먼
##청구
쓰여진
관찰사
드러머
유식
##2004
뛰어들
파기
과실
예컨대
라오스
105
##벌
프랭클린
해밀턴
##당해
크리스티안
추론
선장
티켓
##낼
탄도
소방
근로
동로
##페르
아카데미상
##궁의
##신경
자란다
스카
##베르
옥수수
샀
##금지
달아났
춘천
서류
안보
##수준
대대로
##49
##畵
예하
컨트롤
##영조
##킨
페이스북
헬기
니콜라이
##라기
국교
케빈
이용객
##륜
의자
##았었
표적
가마
중앙아시아
##분과
퀘벡
히가시
##원소
##명종
명확히
할리우드
비해서
축구단
부작용
##졌으나
성지
구마
원내
##연상
바그너
감자
##시킴
매끄러운
바뀐
달라지
분기점
소셜
품종
##릿
다발
반란군
파직
유료
처녀
청동
치러진
독창
볼셰비키
It
설립자
##머리
##노조
면허
격추
속력
채소
시속
바꾼
소생
어찌
##아스
생존자
미상
##宣
모금
매수
##황
##2015
사의
##릭
선진
회상
미하일
##95
익숙
하트
수련
겐
##요원
생체
나타냈
격자
##소스
가져온
붙잡
##부작
받들
풍
익스프레스
징
중앙부
i
놀라운
MTV
그저
골프
##者
실무
##당원
프랑스인
대규
군사력
##고속도로
취했
자의
##陵
역량
앤드
그래도
##리어
넘치
프로그래머
실재
##右
양성자
머
마닐라
준주
원의
창업
퍼
항소
##광의
느린
##치료
검거
1887
젖
후배
정무
##궁
##옹
내걸
모의
알제리
##유적
에티오피아
심야
##었었
부합
회고
어울리
1876
##거래
증인
온대
예시
SM
FM
동정
##伊
하단
기분
얼
알렉산드르
코믹
##장비
카자흐스탄
##람
##56
시켰
흡사
강렬
대전의
##누
요격
API
##요의
핵융합
비추
해리슨
##빙
##체육
##림
##시켜야
##후기
폭파
사카이
##副
농부
광저우
시중
배우자
토착
설교
제조업
PD
자아
보성
##상과
위력
평평
차츰
##결혼
줄무늬
어긋나
타석
관제
지닌다
컨트리
마라톤
본문
평판
##광고
빛나
메커니즘
포스터
합당
##許
보여준
휴가
92
견인
유체
##포인트
돼
영남
지배자
정세
선구자
복용
민사
시트
맥락
대사헌
실정
##미사일
군정
현행
방대
##엔진
경의
신민
사간원
##지와
83
프로덕션
신중
외치
잠깐
단면
고의
부름
##문과
옮긴
예고
치른
사회민주당
여유
자크
##국군
##세손
내세우
무솔리니
홈경기
안치
청산
##郞
##견
거세
포스
유대교
기숙사
로스쿨
오버
요건
##士
창문
에르
감수
국영
질소
지출
종군
펴
관례
교차로
아무것
철저히
한다면
요제프
##사관
연장전
공감
제작사
##티스
씨앗
프로레슬링
철폐
상이
활주로
터치
법무
1861
생겨난
바꿨
스톡홀름
메뉴
증후군
안테나
##처분
NASA
##토리
재활
천연기념물
채무
타협
막판
얀
##佛
전시회
발렌시아
사마
결
힘썼
다윈
후사
79
천거
가톨릭교
마루
대한항공
피할
부사
클린턴
##을지
후지와라노
##영리
##장과
벌여
새겨
김정일
정월
$
원로
LED
오하
조세
위촉
##중대
아이디얼
다운
기어
절벽
델타
평안도
비치
소나무
우정
GDP
##게끔
MP
나타낸
##2001
나주
생겨
원숭이
CF
상트페테르부르크
스카우트
##99
##갈
반전
축성
지켜보
인터내셔널
##폴
박쥐
##욕
사업가
1891
악의
##玉
마르세유
실각
느낄
낙양
수락
밴
##夫人
민속
##앞
케이스
##협상
##옆면
참의
늙
대법관
더비
##延
수복
라이프
이득
양보
알아보
민정
분수
얕
미나미
##윤
한큐
1864
잘라
전위
성운
##광년
컴퓨팅
계몽
##錫
두려움
바에
경관
요절
교량
방어선
재질
##津
##驛
이빨
고분
##라이트
##철
조부
금요일
##친의
##잡지
##소장
히데
##체육관
##성능
1881
펜실베이니아
마르크스주의
##의료
사라진
가늘
##』(
급히
곽
서위
저널
사본
##인물
##應
##젠
##反
##협의
##독
발라드
##++
##沈
연수
역사가
베토벤
이단
미시시피
펑크
독성
##이익
##月
선제골
우편
로그
검출
카스티야
##헤
약점
무과
첨단
BC
마비
임원
소자
##케라
자란
지선
멜
소극
온화
레스토랑
중량
##勝
성별
##c
텐
부드럽
대북
##스런
##노스
New
차용
노부
향토
워
컴퍼니
로마인
에스페란토
심해
스즈키
신학교
신조
세련
고집
뉴캐슬
바둑
법조인
다저스
연말
사설
##美
탈취
검열
흩어져
##k
카이
버클리
##당한다
##배우
가했
뾰족
영원히
숨기
달랐
귀속
프레
채취
##라우
##식품
##공산당
국외
교대
남하
올라갔
특집
##개소
슬하
떠오르
음료
돌격
1850
##i
##삼국사기
요정
연예
물가
사안
노르망디
추첨
지역인
후예
접한
재차
망
형벌
지장
##박의
##밤
급속
협주곡
잠정
남미
갚
##엔터
불꽃
##楊
덧붙였
저조
점거
칭송
##테르
##61
보이스
에콰도르
##별의
##원인
##해방
배척
##판매
전전
규
벽화
일각
쓰촨
장미
단층
공천
이치
랭크
마오쩌둥
몰두
1865
##思
라이더
징수
프란체스코
처럼
등등
계시
기차
봉인
극도
대역
모니터
##가장
게릴라
음향
교육부
공존
가옥
결과물
판례
세이
##')
전락
요르단
##찬
##혼의
##시오
카를로
배구
측이
##여도
악보
일당
91
##외교
생식
빔
난이도
이수
자유민주당
##필드
##결합
브르타뉴
탑신
교양
솔루션
로저
말리
진로
배상
루돌프
이븐
복합체
NC
변이
연동
백화점
슛
##으려는
##制
나갈
예명
과시
토크
편견
시상
##범
해적
절감
유생
##碑
베네딕토
오노
강간
환관
##최고
오타
가의
특사
대성
우에스기
수열
아라비아
빈곤
##臣
캐서린
##회가
진한
비전
기질
##트라
매개
여운형
나이지리아
그림자
수확
장학금
오프
알아내
크리스토퍼
위함
예약
자사
리틀
평형
##집행
##자신
지상파
전반기
겉보기
파벌
비행장
레온
프란치스코
지질
북서
##윙
네티즌
중상
1873
갈리아
급증
로렌스
반성
면모
Y
가리켜
보낼
##생명
밭
##通
엘리트
##나오
잔인
집행유예
##齋
##57
묻혔
##단장
트럼프
곡물
위키백과
복식
능선
범행
##규
헬리콥터
정화
유방
사절
화강암
함경북도
아이폰
유클리드
안티
##59
발동
소음
초나라
피로
정문
시립
납
사리
염증
동요
브레이크
닫힌
도청
간혹
액
##根
##錄
오바마
원산
관우
알렉산드로스
노면
##玄
빈번
차르
하프
병과
##큰
운임
##원이
이송
##자사
섰
##가로
##겸
##법률
교의
겉
##코프
아틀레
새긴
스킴
싸
장원
넥센
상담
싸워
주선
붐
##현대
##배상
두각
##회전
##추진
도리
갑옷
좌의정
무술
마디
코호몰로지
##곡인
생모
##老
조용
##둘
사쓰마
동네
위키
##학기
전방
유키
보루
알맞
성매매
칙령
볼로냐
##2017
##음에도
알렉산드리아
우의정
×
해상도
지도부
잡혀
윗부분
##넣
게시판
국제선
놓인
몬
합치
싱
피핀
몰리
신약
##버린다
칼럼
러셀
병기
선동
친왕
라이언
##烈
##자형
리본
앞선
창의
굳
복위
여타
복직
게시
머리카락
나름
홈즈
93
카르
도스
##기와
다니엘
상사
견디
포털
천천히
아시
쓰레기
##。
달아나
크루
##熙
아제르바이잔
##연료
절단
동맹국
##토록
돌아다니
지미
일으킨다
##웨이
모범
부상자
화장
켈트
##nowiki
주오
거리의
불행
후쿠시마
연한
참사
마스
##궤도
래퍼
1830
##메이지
##春
89
리뷰
##浦
아닌가
구내
산이
##해석
종로
##실험
킥
1872
누렸
월요일
##식물
##즘
어드벤처
퇴위
들어섰
산스크리트
장제스
뉴저지
종말
상기
##사회주의
도피
밝혀진
파일럿
수위
색이
주창
비타민
##리스트
알프스
천문대
##피트
수시로
##同
##뮤직
퇴직
수염
군벌
종식
##2003
사방
렌
##傳
주차장
배운
디스
##一
동적
장녀
220
춘추
사상의
한성
뛰어났
유혹
그만큼
빈도
염색체
##태평양
##말의
이뤄졌
베풀
준장
요시
##담의
아담
북조선
제프
후진
한민
우물
의류
조롱
남원
치러
애틀랜타
당황
외형
##운동장
우회
복종
터지
그만
연립
넷
에스
##달의
사육
순차
##친
시애틀
명인
동남
가져
컨테이너
대출
코펜하겐
광년
모터
##생물학
알파벳
특화
대영
1862
with
1878
복역
705
동문
야쿠르트
굴복
##*
##63
장로
정제
##代
혈관
##딘
제동
강철
##朱
##사범
마다
##면은
##연방
##통제
램프
신형
성령
정했
##평론가
지옥
바이킹
송출
지면
##아웃
죽임
반지
승용차
##복무
열도
##낸다
다듬
##기법
마르틴
장래
##벽
낫
취한
여배우
본성
아무리
##비뉴
##라고도
화약
##균
쌍대
리치
평했
트랜스
스페이스
##확인
##亭
커서
##남부
대동
##사진
잡아먹
파시즘
도르트문트
극작가
개원
##슨
예수회
사영
간사이
집착
헤라클레스
객차
p
MS
보드
모스
시멘트
is
별세
평지
발리
턱
국한
용산
엮
대접
##자기
##악장
학회
떠
##기한
해독
조승우
가이
매진
`
##창의
주일
제갈량
판소리
몰려
침묵
바람직
브레
##서로
화기
##眞
동맹군
객원
묘역
위헌
상행
애초
##롤
속편
인과
나타날
근사
척추
대좌
레바논
##仲
시외버스
격려
##彦
##夏
전담
놓이
추서
토기
모욕
다스렸
광도
인해서
발목
높였
에게
빅뱅
힌두
##상업
온다
콘솔
왕과
움직일
쿼크
컴파일러
에우
04
주니치
유성
My
드래곤
내린다
##정조
연대기
감추
화자
헌정
##타스
전격
##명칭
##아시아
패밀리
맥스
세습
소행
##노트
펠리페
재미
기관지
유서
올림피아
##85
로얄
둘러싸인
USB
달라
종자
##하로
##志
##지법
뛰어넘
##제조
만날
응하
스트라이커
츠
해안선
문예
만년
발원
##達
대본
대합실
유령
돌연변이
##파일
마우스
유능
##포드
염소
오일러
매달
수용체
근래
발전기
이스탄불
##타수
자음
미친
##둔
주심
타락
무어
##할지
##어스
위패
광둥
왕세자
자서전
##죽
뒤늦
꺼내
신발
주름
조인
왕건
연산군
스테이션
헬
진사
종점
법정동
혐오
##꽃
경제학자
친선
##악
둔다
안개
관문
맹활약
차장
##와라
상정
제주특별자치도
왜성
결핵
보위
관련자
##풍
고든
##난의
US
1592
##기도
샬
강령
출동
겹치
간략
##사기
##귀
갈래
지침
아레나
무명
유족
##져서
모리스
연꽃
뮤
말라
악단
도사
국호
##자격
불참
이용하
감상
##핑
이닝
이례
복소
##논의
휴
산요
##렀
초안
도래
파나
소행성
경위
대표자
자진
##라면서
버그
관행
사바
심문
방콕
곱셈
이탈리아어
튀
높여
민병대
규명
맨해튼
고생
클레멘스
근거지
재편
##04
충당
신곡
강행
##院君
막스
##78
’
##對
##기반
서리
북동
##밀도
##모드
##鍾
제인
최적
압록강
리옹
숙주
f
기세
##사인
벤치
극우
##인도
##사지
##流
추존
재일
##파크
전학
암흑
마카오
적군
기념비
##합
그레이트
##03
##트릭
##지로
아나키스트
##면적
떠난다
여학생
##텍
촛불
비싼
습득
페이
공방전
사토
경쟁력
여수
박영효
족보
슈트
1867
나간
단정
##향
##72
프랑스령
주입
##d
로마자
익스플로러
450
유스
빌라
슬픔
양대
##해군
데카르트
체조
스맥다운
토리노
힌두교
##로드
소매
##원칙
욕망
믹스
마누엘
자외선
대원군
International
##출신
번갈
클라크
당내
적발
간첩
포탄
삼림
귀신
촉매
쿠퍼
카터
여권
플라
XP
##유가행파
##榮
애정
독서
##대한
DC
분단
오크
몸돌
OST
##현종
별개
패해
대에
##花
의사소통
공수
##설계
##회원
##좌
지인
##해양
달걀
##사전
면담
##岩
중형
대부
##鳳
##蘇
한문
허목
동진
몸통
준동
클리블랜드
맡겼
도출
##마사
##고지
개인전
감성
##기갑
무성
서남
##전국
전해졌
신주쿠
대지진
화합
설문
내보내
프린스턴
견
극찬
무사히
사이클
핵분열
두지
et
SC
##2016
띤
버린다
단속
##길이
탤런트
러시아군
대리인
간직
희극
##세조
1200
동명
##尙
##》,《
##朝
자비
##在
파르
##데이
어려워
총기
##다이
채색
##응의
##옥의
##지도자
1840
동국
북군
##이라고
4000
##非
내면
평론
##시켜서
불가피
##號
브라더스
더글러스
##02
전자기
##大學
협동
하얀
다카
파라과이
보증
외무부
견고
서면
연희
리스
##으면서도
열려
로비
1869
변질
돌기
점포
##타워
유권자
교도
##였음을
달라진다
단국
##잔
교도소
타도
복선
불분명
##오늘날
금전
도망치
일산
##회관
향교
로타르
##보안법
##킬
편집자
만난다
기원후
생선
네오
고아
백업
현직
##68
원한
롤
야외
##앙
고령
1875
##900
시간대
##昭
조지프
##세이브
##디아
태수
해저
찰리
##說
##부와
EU
##京
종업원
릴
오나라
모호
##스터
마일
피아니스트
파면
닉슨
경보
##뇌
##베리아
잡히
##賢
고온
##수상
방화
벗어난
중산
풍습
##植
텐서
컨트롤러
진수
##드리
조수
직계
##지수
##질환
자명
퍼졌
수차례
128
밀가루
정치학
편이
워너
시종
##규정
##지정
소론
서포터
실점
이남
풀이
##66
반기
섬기
##77
원자핵
##지식
토트넘
증손
집정관
나카무라
##결의
투자자
##다르
온타리오
출입문
민요
기사단
전라도
쇠
흐른다
탄약
주나라
내세워
로빈
##언론
94
제이
따라가
##티코
녹색당
돌출
##타임
친족
실존
태우
IC
아빠
교과
호투
국력
회귀
문화방송
가산
불가
완결
kt
급수
열강
지탱
일본식
부제
주고받
SNS
페르디난트
이뤄
System
인프라
계주
포럼
##佐
서해안
von
Music
타임스
담보
구금
이뤄진
데스크톱
##章
##메라
##모르
포탑
##발전소
각성
##스에
녹화
슬라브
공통점
요시다
카르타고
문자열
살짝
##닝
가까워
##〉()
##공작
필두
쇼핑
요충지
장자
교부
날카로운
쓰시마
융
해태
마사
유학자
##잎
데스
차세대
항로
연달
스파이
MSL
##전대
스킬
##下
##율의
하류
＜
##조합
특전
1877
1874
곤
##적한
계의
김포
##혼
사서
목회
##郎
##광장
##진흥
루크
절정
##만화
전멸
##정원
##개인
실리
##부족
주부
체스
용의자
최진실
무척
몹시
##지부
북아프리카
수지
빨간
반정부
##도쿄
안산
##恭
중원
남베트남
강당
구약
라인업
본작
접해
수수께끼
##구로
증조부
금강
순양함
##국은
발기인
가면라이더
강남구
끝내기
비스마르크
경찰서
갈라지
유포
##교류
보르
릴레이
특기
투하
##성종
##칭
##미래
헌납
바이오
셰익스피어
행정동
부왕
##안의
다녀왔
##魏
흘리
성실
배분
케냐
앙
연회
지나친
자립
서사시
타구
삼층석탑
힐베르트
・
진행자
경지
아이콘
위안
##노동자
##인은
세이브
핑크
##여래
헤이
##촉
스칸디나비아
인공지능
표절
강력히
알래스카
도망쳤
관청
"(
작년
##도움
학장
여의도
자르
재발
직행
개헌
코끼리
##구속
간판
영유권
치환
##키로
수인
성행
사회당
##영화제
진흥
증세
##起
후원자
##균형
##1999
변모
실은
IP
##채의
##th
섞여
##인당
##가량
##땅
연행
전세
##校
와세다
##변
논하
원군
송환
여사
College
##셋
##MHz
왓슨
##자본
표정
화상
유수
##主義
추리
두꺼운
##體
접전
카타르
##영상
##萬
은혜
그리스인
##제자
뷰
우상
1879
##보통
##응
완만
던졌
##•
베리
필립스
선명
##건축
배역
125
어류
청소
함경도
##관심
구두
댓글
연정
##보수
거성
암스테르담
괌
##라디오
샘플
거쳐서
자처
가라앉
엄
보너스
컴파일
공안
방글라데시
줄곧
거칠
HTML
올라오
과연
자리매김
아닐
반론
후지와라
습관
열기
항만
##담
강변
파편
##표현
장이
축일
톈진
본체
레전드
##연금
##정보원
황폐
가루
호스트
헤이안
##우드
습지
쇠고기
##혐의
몬테네그로
펌프
##분경
행해졌
##에겐
막강
리믹스
손잡이
체인
##황후
관세
##아프리카
소외
가로지르
«
대담
친선경기
다나카
코르
휠
##혜
확고
마르코
불신
##장교
릭
##76
##尙書
매거진
덴
##블의
필연
낙동강
떠날
##사이드
삭감
종영
게오르크
##지리
벨트
CBS
前
##부를
기운
듀오
스틸
애리조
선진국
할양
포도당
리프트
##구가
레일
헤르체고비나
더블린
전대
정령
발산
커졌
##불의
북유럽
간결
수심
외척
풀려났
##遠
##92
펄
##행성
메일
##통상
뽑혔
##지명
##현감
빙
반주
##任
학력
##청장
하급
다이
형주
##가운데
##대원
드리
GNU
두드러지
실버
폐차
에이
보직
실험실
모터스
##71
##가요
비스타
##룽
관현악단
민영화
개인용
##여기
##원리
거꾸로
전무
그릴
매킨토시
신한은행
€
에이즈
##러스
울프
후세
김성수
긴밀
되풀이
토끼
인지도
##미술관
굿
##俊
수녀
번은
##느
만인
##널
덩어리
##奉
햄
감리교
원유
레지스터
필명
닉
##상서
프랜시스
노동력
##복
기쁨
이윽고
아키
##순서
도교
유정
상급
##星
##시경
잠입
허블
격하
해안가
농성
사이토
보수당
정해져
아부
##判
##매체
취리히
보트
소피아
빅토르
스칼라
팔꿈치
##師
흥분
선봉
파도
니콜라
웨인
볼리비아
우왕
일설
알렉스
 
순식간
겸직
##파운드
임정
패망
폭포
초상
계량
제명
품은
갈라져
고딕
내야수
겐지
##敎
수로
함량
##순의
메타
출처
신문사
넘겼
슬
해결책
패권
족의
투신
밀러
##年
##보살
##드로
메소포타미아
LA
세르비
교통국
열세
퍼텐셜
소울
카프
임하
한창
##惠
##得
미야자키
랜드
모반
소의
##다리
##cc
유길준
##텔레콤
퍼즐
##소년
스캔들
이겨
떨어진다
안경
##연기
제왕
옹
방송인
초원
치아
취직
뉘른베르크
도박
##La
##車
이양
1859
경쟁자
입히
윤휴
##효율
##지지
삼진
##예선
나노
굴절
##익
오클랜드
가두
##靑
최성기
사운드트랙
시코쿠
요직
표출
공연장
##88
메디치
국유
치과
##97
이메일
쇼트
바디
##아과
황색
왕궁
IMF
##책의
봉해
밝혀져
여진족
가브리엘
맥아더
인코딩
취할
##군인
##치가
##지나
재미있
대나무
글꼴
왜구
각료
하행
유선
출
도자기
하노이
##이것
내란
##峰
국철
밴쿠버
##표준
물려주
공화정
브뤼셀
학대
경매
몰랐
부총리
##保
##74
완수
##67
미생물
재판부
악장
la
##회로
##녕
다가오
파이어
웹툰
##인식
##변호사
포터
납부
상가
트레이닝
줄일
고등교육
금나라
##治
별장
해트
중용
##우루스
끝냈
가토
##빌딩
결장
승정원
끄
철강
콘스탄티노폴리스
조선공산당
펼쳐져
친한
##노미야
모신
##84
가져다
사상가
선율
인공위성
레인저스
인위
개정안
복속
##호대
독립군
자판
##고속
국의
십자
색의
도널드
##굴
##솔
상고
제로
애국
나비
##모임
클리어
객실
##취
우르
##계층
##심사
북측
배의
##성서
단서
넬슨
##그리고
일부러
##수도
울리
톰슨
##꼬리
미시
죄수
왕정
되게
미합중국
##이스트
저지른
방사
##국당
슬로건
프리킥
야망
##歌
해병
에른스트
성품
...
재벌
웨스턴
격차
펼친
의주
패킷
참패
승상
조심
볼티모어
조봉암
##다스
##呂
매직
조공
총무
회유
##경제학
##보건
팔작지붕
요리토모
##업자
##町
무로마치
경계선
##가구
##범위
외면
몸체
댄
뭐
##庵
신정
낡
코믹스
보정
##덕의
앤드루
하반기
앤더슨
##82
킬
미셸
##미군
규율
받치
묘비
##곱
반감기
##락의
##활용
주머니
평창
##사원
병자호란
올드
배향
남군
단선
유진
##秦
##신청
편안
만류
사귀
절친
결제
페르난도
여포
##아파트
평탄
##靈
마법사
구획
호르몬
##藏
##엠
꾸준
천수
꽃잎
파나마
도요
KTX
재앙
물러난
새겼
정정
##皇帝
변광성
사쿠라
강화도
왕래
##된다면
교육자
일리노이
닭
팔렸
약혼
교제
언론사
##物
장애물
가르쳐
일러스트
##새로운
웨이
교통사고
싸울
##베이
버마
맹
##축제
총통
태아
경종
일괄
##습의
갈릴레오
##야마
발착
ATP
##69
팩
아마존
칼뱅
##소수자
##미치
목적지
경희대
놓치
브리튼
묻혀
##’()
우크라이나
iOS
사림
##화가
서산
대류
염두
차가운
##96
조이
티저
생길
##개정
우즈베키스탄
##진이
촉발
모함
프랑코
남매
제조사
고래
선제
##국립
장병
공의
아끼
이데올로기
반입
대타
모로
##혜의
추후
##당신
PS
사드
##그램
악명
시마즈
할인
자취
##참여
아군
속주
자행
사각형
왕인
김정은
남산
출자
108
##태종
##셰
콤
고찰
무작위
레슬링
여의
부실
##다면서
정관
##출력
스텝
##판결
글러브
##전사
날려
만점
##청사
북구
투르
##여행
돌아갈
##몸
신노스케
민심
세분
안방
##기통
서해
합금
##냐고
##타인
##1998
내포
침대
지우
찾아오
점검
게임기
가와사키
볼트
농지
너머
이주민
##분기
102
제작진
나트륨
정황
##色
신세
침범
남서
##나치오
성단
급여
창시
아크
##菩薩
##愛
수나라
##광해군
앞둔
보수주의
정국
##북한
이리하여
##표시
나쁘
ABC
유치원
증폭
시몬
아님
##如來
가세
상반
염
부다페스트
##파와
동탁
조슈
모노이드
아편
기이
AS
##齊
기뻐
배반
바로크
##觀
거인
진언
어시스트
##신앙
잔존
##內
##81
골짜기
##FM
분사
소박
요지
난이
CIA
붕어
판명
##嘉
깃털
##이드
##대행
##글자
파이프
##참의
##뤼
아라
##사태
윌
##라가
##백의
비옥
우드
##87
시문
단거리
왕성
선양
재팬
이광수
색은
언어학
배리
헤르만
##像
의논
##바이러스
반포
##다만
##발생
##ㆍ
야심
대장군
초당
송도
정신과
머물러
조선소
낭만주의
강해
메모
불릴
사다하루
억울
남방
피라미드
왜군
식의
문단
소아시아
##공립
득표율
육군사관학교
갑작스럽
##전력
덴쇼
위계
##계통
월트
##가격
좌표계
보류
알폰소
##왕국
로키
조례
708
초콜릿
온난
계보
잠실
서정
산물
##파가
##포르
##륙
##도르
솔로몬
##공과
1858
다이노스
레인
##어판
아라곤
열악
가해자
##했으므로
##집권
착각
백악기
출국
##身
다크
오락
열쇠
이용이
합친
##폭력
리모
공채
##정적
미미
용암
미카엘
가르
스크립트
##사법
도하
##향교
위조
##門下
우아
미칠
##레이트
컴
치유
우두머리
모피
부분군
항우
##호기
AKB
플루토늄
멜버른
##날인
세비야
걸작
공휴일
##인승
카이로
##codice
뱅크
△
코난
##슈퍼
롤링
내재
##발매
##왜
사치
튼튼
##慧
호크스
정부군
버린
오릭스
태그
고인돌
로베르
##기념
판매고
원활
##崇
코소보
묶여
염기
##터널
트림
툴
가환
우울증
햇빛
배수
구단주
헌장
스퀘어
히브
##발사
베컴
루스
공명
탐험가
타이어
##튼
병렬
추력
거룩
##완
##휘
##－
지평
토목
요괴
맞춘
관절
칼슘
TBS
##형사
날리
##印
경영자
관위
오스
여주
브레멘
열릴
메이커
##多
서거
함장
##고문
##집회
묵
셸
##롬
브루스
꿈꾸
반대파
공용
바흐
익히
승낙
여럿
오토바이
트로이
양육
콜롬비
시바
선제후
재난
비싸
숙소
제물
서주
앞바다
%
시달렸
초록색
요즘
입상
##효
계승자
주차
부적절
점진
##지가
튀니지
장난감
애인
인플레이션
240
군세
##전체
썼으며
보리
내세웠
##총장
히데요
진료
##79
충청
그레이
쿠웨이트
##팩
참전하
북극
##큐
무고
충북
##나마
한데
##오르
결사
##語
전염병
무언가
고등학생
##하루
마차
##니까
반죽
완비
옥사
터보
아산
리튬
박테리아
##나미
##盧
궤
교황령
깨지
해주
##女
산둥
나간다
명소
##일부
가져가
내분
차명
발판
가졌으며
씻
##94
열렬
하의
고을
애덤스
친위대
조의
##의무
형의
원상
슬램
그나마
불경
대중교통
전수
##농업
##寶
한중
현판
##청년회
콘스탄티누스
##​
가도
사내
페어
##힐
휩쓸
장난
대입
##상품
동향
수식
위시
##학습
##선택
농산물
미나모토노
장로교
모노
##第
##과목
소동
큐브
절망
##훈의
##염의
원심
켄트
바뀐다
##기타
프리미엄
##書院
##동생
##이베이
엄밀
도성
럭비
실렸
허정
과격
은폐
내릴
경영학
유무
쿨
##池
##완의
##리라
프로모션
금강산
도제
점성
단결
##소득
##신부
플러스
아키텐
##국제공항
제창
##현장
웃음
양은
오스틴
초의
선체
##디자인
##그림
난징
모차르트
미토콘드리아
##모스
마블
##橋
슈투트가르트
합성어
걸린다
갯
가명
우울
##옥
사주
메카
##곤의
사라져
혼다
조연
파이터
##73
오사카부
성화
이바지
출격
발포
퇴진
아놀드
박람회
공석
교관
올릴
도발
##플로
1700
효고현
독살
##고시
1812
합창
##탐
α
이상인
##롱
##성적
백신
김일
##시트
형편
사수
##기동
도둑
증오
유골
퍼센트
구스타프
철종
##시위
멀티미디어
##혁신
슈트라우스
공판
칼리
횡령
뉴욕주
이세
필사
##임시
##아어
증발
과잉
아테
정해졌
아미노산
수에
구타
찾아와
재해
온건
무단
이완용
마하
여성주의
카리브
가환환
미네소타
##폴리
정박
부류
고속버스
포화
왕관
전해져
피우
##작과
탁
GO
태어날
##탈의
총격
루카
패치
##卿
문종
간선
영리
모나코
떨쳤
관성
##랑의
라이프치히
셰
내려와
브로드웨이
##위성
외계인
저격
##監
확충
위안부
##120
군산
히어로
열역학
불량
아이스하키
##高麗
승률
연주회
수수
##마비
펼쳐진
쓰일
사우디
개경
거병
##렐
이랜드
##보물
##법원장
편집장
유년기
애니
이즈
손녀
##지에
##흥
갤러리
직렬
램
##하늘
##머의
들리
획기
승지
숨겨진
cm
##촌의
프린스
야구부
체인지
미주리
One
커리어
무패
함양
##위치
포르
방정
##바다
순종
쟈
경량
##투수
##기온
마당
##將
왕명
렌더링
목요일
##혁
투여
고성
리조트
고노
고양시
맥스웰
줬
##설비
##담당
대관식
##참
##마치
##전시
##거래소
손꼽히
##그리스
에이전트
세웠으며
로빈슨
변한다
##형성
운동량
상반기
자연수
흑백
마셜
만을
넓히
예의
스탠드
##New
##논
의복
진흙
##學校
1839
쯤
착취
##워
가중
모멘트
##토피
윤치영
스토어
함흥
게리
법관
라파엘
치러졌
##1990
컨텐츠
##닉
빼앗기
##形
시비
##육의
##나자
연예계
시원
작중
##개선
피츠버그
Wii
중거리
①
저그
##잘
경복궁
격침
##엽
자메이카
화장품
지성
하인
허드슨
끌려가
건네
##냥
##현실
바이트
취향
관심사
스테판
서태지
고층
##다니
##능이
IOC
불의
자정
##자문
성폭행
낙
통역
벤처
카스
차수
응우옌
부르봉
##시아
채워
##포트
##우승
헤겔
##）
사지
②
##병력
알라
중건
픽셀
##아인
시리
##분자
거사
##91
썩
경작
행보
##》(,
결렬
##宇
퇴출
마다가스카르
##권력
##반사
깃
꾸몄
가정용
##네스
기울이
고로
처한
##臺
##데이터
##복합
신석기
서품
자책점
역도
예문관
조비
유화
사이먼
중공업
원점
반항
송진우
복음주의
자질
각색
정성
도약
##톨
출사
##홍
원산지
##閔
마스코트
이회창
능숙
##추
조형
##대중
##라이프
##국을
조나라
지극히
##카스
경찰청
;
##세로
편제
남용
파커
106
동남쪽
##석탑
여건
워커
리즈
음의
통폐합
구와
##봉의
왔으나
개개인
##마크
이주해
##랭
절약
단과
주임
안팎
치하
##왈
의례
##노동조합
그라운드
##초기
##어인
베이시스트
출병
천하
종양
마이애미
볼록
하이브리드
유다
성남시
##150
석권
유년
##출판
눈치
##巖
연중
##판과
돌렸
##관광
##포고
공시
모세
징집
역사학
AMD
폼페이우스
##淵
농축
영예
6000
이노우에
로이
##재료
플래티넘
프랜차이즈
기압
Life
이마가와
프레임워크
##캐
8000
황도
##창조
##쿠니
단말기
재판관
고산
or
전권
##투어
##높
</
##JR
후세인
쳐서
조광조
과반
##인터넷
리프
월남
겹쳐
당사
엄청나
YG
결말
저질렀
다이어
알렉산데르
##쇼와
딱
##켈
교훈
고제
가우스
##선형
크롬
우라
##益
주저
##우지
붙잡혀
재빨리
유타
식용
##새의
마쓰
쿡
드미트리
##보안
재물
기장
추장
빌드
다행히
유니버설
##線
직교
##주제
변해
친히
##국어
세단
##인칭
우표
헬싱
##무늬
격투
아이스
##日本
해치
##몽
탈피
증강
씨족
코스타리카
교구장
루스벨트
##觸
신익희
변한
침식
주먹
프란시스코
경시
##조항
##페이지
##해냈
종묘
##정리
신도비
워터
##93
위그
추억
컬렉션
판매가
출품
무겁
##慶州
관용
##감정
대등
##사무
갇혀
##카르
조장
공성전
아우구스투스
아쉽
밸브
파란
벨라
##문학상
중심핵
Time
Group
##쳐
테두리
텍사스주
목판
추운
##@
##순조
##主
폐허
양심
람
기울였
제너럴
북벌
개체군
메츠
늪
베스트셀러
물리쳤
장대
신시내티
190
##생물
유적지
야마가타
##1992
늘려
##83
##泉
제리
흔들리
넘어서
##키스
유가
국공
##펠트
y
##보스
##장인
감축
기와
##빅
##안보
##남자
용액
결의안
타일
카탈루냐
로열
플라이
신입
우지
지배했
메트로폴리탄
국내선
쌍성
##까
안창호
자동변속기
구한
규합
풀백
개화파
평의원
물결
##御
다국적
##컴퓨터
스틸러스
배양
요나라
단군
세가
##아트
에스컬레이터
##임금
손님
##봉사
직속
##털
영장
가뭄
지질학
##짱
##그러나
깔
치뤘
오른다
채굴
이진
##도리
잔해
곡인
달린다
##페이
등단
전범
##수행
##대리
아스카
능하
웨스트민스터
##1997
##갑
##프라이즈
거북
바이마르
##式
##群
테리
올라와
위구르
꽂
내성
관현악
통신사
구가
덮개
##명이
1789
도적
서사
능가
피셔
DS
베일
##힘
흔들
멘
그대
나와서
죽일
Korea
기성
순항
대제
##濟
도망가
구니
가가
승하
징병
괴멸
##1995
노란
자작
퍼스트
##노카
황자
직류
##히라
##부산
크리
##타자
##양성
버티
##붉
야마구치
강했
##수석
싼
##夫
겨냥
##皇
세울
한자어
중소기업
선대
1801
펠릭스
곡면
그랜트
횡
##250
사병
##으러
##久
관군
##묘의
##고개
1857
##""
##89
불명
휴대폰
리버
후회
딱딱
##1996
로렌
##1994
아이즈
구슬
##국과
##센티미터
전열
불러일으켰
회고록
처마
##学
!
스트림
태그팀
v
##피해
바젤
게이오
##魯
111
목표물
구로
낚시
##참모
조용히
주포
정경
장쑤
##여부
##지향
터빈
##방어
니혼
08
전보
National
##바흐
들이
##재정
명과
앗
던진
사슴
날아가
##天皇
해킹
마야
앞뒤
조셉
헤비
헌병
알바니
유니언
##보존
부인의
##을수록
##司馬
##識
##국회
갖가지
##팝
근간
지층
##구와
##넌
##사로
월터
야마모토
예언자
##밭
결전
des
문집
잔여
패퇴
위배
데이브
##일치
##컬
도읍
괄호
일제히
입시
아키라
법전
혀
반대편
룰
미학
구비
OB
##중량
캠
직관
일선
##丁
##允
실록
##팟
##국인
##노드
##아비달마
올리버
Day
후반전
당당
토마토
아랍에미리트
스피커
1815
스트리밍
##II
갑신정변
이즈미
모체
##렛
##북부
##郭
회견
GPS
증축
가방
용맹
가락
##위하
급속도
자막
가령
카메룬
감당
국제법
##祖
교실
잃어버린
타이탄
불어
출세
다항
도라에몽
과다
##富
마스크
##남성
##＞
바닷물
재회
광자
싸운
청룡
확
##관구
1849
길드
##광무
타선
##국사
양력
부의장
바빌론
진다
안티오키아
##관이
##강화
스리랑카
at
다이쇼
##이브스
부르주아
In
##신화
강세
균등
##편이
중신
##콜
반향
##례
담당자
1793
오일
##노바
국사
##선전
북대서양
척도
경부선
##（
망루
##喜
루이지애나
절도사
후보자
##태
영정
위생
집의
올라왔
패트릭
광선
돌아와서
작물
피의자
카피
앤디
능동
구문
유틸리티
갈릴레이
문의
##마는
다마스쿠스
격리
280
실명
교화
대서양
##GB
지리학
##1000
예비역
토로
경도
초대칭
레이싱
##소녀
뤼
막아내
##로로
해운대
황위
치밀
불법행위
##路
골격
시력
##방지
시티즌
747
주화
사소
루시
파시스트
##동지
##표기
충고
지자체
교내
경내
불가리
상서
미드
스트라이크
켈리
##겟
러
1846
측도
근방
라울
##시리아
##왜성
표창
이준용
선보인
##청소년
##翼
##이야기
캔
##윤리
사랑과
##領
##주름
과반수
미친다
힘쓰
악곡
후계
오만
묘호
도상
인노
유러피언
농경
##당국
##백화점
##My
견훤
##심판
##닌
핑계
112
끼친
결핍
갈리
1814
손쉽
배달
##무장
결여
드레스
##방송국
미토
베네치
닛산
마천
##프리
##부군
##오늘
엿볼
산재
경건
희미
토론토
하얀색
집어넣
에디
오아시스
문정
7000
##陸
스택
##루이스
춘계
##임무
##홈
##인원
황소
상식
범죄자
환승역
급성
반정
비늘
##노프
##처장
소중
##마음
피살
격화
##修
##총의
쫓겨나
협업
펜싱
위법
콘라트
포르투갈어
##中樞
공법
##甲
굳이
##헌의
면직
대교
칭했
1776
간호
##춘
캔자스
천도교
원통
평택
두드러진
변했
교파
발라
##해질
##질량
Your
##다음
공은
번개
출항
업로드
##均
소크라테스
요양
포인터
피오
행한
파랑
##1993
선구
당장
항소심
독재자
##我
류큐
간사
참수
가로질러
전사한
통지
##마스터
닌자
현황
독실
##페오
변종
##致
뉴런
##기하학
포섭
행해진
혼잡
커브
No
보였으나
##비전
다윗
위축
115
하지
취해
유머
공식전
아치
1855
수량
섹스
참의원
##도구
화학자
샌디
헬레니즘
##載
##山城
IS
##비율
아르바이트
사절단
피처
기념일
##대화
흉내
전란
명상
조회
반동
백악관
##』,
도어
귀인
르네
##협약
시찰
미라
모건
점성가
그래미
증직
##라이
컨디션
현감
##詩
클릭
1854
꾸
모던
피쳐
한꺼번에
로큰롤
##렉
카디널스
정칙
##蓮
자생
바리
공상
##불상
##湖
##코리아
##증권
결탁
##位
나미
택하
##連
##受
즐겼
##늑대
기요
급기야
감마선
##방위
이리
반점
만이
##淳
클러스터
##로니
##예산
##결
정착지
##공동체
커져
스탠리
낭비
수력
호적
향기
개척자
##수술
Company
대명사
충칭
##若
##f
모스크
가결
물류
등기
스코어
히타치
기니
첩보
##디오
합쳐서
서한
##고려사
요하
종실
발톱
헤더
평의회
##경쟁
떠올랐
대표단
마에다
백과사전
성직
월북
문건
바지
금호
칼빈
##1989
##那
##삼국유사
크루즈
라이센스
##주체
응급
출정
휴대용
키릴
탔
브란덴부르크
사령
함부로
단자
##内
후유증
매도
##문화유산
항아리
강희제
장차
압수
합니다
장택상
스릴러
갑작스런
다닐
##내각
##紀
논리학
죽여
Tour
##初
##베이스
오슬로
al
필사본
라이온스
계투
##CD
바그다드
##개념
활동가
장덕
해시
NT
##상대
가까스로
by
##密
모태
틈타
피치
벨라루스
##세요
##평의회
##차장
조각상
팔린
청일
동차
모조리
자치주
일과
영위
오리온
도산
팜
흡연
악당
##훗날
음절
플랑드르
##常
##연구회
내적
귀가
경합
##차역
만장일치
##테러
구애
개찰
백만
적절히
##비서
##전과
컴필레이션
##소련
달력
료
로우
##히메
##순환
##여우
짐승
건전
트랜지스터
클라이맥스
위도
니콜
클레이
표트르
##잉
아우르
부조
##가정
좌천
##대교
현은
##주군
경전철
적힌
안드레아
메릴랜드
경이
돌아올
THE
##독재
##느라
##변수
가나가와현
##습니까
이력
##전공
1856
세밀
##Y
빌미
적정
거주자
##로라
##바위
뚜껑
##101
##謙
어웨이
세미나
불길
통솔
폴란드인
삽화
##딸
방한
##☆
후드
##구동
교지
히로부미
총학생회
줄기세포
협곡
개축
호가
니켈
##투명
타임즈
일차
세계유산
서점
실상
종신
해지
##親
며느리
에바
건너갔
체육관
##렘
모교
나리타
##특위
라우
걸치
우연
사탄
측량
##호텔
미수
환산
책임지
반역
파충류
##일본서기
##허가
##공산
135
영동
발터
모였
서클
##진출
들어와서
의약품
논증
##인들
책정
##異
교복
라쿠텐
지팡이
##業
##식이
지체
승선
잠수
1795
해석학
베르사유
##여의
뉴잉글랜드
생포
##하임
직물
로컬
잡혔
##유도
##러서는
키워
호화
패러다임
공경
야드
노무라
니콜라스
기민
비잔틴
##沙
목이
판서
동률
무능
기한
##파괴
##정지
섞인
자격증
록히드
입법부
##건강
도형
사대부
안겨
1820
타르
수도회
이범석
##키는
##隆
##폭탄
태극
가르시아
솜씨
##방정식
입술
잇달
동아리
가독
실책
외가
##瑞
인치
안티고노스
##공정
수요일
정확도
##악기
##王后
가드
##차이나
액세스
농림
##회복
발가락
1851
싸이
##黨
구전
트라
소나타
말소
상선
대제학
##종목
일주일
돌아간
무지
##William
##나갈
##캐나다
##변경
독주
주거지
열거
입출력
농담
브루클린
##랴
담임
기업가
자백
시편
거액
아나키즘
LP
##피스
세키가하라
##戦
동일시
##빌리
제천
리스본
…
요금소
##이탈리아
인계
주기도
부의
맞대결
##사격
원만
다비드
수백만
문체
#
원술
춘
재래
##度
옆면
##리터
덧셈
해부학
##공황
순교자
단사
필리포스
셀주크
로맨스
세운다
이나
##외국어
끔찍
##레이스
##Robert
##1991
대사간
개로
##»
항원
취
만루
##려다
민영
조문
윈
꿀
특별법
실효
##떼
마운트
이마
곳도
긴키
##處
처칠
데니스
천국
아테나
자각
조니
벤피카
노후
주제가
축구팀
루피
금색
파격
##園
막지
##차관
영사
09
결투
프라하
##료
지르
즈
##심리학
친밀
브리
##월간
감마
처방
1400
깨달음
##구나
가이드
체내
태권도
전구
즈음에
외환
정실
내려갔
사학
산티아고
되돌려
채권자
겁
##포켓몬스터
이륙
엘비스
일진회
##당할
All
군림
청자
##雄
##名
비방
##밥
아프
조서
##레이시
셀레우코스
2500
나눈다
##일기
##恩
##찬의
##폭발
260
##려다가
법과
##쥬
##멜
음식점
쉴
완성도
통영
헌터
내게
야수
망치
리우데자네이루
시니어
##시킨다는
피닉스
##전달
고려대
천왕
곡식
딥
##民
Man
자릿수
매복
즐거움
##서부
바이어
좀처럼
##-)
##台
##類
재판소
양위
한참
푸젠
저지르
클럭
##농민
서약
##버러
왕자의
신봉
올해
청춘
##너스
사흘
해커
호전
##나스
사이즈
두뇌
와이드
대상자
각광
동물원
##주민
선회
##태후
한겨레
처치
혼합물
이명
케이크
반납
Be
단조
##全州
Of
한국방송공사
봉작
##`
신진
##펠
스태프
##라트
치중
화랑
봉우리
##드가
Association
의병장
##노마
변혁
개신
비자
도로는
##직원
변론
##수와
사악
요하네스
여객기
어둡
프롤레타리아
##스타일
문맥
내려온
##유물
접목
##선사
소말리아
##개편
입헌
분개
참된
##중계
수레
금산
취약점
배타
충렬왕
##이스
##고리
항체
야전
진출권
스테파노
1853
##1980
##‧
빼앗겼
##坐像
라스
유충
로베르토
근본번뇌
끊이
단역
따지
격상
혼혈
##신호
##조지
괜찮
CP
성기
끌어들이
동산
남한산성
##울
화요일
반공
케이프
##나투
사역
라이너
기밀
##컨
진심
창립자
##律
##온도
더구나
납작
트랜싯
210
맞배지붕
신병
장단
역모
광업
사변
코퍼레이션
대법원장
공고
가치관
다리우스
##꼴
잇따라
율령
운수
중고
임계
청각
커플
대전차
향수
실사
노엘
##자산
##取
수급
캉
##세운
한복
##보고서
조병옥
펠로폰네소스
멋진
돋보이
가려
외상
펼쳐지
올라온
권의
장갑차
프라이
##득
노트북
##'()
마켓
아이작
논평
다이빙
헐
형용사
음악원
중후
보컬리스트
##교원
IV
찾아왔
균일
늘렸
실어
바비
어려울
##성인
배워
상설
청주시
첼로
라벨
입혔
실린더
##육군
생리학
쇼핑몰
##교환
정형
##위대
유명세
어리석
##귀족
##時代
합창단
네이션스컵
팽
##무스
자수
에밀
합산
송신
원문
종사자
##자유주의
당선자
자본가
동거
매번
고분군
##뷰
​​
티무르
항전
다채
##에다가
저해
공황
모여서
공손
계략
가맹
받아들인
##숲
막시밀리안
행군
문학상
##시립
잔혹
##바람
##거부
##처벌
##加
걸맞
마술
손목
캐논
호소카와
인적
강대국
첫날
정거장
경부
##MBC
죄인
##뢰
서프랑크
핵탄두
hPa
조차
놓였
104
##能
약해
빠져나가
길거리
하카타
Institute
##허
1792
##이제
관구
국가원수
미카와
불려
##110
폐렴
여긴
거머쥐
호른
##莊
##츄
자성
##스와프
컷
수원시
환율
괴
부관
사라진다
##대구
토요타
##대강
중공군
인디애나
와해
지킬
##우라
파라오
##虎
도망쳐
##房
여생
염색
서남쪽
과세
카롤루스
믹
권세
##토지
평상시
심정
##해제
관목
왕릉
레닌그라드
가져갔
저널리스트
Soul
용의
달렸
양수
충신
##인자
실증
앵글
##清
##구단
낙하
스윙
유독
버터
##130
손책
##날개
##弼
신상
유폐
기해
편향
봉헌
연유
돌아간다
##제기
오딘
뮐러
양분
세네갈
##전부
불변
##렌의
방법론
##화폐
경덕왕
포위전
급습
착안
금고
특명
vs
##節
접합
##靖
자궁
##중공업
남동
관대
##祠
선천
네트
어도비
보좌관
헤르
메가
##羽
##상국
악역
##연극
##r
##관은
원에
시트콤
On
오프라인
신지
프린터
오키
Center
전속
투병
195
##八
노골
안중근
디렉터
돌연
영천
불문
John
변호인
##吏
##규의
1791
마르크
노르만
힙
베스
타일러
질투
온두라스
##택
반열
완투
김정
루머
배울
통합진보당
도끼
##懿
##韓國
톱니
기근
이건
오인
압송
##커스
##네트워크
##柱
고난
##자가
##축구단
##밍
귀순
개전
##탕
t
증원
태블릿
서스펜션
지방관
##命
우에노
규약
몰도바
##기념장
코뮌
전액
날렸
##關
국문
턴
운전자
정유재란
변천
##청이
포식자
진해
수도사
부두
모델링
##태조
미디
시그
##뉴욕
현악
##경찰청
##으론
연극배우
320
크메르
수질
계약금
선방
남양
억
왕당파
관개
##만약
라이베리아
무찌르
혼돈
230
겨루
오르간
##또한
you
##세이
##방면
온타리오주
##越
받아들일
##놀이
##릴
퇴치
그럴
##성장
##요인
놈
1623
부등식
채무자
##心所
##옛
NBC
섬겼
der
엘리
견지
난입
변장
정직
애매
##浩
입적
##구스
##淑
바빌로니아
억류
킨
에버턴
##플러스
##소송법
##竹
페로
사생활
토미
브리지
경멸
픽처스
Inc
천연가스
재기
동남아
디렉터리
330
본적
심법
##다인
사단장
##晋
##姓
##노래
열망
절제
##가인
피스
조우
##전철
##～
윗면
드러난
##간다
시그마
아약스
##煥
아뢰
1852
회부
유민
경호
##유로
말러
엔트로피
오브젝트
몽고메리
새우
격전
공영
데이트
희박
오스카
짝수
과자
1300
연임
용산구
유계
Raw
##노총
유림
해왕
와일드
안성
##운행
##입자
##위안
##合
절대로
온전
빅터
##타리
##珍
조율
정종
디에고
비올라
웅
창씨개명
##호골
후면
교향악단
서초구
명예훼손
적기
화소
재단법인
750
##지는
향신료
대목
관찰자
##보드
폐기물
수필
전라
번이
##센트
군비
레이건
거제
전기장
아나톨리아
일자
##》《
산시
시차
##파이
##소형
파르마
지문
정에
다마
개월
니스
폐단
##溫
하강
##사유
보리스
##汝
매개변수
유학생
탄두
마그네슘
국방군
정오
마린
궤멸
비참
서체
교재
동북쪽
경기력
생화학
도도
크로
테네시
버섯
건국훈장
550
##蔡
##댐
법제
수와
합쳐져
그린란드
선거인단
코일
몰타
바닷가
Club
##現
##가사
도리어
그래픽스
나왔으며
와카
살피
일렉트릭
시나노
기욤
이질
##에스
듀
해자
반민
##波
##은의
##루가
노랑
##맹
마르쿠스
유전학
지령
##세상
고갈
##특별자치시
찾아온
투니
##剛
한마디
유고
참모장
##毛
##解
남지
천마
##논문
소탕
##단원
##기종
##분류
지리산
##군부
노벨상
건널목
##鶴
##숙의
##아르
암모니아
돼지고기
웨
꾸미
1836
##기본
레드삭스
등록금
북아일랜드
향한다
웅진
##미자
City
##작인
무효화
##견의
무너져
정나라
남북조
오카야마
##대륙
보조금
감찰
건안
댈러스
1847
민족주의자
광경
숙명
##환자
리얼
##회수
도색
중소
떠돌
1837
사무국
육박
깜짝
무쓰
##주부
##ref
##위반
##이번
레몬
볼넷
국부
카툰
스케줄
##장기
##顯
혹평
드러난다
편하
첨부
올리브
엔드
특혜
##아요
##半
개구리
##자네
복부
맞닿
홀수
##分
반공주의
##란스
숫
교육학
넓혀
이항
##혈압
빛깔
비긴
합병증
지경
불펜
청하
최적화
연하
##코어
전산
히브리
##도스
아이파크
요코스카
중생
발광
최선
괴뢰
정역
다름
숙련
도보
##콜라
##리안
##2018
쏜
대리석
소용돌이
##容
스케이트
자신감
율리우스
##정기
커트
##岡
북상
107
##무용
식스
마이어
##貪
듀엣
익스
미묘
##미르
박사의
친환경
결실
크라운
양극
생생
버라이어티
##꿈
##동기
g
아름다움
안건
창구
##純
루비
루카스
from
하동
예비군
알베르트
270
05
단체전
정예
데일리
##咸
##晉
##%(
에세이
식이
숙박
##臨
##用
##PD
산조
튜링
SV
이윤
시제
아키타
교우
##수산
##지진
추궁
허들
아츠
##궤
##근무
돌려주
정언
##음반
동시대
부스
사이공
쿠페
##사정
##進
1832
미즈
늘어난
쓰여져
모션
철기
호기심
세르
##선거법
직함
##부정
집전
바란다
자켓
##치카
###
##장로회
기울
##시각
쓰러져
보유자
헤이그
영적
든다
##洛
헤센
가든
113
참모총장
이뤘
##系
##이자
코트디부아르
양파
개개
역동
인문학
패주
##址
등산
##大韓
##좌랑
특이점
상법
장강
떨
##격투기
이모
콜럼버스
베오그라드
##DOS
균
다카하시
쫓아내
된다면
균열
##밀
군복
획
헤어
독려
패럴림픽
##멤버
중앙일보
기피
도나우
흐
##첫
수렵
엄밀히
1806
원균
휴일
석재
Project
##학사
부인과
신종
튜브
산정
유의
도미니카
해수면
원곡
개그
오비
마초
귀양
위스콘신
파주
우월
느슨
##심소
##쵸
연습생
능통
##".
##希
##토와
주이
쿤
고추
랑
서북쪽
지평선
개막식
NATO
##고기
아리아
돌아온다
셰퍼드
잡힌
##敦
이오
풀려나
베테랑
시게루
물리학상
요코
성명서
FBI
미스터
서보장
##작곡
동창
새뮤얼
고국
##茂
벌레
쓰러지
오언
##베트
의제
계란
##닥터
거시
관동
아픔
근세
##나리
##International
양면
Night
##蘭
1844
##차선
아바
##文化
##可
배아
교통카드
강타
##住
##스페이스
파룬궁
포상
술집
유감
죠
예종
##계수
독립국
수은
##입법
도미
금동
생리
정당인
빙하
##삼의
##穆
##선인
군량
국면
개간
##역이
서둘러
마오
포대
중공
걸프
석가모니
##공급
미우라
권위주의
추위
##신고
키웠
맞섰
텔레
650
출제
##해져서
성대
침수
사죄
##대장군
패자
만연
축복
율법
탄력
데려가
고토
제프리
발상
##공부
도안
낭독
간소
##다시피
불렀으며
##만족
##란트
슈고
아이스크림
대공국
NGC
추계
##SS
나인
콜린스
##문명
##클래스
몸집
빨강
매질
##哲
##평균
뉴올리언스
외삼촌
초석
##산업의
##포럼
레즈
닐
##1970
##洙
일삼
수비대
##閣
발송
##자본주의
명백히
속이
여긴다
고취
기미
욕설
성폭력
##신학교
재판장
##인력
한니발
##미스
운석
납품
감명
Is
윤곽
잔디
과감
강성
서예
##Z
##兩
##원조
베르나
1842
암스트롱
정착민
토착종
호날두
깁슨
USS
##해인
##컷
접근성
AM
##들어가
##足
##미쓰
##설이
수산
혹
##장사
컵스
##留
페널티
주계열
델라
심왕
옥상
로드리게스
예견
공방
##어떤
떨어뜨리
범하
여주인공
##유리
젤
조합원
당은
본회의
한국군
랜덤
전동기
댄서
##兼
##보내
퇴적
종착역
##조참
점토
모용
필하모닉
남조선
집합론
수메르
##이루
XML
기권
석회암
MIT
##카타
##냐는
웅장
언더
##압
쟁점
제지
주살
유태인
외무성
##y
효용
남조
##설립
##서진
소주
바늘
##키를
전미
Records
##원종공신
센티미터
추이
재화
가까웠
해운
오산
##라흐
앨버트
##뇨
쇼트트랙
##別
>
1841
##색이
1831
제식
확장팩
##James
샹
출진
받침돌
##태양
이사벨
데뷔작
출판물
##분리
##기초
##이상의
사연
김종필
레스터
유라시아
##National
##皇后
베이커
감히
병풍
호프
마이크로프로세서
사교
액티브
익주
노스캐롤라이나
포위망
범람
열렸으며
무너졌
##肅
##소재
LCD
부사장
##자체
해인사
##Love
사체
콘테스트
오토모
석기
줄임
만화가
태양광
질의
##명사
분쇄
공격력
제이슨
##비스
여러분
오우치
토스카나
강유
##동부
야마다
일간
바를
자루
##스페인
트로트
증식
마리가
건국대
기울기
아우구스트
인솔
##欲
황하
앵커
1843
장전
실리콘
##성분
무궁화호
새기
##얀
아르눌프
추축국
##麟
##澤
본능
##남매
내로
재결합
텔
단백
##삼존
##굿
##倉
중앙정보부
##男
인성
##수입
승부조작
모터쇼
##</
사르데냐
루터교
칸국
하비
통계청
레코딩
워크
재정난
##燕
##이념
##놀
넓혔
문물
##대인
칼륨
사각
친하
화북
들어선
산술
##슈타인
그랬
##숙
이브
우림
숭
생몰년
드래곤즈
사목
##높이
웨슬리
치른다
트레
정이
진위
Park
로페스
##애니메이션
③
다짐
가면
잠재력
대열
사할린
스텔스
유니코드
왕좌
베이컨
나카모리
줄였
##桂
앤서니
행운
##1988
안톤
들어올
##네덜란드
컨퍼런스
숀
둘러
구석기
##입상
음역
강좌
앙상블
간호사
신겐
학술지
##으
앞장서
눌러
맷
맨틀
두껍
율
##봤
##주사
##복선
푸에르토리코
엑스포
헨
아이오
Award
##마이
동대문
플랑크
가쓰
꽃받침
##통화
##춤
현저히
선별
##지검
##賀
애덤
하중
청조
구이
테란
항생제
출소
타이밍
열람
쐐기
##스크립트
##오사카
우대
##局
찌르
##岳
지도력
강압
조교수
##반대
##隨
독수리
부양
세미
##인해
노름
동의어
##원자력
개최지
##원은
##大王
광종
경치
소란
엑
올랐으나
청중
미식축구
알프레드
##1987
안토니우스
미러
1813
나가노
군주제
모니터링
사탕수수
##리오
해리스
기부금
##遼
사이언스
로저스
부엌
수프
##사장
##丹
손바닥
혈액형
성원
##Charles
매기
##인종
하순
히노
관원
건너편
필리스
충실히
과업
프레드
골자
##듀스
예식
진의
마인
##外
출혈
##더러
랭
##죽음
모후
들려
슈미트
항공편
##징역
교명
di
서안
숙성
먼로
정려
##"》
##이유
##팡
##녹
오미
수증기
낭만
##제주
임종
거품
전염
시부야
##모두
외할아버지
오즈
##꽃차례
부에노스아이레스
##글의
네임
꾸짖
##쌀
1794
고르바초프
가이아
유전체
강대
기조
##해리
그리스도인
평신도
코르테스
파스칼
##였음에도
##麻
##次
##오염
절의
##페더레이션
딕
##소유
셔츠
Society
광배
안철수
조석
헤라
섹션
##제학
##龜
군데
스레드
##로우
부식
테라
규장각
##口
왕후
소진
산문
도승지
##과제
집사
세르비아인
##평의
표준어
사다
다름없
유이
아리
해일
피에트로
두르
혹독
Up
비의
화풍
모터사이클
##봇
##亨
배당
스케치
일렉트로닉
열광
##갔으며
##시내
열풍
본진
여정
정주
세라
천적
##소원
만주족
보살상
청구인
사이클론
앞부분
휠체어
EBS
수퍼
관아
처했
분과
##대군
원종
대국
칼라
비기
##이브
내쫓
앞장섰
##학술
간파
대금
개인주의
알렉세이
##활
##魚
미주
프로방스
버진
하우
원망
피드백
동아프리카
외과
이영호
썬
고승
한정판
##왔으며
째
##법상
골라
굴욕
##병사
Science
제단
##誠
세토
레이디
졸
##1986
##쯔
앞세워
##나이트
보였으며
겨울철
다닌다
##敏
크리스티나
생장
양념
볼륨
단양
파르티아
영수
월급
놓쳤
마코토
빈약
##섬유
##광주
용해
채집
치료제
모어
상세히
##전통
##族
캐리
훅
1821
피타고라스
수주
AU
교란
사법연수원
##콩
화교
부화
불평
##헤임
드레이크
젠
호리
시판
##역할
##상자
초록
##1984
욕심
초판
##목표
##邊
##장식
열의
##분쟁
달려가
감탄
##로봇
##농
내각총리대신
선우
율곡
시동
##1945
노르드
의대
##광부
표어
청군
신작
유가족
##영장
우승컵
매디슨
##기억
코네티컷
각인
지켜야
비약
##範
후신
##일명
불명예
비야
냉방
거둔다
부결
간청
이해관계
##베르타
##점수
풍기
새턴
명륜당
##헨
인민해방군
호몰로지
미망인
##간부
트루먼
알려졌으며
##월드컵
상한
##스나
후견인
명맥
##곡선
끼워
보르도
##히트
임베디드
재고
퀘스트
요셉
귀퉁이
##因
##’("
##득의
청문회
빈민
##THE
해설자
마피아
쇠약
##z
삼각주
냉정
##비서관
전횡
모자이크
낙향
하이퍼
##斗
계좌
자객
제고
##강과
행방
마구
핵폭탄
ICBM
단수
DFB
##舊
사무라이
##사도
##겔
1809
탄환
던전
마늘
조개
테크
##시노
##完
조각가
여야
##墓
농가
##펙
##충
안심
즐겁
고고학자
법규
##총독
아닌지
후임자
대파
오를레앙
정몽주
피사
버퍼
유목
친숙
숨겨
리어
리비
이스
처해
유니버스
서역
알현
##관직
메신저
버려진
토론회
주루
마라
유우
121
독단
고작
와타나베
##Q
##}
뽑히
아미
투기
##公主
익명
##香
치수
호감
㈜
계책
보손
나혜석
##폐의
천주
동종
##병합
라플라스
마력
##맥
현생
대머리
사산
프레슬리
석가
##소가
k
범용
페드로
##살인
단기간
무라카미
##합병
전단
휘두르
지린
Girl
공군기지
서기장
은신
디나모
##具
엄격히
황산
북인
가시광선
프론트
루이지
##메리
사생아
시아파
윤치
추봉
##보컬
##야시
##曺
뛸
트럼펫
게이머
결집
하키
##頭
천명
##경험
울릉도
곶
##團
모국어
##제공
1805
##라드
아호
GS
다가가
##합작
남로
모질
트램
##랩
뿜
반증
교인
##운송
지난해
학비
CM
β
앙드레
##圭
폭우
중개
중앙은행
##용량
궤간
허베이
역습
어기
보어
이오니아
가선대부
##침
대니얼
상환
1835
불쾌
##틸
신주
총애
비트겐슈타인
떨치
푸틴
모아서
여러해살이풀
퇴
테러리스트
엉덩이
포교
##산군
마땅
1798
##공기
동체
##행렬
##궁주
화승
브루크너
HMS
진원
광합성
남측
전곡
해남
##비와
##처음
맴
원자가
언젠가
몰아넣
##실업
##이터
아명
남의
하얼빈
이케다
고바야시
1597
골절
워낙
점심
단념
가져올
시성
기함
알바
메르세데스
상온
##제한
평방
크레타
##苦
뭔가
개그맨
탭
##예수교
도난
일본국유철도
가온
명장
##로움
탄성
##Battle
버드
낭
다치
1392
버락
it
합장
피력
##레벨
집현전
##奎
국악
방공
펠
인출
##라니
발기
##지회
에든버러
##하이
##아령
습윤
적법
연마
##뷔
1783
칸트
z
##됐으나
릴리
##수송
퇴사
주세페
항거
절터
도야마
플로리다주
서비스업
하이든
1845
세례명
전황
교회법
##탱
관저
##부여
##대승
수다
##스케이팅
룸
##祐
##判書
유세
정말로
##천사
권익
##예정
미약
##블랙
잉
지원자
##닷컴
경감
비호
휴게소
도표
##띠
##서장
1796
속현
루손
법원장
강판
##赤
노바
##府使
파열
매듭
그래미상
대인
블리자드
결단
학창
당기
성채
음주
기타큐슈
##아버지
현청
마포구
읊
치료법
인플루엔자
##공군
유목민
박중양
201
화친
카일
이르지
취한다
##못
마천루
SQL
{
##場
전교
초등학생
차차
1790
##니즘
레버쿠젠
##합리
여운
일면
체크
촌락
군용
Live
국무부
##儀
분별
고조선
신기
작사가
##고교
불태우
샌드위치
원동력
##선우
알칼리
시에라
대뇌
무예
풀리
바보
##일수록
##居
사나이
타파
남겨진
##또
Mnet
회차
서울특별시
변조
벽면
랴오닝
들였
##든다
##워치
신한
발열
제향
##1985
라면
엘프
히스
핵실험
##콤
리그전
견딜
순례
연방군
##독립당
##노스케
기치
짚
고관
##盛
시네마
##David
l
수양대군
무궁화
논산
교서
권역
풍요
방문객
##숭
지하역
창녕
핵연료
막바지
##패스
명중
울음
수수료
베버
##奇
당뇨병
##체가
쇼크
글리제
##랍
세븐
찬탈
차질
로이드
구강
영미
등각
##상인
총살
따내
##政府
소대
로런츠
태워
##제어
##禹
##섭
##용품
교감
기획사
##진화
충동
화의
광복군
##기금
구했
머큐리
에트루리아
##박람회
어선
수행원
백자
지단
시영
##火
습도
격돌
직권
로크
탐정
궁지
총액
현명
유망주
누각
##시외버스
##曲
관내
##경비
##상당
##포로
##웰
니키
창덕궁
잎자루
예속
고모
폐간
재원
때리
##부르
윌리
1833
페르미
반대쪽
*
교묘
담장
애슬레틱스
안녕
요시쓰네
허정숙
헌제
전반전
##議
##전인
##진과
공화주의
##콘스
자연주의
하층
1804
109
줌
트란
##여름
농민군
탕
표제
마돈나
실로
다카라즈카
##조연상
국고
제품군
성악
##논리
MPEG
##사업자
알브레히트
베티
민주공화당
##貴
뜰
남송
##석사
듯이
여행자
애완
혈
레오폴트
탄광
##대기
바꾼다
잉크
기판
관철
외교부
백두산
모여들
지병
용접
독립성
당도
도자
##등기
##파리
피자
이별
07
##라오
명왕
사하라
수온
찾아갔
중학생
결점
올바르
번복
씬
밝혔으며
설법
도키
케이트
우기
혁명가
##土
대여
##氣
튀르크
세르게이
친교
시흥
초회
##첩
증손자
##同知
##叔
고압
광택
누워
중첩
나뉜
##촬영
매스
몰살
올라갈
##업계
지하철역
영사관
엔지니어링
민가
어쨌든
루이즈
영장류
크리스탈
외젠
##특정
이각
프로이트
징병제
헤지
베이직
자치령
북베트남
비둘기
찢
기주
적재
효성
《"
국산
##대비
광화문
함의
아소
기다렸
AT
미성년자
음색
섬멸
원치
정치국
##대우
혼용
원내대표
부활절
AEK
톨킨
##太子
체격
끊임없
##라프
섭씨
잉여
##스러워
##잇
리하르트
##想
정사각형
레이더
법조
직각
낙하산
가모
##특급
차림
##수정
탈옥
서아프리카
가입자
가곡
가한
##니즈
##禪
과테말라
동프랑크
경제력
마니
유장
코페르니쿠스
아랍인
당명
신인왕
##廉
네덜란드인
##嶺
잔치
사표
봐서
타블로
프로토타입
##인증
린네
##煩惱
창안
격분
문묘
서당
##》·《
연기력
필적
코스트
쌍용
끌려
교동
##주자
미스터리
학기
따를
보라색
##이야말로
작품상
품계
테크놀로지
후추
##고전
##사단장
켄터키
현미경
##恒
추밀원
영문학
루즈벨트
샤프
쑨원
컬링
##胡
##侍中
시역
오닐
##音
엘리스
##였었
##예수
##라든가
후반부
군청
난자
바뀔
친형
256
##수법
초보
##부부
일간지
표상
##靜
도지사
가닥
송시
교학
##토라
슈퍼컵
라치오
##교황
공무
벼
##설정
자치체
##殷
수능
##In
##레코드
너희
심신
즉흥
쫓겨났
##護
##특수
공물
로널드
무공
색소
구스타브
##間
은둔
액정
형질
불러왔
##기스
##요법
##튀
탈레반
조예
크리에이티브
이설
콘퍼런스
마애
북진
건륭제
Street
안기부
드루
주택지
##니스트
##치를
클로드
##이가
##파트
##뮤
입찰
불복
소망
끓
##대수
가변
프레스
의외
허물
배상금
##區
무서운
모면
공지
인산
##매일
실태
효모
시리우스
당부
미숙
관동군
연해주
##樓
##원단
일한
매월
##1982
캅카스
##이치
후난
##천억
엑스선
보행자
길버트
미노
아디
##봉승
##현과
회군
조반
참가국
클라리넷
권력자
이목
심취
교주
방비
주시
##시켰으나
1775
##裕
간편
매사추세츠주
Jr
플러그인
제작비
##孟
모셨
##분열
##울루
데이빗
켜
찬스
빼앗긴
재야
전주시
총알
##주도
##주연
##기장
##平章
내려지
##호크
GT
켈
##風
##몰
겔
##보상
쌓여
제타
사마의
조준
외벽
그레
##運
가네
바랐
하체
##시안
##경보
##지상
의금부
##국시
화신
근본주의
구면
초능력
델라웨어
##성단
승패
매니지먼트
스톰
훔쳐
베가
##侍郞
기틀
픽
##바이트
##마르
차분
##용어
플랜
발췌
맞춤
자재
퍼진
1810
기린
##会
인척
##勳
가역
디비시온
리사
연대장
Windows
165
##비밀
선상
War
##袁
##트럭
연좌
차내
연주가
샘플링
처단
사무엘
호크
##友
여객선
의종
동포
##베스
##야스
치마
##색은
•
콘스탄티노스
추앙
안타깝
에드
셔먼
##타로
##어라
스탠
달인
##취재
##여진
##諸
##獻
##군대
##화상
802
신궁
스탠퍼드
##웍스
캠벨
757
액수
도핑
누락
언어학자
##炳
나카
남단
##1981
##ｍ
알아냈
로버츠
탐욕
증설
공해
키워드
이끌어냈
##케이스
몰입
##塔
갑작스러운
##타르
1763
##많
아파치
수차
판관
마른
##공민왕
카레
발단
드나들
때마침
보이저
통계학
구시
갑판
1818
##American
발진
코로
노획
쇼펜하우어
밤하늘
급사
고지대
테르
보두앵
느낀다
취락
노나라
##마디
카지노
무마
허버트
##전문가
후쿠오카현
##라마
결부
쿠데
##검찰
표결
무자비
##105
장흥
수목
크릭
장시
사르
뒤지
본사가
##마트
협의회
롤플레잉
기물
##바라
자석
영화관
잔당
##基壇
판별
솔직
최장
##고급
##다양
##徳
캘
코시
설사
##상사
무왕
북조
하치
켈빈
##개년
##발견
손수
전동
##境
근위
진동수
흑색
##파티
머리장식
랜디
코로나
테헤란
만네
온실
타로
발작
##이치현
옮겨져
향리
##리크
매료
175
헤딩
무수
무너뜨리
말린
손꼽힌다
AV
준하
아연
기념식
운동장
환기
악성
대학살
길목
##邑
장엄
##워스
분양
##대항전
농작물
압둘
중서부
습기
##그리
##그것
##KBS
외래
성간
##kW
옮길
떡
##서인
##宅
##節度使
콘스탄티노플
에리크
1803
합법화
##장면
뜨겁
천지
##노예
깼
계몽주의
기약
##수립
아브라함
AG
상은
전환점
하이드
##備
던
##체인
du
양양
옅
가정의
##사업소
아미타
##조작
신과
맹렬
양손
비서관
리포트
글로브상
##방안
숭실
장정
정규군
Go
##탁의
위즈
거센
##토프
부제학
##펫
카카오
변속기
세브
##침의
전투력
괴롭히
보냈으며
리오
##科
행했
##祿
##이용
##소서
##1960
양서류
판권
##샵
포틀랜드
바스
To
탄수화물
애벌레
##석이
##청과
걸릴
문고
발행인
구한다
당파
1834
##妃
베른
116
반일
1819
##마제
피난민
에미
대청
펜실베이니아주
전봉준
성찬
커티스
마거릿
기공
검사장
그늘
택지
##You
##증가
조선조
##보리
##효종
High
##군주
##先
미움
119
유혈
전사자
##금속
해와
안데스
배트맨
포진
구명
Act
##夢
심복
##관념
수양
상향
속박
박차
##藩
##교리
Road
##계승
분홍색
NXT
더욱더
습성
##商
달리기
에다
보답
폭주
태클
구석
접시
밝혀냈
##런던
야구팀
1636
생가
상시
##克
넘버
유실
짐바브웨
성충
GPU
메우
기독교인
##토기
##다양체
##통로
지뢰
밀려나
##오가
난간
영하
윔블던
철자
전쟁터
아미타불
123
니체
터너
여겨져
##낭
도기
##히로
##위험
##렉스
##해와
버펄로스
전량
외직
혼마루
어쿠스틱
도마
소수자
조직원
##라카
##전원
인맥
활기
##캠프
Research
변방
깔끔
콤비
##大臣
선한
절충
고속도
##빵
##예프
창업자
목욕
##터스
여기저기
이치로
안산시
당할
혈압
기가
##오름
움직여
터진
의인
##타입
이교도
사우
파우
대도
제반
##로와
해수
고속철도
콜린
기교
유익
잡음
다섯째
영산
##본명
페인
##모형
##젤
합세
하산
##관한
성추행
386
방계
각운동량
아타리
타우
1799
1807
약사
낙타
세컨드
은언군
와카야마
학년
웸블리
정시
상류층
설득력
##문인
##い
집대성
급하
스팀
즉위년
비행사
목장
거창
행정관
발이
광명
회합
철근
우체국
익산
청탁
에테르
##하느님
윤원형
##융희
데미지
##아라
##資
##프로젝트
받아들여졌
##실천
##분배
##규제
아폴론
야구단
손오공
##원정
유품
암수
퍼스
면의
##문고
##牛
∼
##Don
##PC
생원
머니
미트라
익사
숨졌
요법
##쿨
바나나
미얀
구운
산성
분담
유물론
로렌초
호찌민
RX
거느렸
줄어드
멜론
##統
system
노화
겹
타고난
##오프
재주
데드
##고대
체질
두터운
쿄
이색
스테이
야권
김치
퍼부
떨어질
##교통부
꾀
##카미
아이언
GM
##1950
르완다
뺀
싹
줄어든
##연장
교신
##All
Rock
감리
연승
##한글
영지주의
##리트
##草
##자식
상상력
##試
가자
##1940
이동한
만기
수류탄
시카
트윈
달콤
아이치
마쓰모토
서양식
명하
##즐
까
도네츠크
에탄올
길러
##출연
강호
달래
##저항
음운
국명
##持
##요건
유예
남반구
컨설팅
요시아키
침착
##始
갱
포천
떠올리
##득실
##감과
지에
넥스트
겸했
대주
완벽히
##치아
유기체
사모
분류군
그간
탈바꿈
대한축구협회
바트
미처
앤드류
킹스
##끼
##廳
상쇄
쪼개
문중
낙태
공소
릴리스
미신
시안
도의
종용
평안
1824
이제동
명도
광무
자존심
미첼
수강
##였으니
미인
육식
뺏
온전히
거래소
기생충
진흥왕
상대론
재가
리마
설과
진주시
배포판
##사면
##주석
횡포
##自
박지원
봉분
목격자
##훈
래리
게이초
청렴
처우
세간
##簡
##국적
판의금부사
##운전
니카라과
송파구
친동생
경향신문
고창
##가역
놀랍
브루노
##以
##典
여관
본당
어필
민선
연선
갈라진
##탱크
쉐
AP
미겔
국무원
##三
금화
##튜
승천
원정대
DB
카스트
기묘
눈앞
##묵
안면
실황
쟁취
일축
##본기
##One
한류
사투리
##스러웠
아이튠즈
부풀
코리
##미니
한방
도맡
레오나르도
피어스
##원숭이
에이지
외야
##학년도
##기념관
##鎬
라이프니츠
산투스
발부
##인류
단발
친절
상파
##www
가우
이규완
매립
마인츠
현관
입선
우즈
##베스트
매핑
##묘지
심했
##관료
보라
마한
본다면
노선도
##제일
##스님
네덜란드어
누명
홍익
품목
##大君
종반
천안시
친필
440
후학
동군
슬롯
황해
좌완
##실과
##v
당분간
초명
##나간다
##安東
클라인
열중
강국
도합
결번
걸음
반칙
면치
망원
벌써
JTBC
##브리지
속국
탄자니아
퇴화
용지
메사
클라라
어드밴스
유추
대니
귀향
122
127
##데르
노릇
볼프강
대문자
##덜
지장보살
레퍼토리
처남
##보전
합쳐진
미나토
##아카데미
원제
##事件
##1972
종단
페널티킥을
쓰여졌
랜드마크
대면
진보신
수혈
##충분
문관
포토
내려왔
펀드
주계열성
##셜
유배지
마그마
연어
##수리
퇴계
사림파
공훈
머무
1787
화원
정여립
##부상
횃불
야채
##輔
민첩
##言
궁핍
벗어날
문교부
여름철
카리스마
##디스크
살린
주술
심리학자
망막
가로막
##대칭
##심리
입교
착오
강희
폴리스
안주
마리우스
만슈
카불
그루
방어력
민물
체첸
궁녀
번지
사법부
프라임
##만을
게놈
딜런
유희
마땅히
불로
요리사
##법안
##물자
언더그라운드
컨소시엄
내통
다녀온
##테크
##럼
초고
##발표
예리
무릅쓰
처해졌
##親王
##된지
##유형
영등포구
신관
레이크
##今
양조
심볼
헌종
대해선
파이터스
대문
무사시
일리노이주
봉수대
01
두만강
율리
목걸이
번역본
줄리아
킬러
클라
##1973
청교도
지방산
##爾
##離
로맨틱
김영
##레닌주의
나르
시공간
##미야
막혀
취역
마이니치
조제프
지반
행차
위안스카이
##밀의
광부
일어났으며
알론소
이튿날
에코
##네오
프로테스탄트
##에르
##表
공평
##가톨릭
재심
##방과
요도
집단군
다스
묵살
##경주
강진
개찰기
엷
찔러
감형
생산자
##경우
조던
##1974
##야드
##형질
파탄
동북부
##丸
##軒
오우
누리꾼
감기
연장선
거미
말단
지로
여과
##마지막
##체험
박격포
뉴기니
##벡터
유창
##삭스
도부
시킨
화음
흘러가
시즈오카
##교도
착한
리그컵
##수익
겸손
그려졌
공예
코러스
채운
##폴란드
포고
생물학자
레비
##나치
인테리어
문하생
House
대진
##선군
최치원
남경
잉태
##普
문경
다이스케
초고층
스포르팅
준위
##보호법
흰개미
##게이트
사커
그리스도교
템플
아르메니아인
ISIL
승소
##전환
출근
세일러
겸비
##World
금메달리스트
돌진
보임
한탄
망하
글렌
신숙주
신세계
불사
빠진다
1780
확고히
전해진
##은지
나뭇잎
철제
평화상
뛴
권투
세레
인조반정
##보르
##행진
불황
오차
수하
래
밸리
상회
교섭단체
##교체
매트
##파에
야마
##네이션
##삼국지
방황
무지개
비대칭
##1941
##이지의
픽업
해럴드
기술력
차후
##鉉
학부모
갔으며
##乙
크리스티
세그먼트
페니
알레산드로
색조
##네이트
만찬
볼턴
산책
##티노
##합동
니케아
도고
파급
##워즈
에드먼드
페인트
궁예
원이
고문서
복싱
센타
##토모
1100
유구
비어
##버시
1788
정설
교착
##峴
귀의
하구
##에로
시설물
터뜨리
니콘
문란
##寬
키트
155
오자
흑사병
다운타운
성자
##도선
아핀
안드로메다
스포르차
수감자
금품
205
서장
쿼터
쌓이
##護軍
수험
##동사
##陰
1593
##견이
일례
목판본
##George
##라루스
딸린
이권
일의
성상
##마스
울타리
##그라드
포츠머스
밝혀내
목동
독소
##당했으며
데르
김종직
폐교
훈민정음
##중간
의향
플래그
##툰
##대조
주청
약학
Service
외쳤
벵골
##出
##화재
김천
##앵
봉황
##nm
상권
억지로
서귀포시
실크
춤추
##st
투고
안전성
발주
##기아
##亮
부트
##플레이오프
코민테른
호러
풀타임
쿠르드
강가
사회주의자
하디
##영웅
하시모토
##u
##번역
벗어났
SD
##강사
석상
우여곡절
종가
가와
생김새
치소
거장
한눈
##파로
현과
1453
앙주
그리드
요가
표류
##如
속보
핀다
이어질
문무왕
##바퀴
순사
BMW
움직인다
파이어폭스
##宜
##학파
버려
마운드
길쭉
##으리라
성교
##전용
##University
테오
상속인
##와인
분의
우르바노
##지청
노브고로드
교육감
사카
##화로
##于
눈길
이지스
높일
##노르
해산물
고요
은하단
다이오드
조현
우산
미르
참배
로만
IEEE
귀족원
출발점
신빙
쿠빌라이
##일보
##來
자연히
식읍
생산지
샤를마뉴
잡스
##도서
오클라호마
사이타마현
간도
타계
연꽃무늬
##일인
##지휘자
수번뇌
##금액
일식
##果
힘러
플레이트
맞물려
뒤셀도르프
1797
묵인
의리
사고방식
아이젠하워
헬렌
##甫
손잡
##선발
1817
무너진
지배층
총체
지났
##매니아
118
##org
##학살
아야
비스
말버러
##창작
시어터
온게임넷
##좌파
##쥐속
##위크
Best
하리
체구
##강도
부록
1598
##십시오
##Paul
##品
정년
파샤
징후
시미즈
죄목
##총리
활자
1816
저스틴
##비상
캡틴
##점대
##헤드
##카메라
간통
##嚴
복잡도
도식
##界
밀턴
스코트
##復
##학당
랭스
##정변
가져야
포르노
돌풍
정동
글래스
산체스
##1983
League
##성명
Festival
그레이엄
그물
##상수
자갈
쫓기
도선
간장
모를
누설
순찰
401
산인
미카
도저히
117
펜티엄
청정
토착민
1838
##맛
행방불명
오카자키
치킨
비시
미트
보니파시오
그로텐디크
##바스
OVA
후백제
할지
안드레
셔틀
##1965
칭한다
꿇
요시노
##정규
인산화
설계자
편의점
되돌아왔
##보조
송준길
전극
실격
##국내
역행
존호
편차
##닐
팀원
사이고
항문
내려진
폈
##효의
뉴멕시코
메디
##위상
쓰러졌
홍준표
가오슝
114
YMCA
제노바
아가씨
종일
요시타카
굉장
##首
역전승
##마당
무기한
##싶
프로그레시브
##반경
연구실
토리
시술
약정
오와리
스피어스
엘튼
간택
1808
서대문구
기마
##察
##으라고
##멸
유엔군
옆구리
오름
저작물
공사관
지루
아랫부분
##툴
기념관
취입
녹말
전군
##돔
뱅크스
수호자
##왕복
##愼
다지
노사
경원
중앙선
리차드
##承旨
장령
약제
이전인
##1979
##디지털
##1939
경영진
##준다는
##力
전망대
##부호
수모
이동해
킴
형무소
맛보
타이거
스타트
1825
##超
##覺
새해
롬
외래어
##丘
방호
##부위
##전설
2600
쇼팽
##慕容
아가
거듭제곱
남짓
오렌지색
총파업
내몽골
##구치
##이코스
추월
남아공
##구락부
극심
경쾌
어딘가
군도
슬럼프
±
콘셉트
입안
하야
##103
##160
##레인저
둠
##과거
##太后
중국식
##웅
소라
##최대
##킥
한학
##雨
샌
알베르토
##할구
유리수
석등
신비주의
파멸
조그마
쥬
메탄
접경
크레
##副使
근거리
속씨식물
아름다움을
산간
암초
공기업
##소비
대법
로도스
##해졌으며
디랙
밸런스
맘
비정규직
유보
피스톤
주상
으뜸
거쳐야
버나드
선서
##브로
인터럽트
보호자
s
로펌
프릴
##구장
Co
실장
##케스
카롤링거
##塔身
여흥
##조가
제패
강탈
126
폐비
##요구
##서부터
열전
##플레이어
소학교
단련
##만장
골수
할지라도
연출가
쥘
총상
나카노
법당
마라도나
주필
제후국
봐
남양주시
증류
##1971
124
발화
여장
개표
주교좌
총명
##선승
EC
번진
포켓몬스터
포메이션
쌓인
와다
ID
주황색
출퇴근
대적
음악인
피고
장본인
몰렸
버지니아주
밀착
##目
##隱
##기원
맞먹
위엄
##연산군
조짐
트래픽
1610
에리
##秉
##空
뇌졸중
주둔지
시작점
불어넣
마사무네
현급시
밑면
가야금
야행성
잉카
동티
마카
소마
히바
##쿄
연사
시나
속임수
가석방
후시미
##식과
##도덕
##선진
분위
애용
##에이
악한
##분해
공학자
엘리엇
시주
호송
승마
스케일
보나파르트
##隊
본디
##홍의
철원
파스
##提學
2022
미모
매출액
브래들리
##넬
로랑
시트르산
##레딧
202
수표
미륵
포니
바레인
관립
장덕수
조밀
일약
남아시아
##확장
1680
##연도
##수록
지바현
EMI
담론
살펴볼
날카롭
아틀라스
##한다며
카운트
스테레오
엡실론
히데키
##유수
사돈
##곽
##하와
##콘텐츠
놀란
위세
##철종
##교육청
##쿤
지원군
York
흠
##요시
압둘라
감사원
##경전
##104
김유신
사천왕
##켓
me
##물리
계약서
조르주
##兵
##縣監
금방
삼위일체
##사거리
기의
옥중
고독
정할
##Jean
아역
주파
주자학
빼내
내림
##상호
범퍼
##기호
요구사항
축약
420
히메지
##히토
꼬마
서로마
##兵馬
##裵
##토르
불명확
로런스
수송기
은사
##1920
선인
시료
시킬
1828
수훈
곤도
가처분
제이크
##서버
코카
##레트
보병대
피지
불러일으키
최남단
걸로
1777
그려지
초음파
악용
##경력
스타즈
코넬
벌어져
린다
헤르메스
##산맥
흡입
경부고속도로
출생지
터키어
라오
공병
퇴학
발사체
시녀
##성경
아르타
루나
##부서
명절
관중석
녹훈
und
카이저
##카라
키드
수영장
광원
##102
##어머니
우간다
Top
킷
모빌
도에이
소시지
##장론
##아메리칸
본대
이탈리아인
이언
생후
##따
계엄령
간언
덩샤오핑
샬럿
켈러
정과
띈다
##鐵
포자
면접
저축
도독
##mg
##출
도큐
드러낸
캔터베리
##圓
컨셉트
사무관
구토
변명
##진보
징발
컨벤션
##참모총장
HP
145
원거리
보우
합천
펌웨어
기동성
##엔드
호쿠리쿠
사실주의
행태
1778
의령
꽉
##동자
호나우두
##刺史
##사자
입회
480
세제
##전형
Black
교직
##1968
어린아이
금관
카운터
객
진천
조교
지원병
연일
용역
로테이션
프로펠러
##'.
이황
용사
##235
##邉
생부
##장직
까마귀
##뼈
엄지
Church
설리번
윈난
아랫
문화유산
자카르타
집약
하룻밤
연나라
윤회
국세
상계
변제
조계
미흡
익혔
##성우
넘긴
##스토리
민원
태극기
환호
##딕
파드
땀
동맥
##祥
Ⅱ
두기
##比
##양현
실물
##1962
뺨
등대
형광
인삼
상투
요시노부
##1592
아사
히타이트
제갈
소켓
포스코
##로동
##대수학
성왕
임박
면도
##느냐고
김나지움
씌
틸
미완성
##프레
누릴
##역시
삼국지
##감시
브리트니
프라이드
질타
##조절
##360
##농구
리서치
찬반
무안
##영의정
##衡
##엄
r
마틸다
듀크
상체
##피아
돌궐
##구도
시암
선언문
반유대주의
백지
택했
치솟
플리머스
툴루즈
##흠
계모
결속
올림
##목록
멤피스
캔자스시티
평이
어떻게
비트코인
밑부분
우뚝
##嬪
마쓰이
돌려보내
빈번히
해금
지낸다
팬클럽
동급
속출
서바이벌
도조
##깊
세도
##$
132
강구
##융
SA
핵미사일
펜스
트리오
비지니스
무비
용품
원정군
타개
##복음
##시킨다고
브라이언트
범어사
신구
이따금
FK
##본국
USA
##烏
고증
효고
크롬웰
낯선
##시드
##에프
회자
효자
학식
악마의
##慈
악어
##오리
온몸
총합
바실리
몰려들
터뜨렸
태평
##싱글
##진영
거물
테레사
접할
북반구
대학원생
영성
비엔나
봐야
편집기
##포장
의탁
##인천
사카모토
##타우
훌린
강서구
페라라
##상공
잼
스피너
세미놀
악영향
영화상
221
##欽
분가
반년
##참고
보이콧
코팅
브람스
현악기
와이파이
##화면
리얼리티
본존
만물
수찬
##시작
오미야
플라스마
회생
써야
갈라
음식물
리치먼드
성북구
접미사
큼직
##매우
부사관
유기물
깔려
##향상
RPG
##천시
윤리학
우크라이나인
장조
FTA
음서
AB
##볼트
호로
슬라이더
이방원
질책
카테고리
대륙군
팔레르모
중창
##착의
비명
장시간
1624
##염
##아동
모듈러
부딪혀
##in
조식
부딪히
발상지
##文學
옥타비아누스
퓨
##픽
##舞
카오스
밀어내
##목과
##鄕
커맨드
서대문
주니
##공수
##첨
##보고
괴테
무가
##샘
##부도
##브리튼
프레드릭
대수학
특검
##메이트
디스코
일일이
한도
##프라
실력자
원화
히사
리바운드
옴
카르타
##비리
엑스트라
##뿔
유약
##東京
명목상
출몰
판의
##수업
상어
상층
##받침
오카다
물병자리
우랄
미요시
##행법
##승인
픽션
트레이너
탄탄
만화책
##명인
승전
##전서
풀려
호종
파인
##1969
딜
바티스타
##정확
앵
은행나무
##플래닛
파올로
구식
##약칭
제방
관서
##대사헌
##면허
서간
함포
정량
##春秋
지급시
##바리
씨름
##1976
가져와
염료
지세
##운용
해머
종교인
전조
##여객
##현지
핸드
"'
슬퍼하
효능
사극
격노
##스레
현무암
##α
##準
약어
산기슭
##機
빌럼
아닐까
용법
##桓
##링크
클로
##다거나
피렌
##어린이
리저브
빅토리
불안감
주성
이사벨라
##리드
로베르트
종별
얽힌
##전도
뒷날
##진지
득
말엽
추진력
##부스
알린
아우구스티누스
밀교
제니퍼
STX
필기
버밍엄
훔치
병세
해법
하스
클레오파트라
##내부
1802
공양
Technology
##쿰
휘발유
갈라타
##캐스트
서드
##토가
##타카
##개방
영등포
광역시
시라쿠사
국경선
양군
코덱
페론
##키가
비료
혼재
펑
융기
저술가
##법학
퍼거슨
##사적
레저
뒤편
강경파
다방면
##충의
##감각
##교위
나빠
공직자
덴버
쇄도
##로켓
##1978
##하인
모기
340
케니
평양성
1784
기쁘
##淨
##권한
정맥
심포니
수조
통도사
머피
군왕
안재홍
작용소
뇌터
기복
세무
##티나
방어율
올렸으며
##시사
오하이오주
##판관
덩치
영월
1786
##레드
##카쿠
옥고
##냈으며
채팅
해구
해왕성
형이상학
엘리자
디오
스토
하르
트랜
HIV
피폐
##와서
##기병
##시에
진주성
헬멧
##겸의
런타임
움직였
아유
실종자
##됩니다
비스콘티
##메네스
##시킨다면
문하시중
##鏡
정한다
세세
##토니
##따라
##―
강론
국채
송강
##토시
첸
부응
완패
##나기
관광업
##우수
허구
370
성안
1826
##인용
가속기
봉화
풀럼
대통령령
기절
고운
##스턴스
힉스
##종족
현안
신정부
##검토
데려오
오타쿠
승문원
초식
##속곡
코린토스
선데이
상감
버림
웰링턴
조소앙
##재건
화물선
Song
LTE
전임자
미쳐
지남
돌아보
전자기파
##후사
진폭
붙인다
대대장
1614
이성질체
이사로
발명가
이동식
1604
후륜
고성군
성녀
탈선
득점자
CONCACAF
용모
##1964
##介
베르나르
남북국
##맥스
한진
##오니
##無明
카톨릭
아르키메데스
스털링
##秋
Boy
##그린
##부윤
옥천
전문학교
서던
##랭킹
##이랑
미야기
넘어섰
지난다
영유
##카운트
레프
전폭
서얼
천구
사로잡혀
강물
끌어들여
풍미
승화
##국민회의
교직원
##성향
올랭피크
박물
가오
대마도
전과
##하나님
붙여서
공양왕
##雙
소각
##서적
봉토
##世子
에반스
압승
윈터
합방
진사시
##유통
적성
이시카와
##스티
스파
##1961
최강
달라질
루소
밀워키
##른
1758
##정류장
화성시
##季
각별
쓰러뜨리
히말라야
섹시
##책임자
볶
유린
보이즈
모국
##수당
차량기지
##항쟁
본받
생제르맹
##布
##겨울
##구르
##—
해피
노이만
도운
##연수
면화
우쓰노미야
##받침돌
##구사론
AI
Station
경은
##IUCN
삼성그룹
위태
Part
MLB
슬라이드
일리
##辛
##리투
1829
##페리
APG
##쇄
자력
크리켓
TOP
방울
여래
캡슐
##380
헬스
앙골라
주성분
게임즈
명명법
세차
밝힌다
점령지
얼스터
반탁
방문자
##인회
무한히
포탈
시냅스
피했
시마
숙의
시왕
거주민
엠블럼
키루스
농경지
##오카
미시마
예우
##지휘
채웠
무색
알려준다
##전지
##베타
뻔
수녀원
꾸며
레즈비언
사조
군집
##브랜드
##삼국지연의
부산광역시
하이델
이뤄지지
세웠으나
사키
##요금
벚꽃
흩어지
##姬
##室
##호가
다량
주군
나날
마린스
문어
여명
멕시코시티
##하트
따라야
룬
모셔
크로노스
육류
올라간
##意
원더러스
직구
로베스피에르
김홍집
틴
여호
일렉트로
도함수
폭스바겐
패러데이
선단
진척
엉뚱
##슈트
##襄
삼국사기
##끌
망라
코미디언
##페
그라
페미니즘
미소녀
##FC
준다는
그걸
이론가
##1977
1506
##q
##추의
##125
푸드
단추
간과
##머신
입힌
꾀했
블라디
유표
1827
##原從
##세인
##홀드
아저씨
기관사
##仙
가부장
##정반
베일리
선거법
##MB
리의
신의주
베이비
캔디
필살기
펠레
생산력
게오르기
말투
블러드
평산
Way
La
성가
끝낸
금이
소량
프로리그
##적자
닭고기
대관
낙엽
후베이
##기본법
눈동자
##가드
##욱
은화
보름
##지기
##워드
결론지
육안
사학자
북송
법무법인
독신
제철
##350
전시관
##也
캐나다인
아드리아
채플린
케로로
단호
##통계
흑자
경영난
##祭
마르코스
##렌즈
바쁜
##나르
##선거구
조계종
서군
##셴
로리
Party
일관된
정선
대정
##여서는
병부
명기
##기생
##원사
중견수
인슐린
랜
김해시
연금술
강화군
##中書
나눗셈
이로쿼이
프라이스
##Thomas
1811
중류
빨라
엘레
프리랜서
꾸려
서훈
쾌락
불운
변함
##비판
번안
##원자
시발점
되돌리
원담
소가
군기
펼쳐진다
파주시
##잭
##진행
적시타
주고쿠
씩
del
용납
명부
CNN
##브리
##사회학
##등장
지오
비무장
척의
압류
병용
##경영자
성부
레지스탕스
톨
##맘
파이썬
갇힌
유성구
회남
강동
목화
만회
부락
##강점
윈드
역간
뱀파이어
##도인
노던
##차인
회중
베르너
##윈
프리츠
사옥
##채권
교차점
##연결
소피
아즈치
레이아웃
미들
요시히로
내밀
교각
225
##학문
근소
##할수록
우참찬
다이라노
심근
−
1770
호메로스
배합
##사토
충성심
화엄
##교단
테베
꼬
콰
암벽
맞대
요한네스
경무
독학
##지내
칭기즈
무신론
베른하르트
왕망
프리큐어
패소
##바시
팔려
아쉬움
박수
파르티잔
황궁
원주시
생성물
이봉
RFC
테이
지휘봉
긴장감
기형
수마트라
정산
##학적
즐거운
포세이돈
분투
##助
하코
##-,
거둘
부평
검소
##하마
##杜
참판
한성부판윤
동결
마타
케인
대표인
사비
##l
##니치
적위
퍼펙트
룩
146
##오모리
달라이
유위법
##호프
굴곡
퍼레이드
교토부
##경과
근심
##사냥
제보
소아
1774
개정판
##동포
더글라스
##러브
에리히
##어업
##가을
##월경
약품
##數
##℃,
배영
호에
포터블
정약용
예배당
##레이터
192
인버터
퐁
보수파
당과
광시
차베스
돌고래
##극단
알렉산드라
코딩
##국판
노히트
자위
항저우
##대전의
1660
극소
자유도
##대사관
나기
어부
급감
오대
마젤란
대세
소감
##net
##하가
곧장
##戸
프레더릭
리터
서울역
환경부
헤르베르트
서아시아
데메
경작지
144
쌍방
오가사와라
##쟈
##아주
노키아
자위대
##이세이
##칩
멱
CCTV
##결성
TCP
유루
수배
회송
스탭
눈부신
##노부
사령탑
위해선
칼날
pH
군락
옷감
은밀히
청도
아워
##보로
RCA
1822
클랜
Network
청취
은닉
이듬
나포
효시
계비
##믹
선법
365
트리케라톱스
네모난
선수상
##연간
발사대
취임식
김종서
뉴저지주
와이
##DVD
학생회
스토리지
트로츠키
테베스
도이
안드레아스
as
총탄
1603
합격자
내수
포레스트
휴양지
제르
판독
분실
##삼성
Entertainment
1590
담화
트라이
갈아탈
원작자
가시마
셀프
경인
릴리즈
미쿠
화염
최우
돼서
##부처
서지
##믹스
막론
##브라더스
1644
라그랑주
김원봉
푸앵카레
소나
##作
대리청정
이괄
사바나
아케메네스
적시
##달리
황도대
196
be
하나하나
미일
1413
색인
휘발
1609
평온
수탈
##전술
도플러
개요
직역
인대
난폭
석불
한해서
해발고도
보궐
정승
##昇
##사리
통정대부
명망
나돌
섭
##1958
천자
1519
체르
가와카미
##후왕
개폐
BSD
정의당
우화
1781
##180
협연
봐도
##板
스탠더드
제미니
오세
380
관람객
지온
맡겨
Baby
##과학자
뜬
발문
State
병약
##유산
##잠
도금
책상
성내
##화물
절개
##Let
티탄
203
##볼넷
늦추
##다발
청의
디바이스
울창
206
문무
##원수
예멘
식료품
##식사
몬테
아사쿠라
표수
바일
##교구장
직사각형
옥개석
방전
##県
교두보
##자율
역무원
##저압부
앨라배마
##USS
카타
갈루아
레몽
고윳값
낙점
정반대
롬멜
치사
##署
##의견
경산
비활성
##리기
교통량
##부인의
##廟
129
1618
왼발
나시오날
도요타
클레어
용수
제복
자부심
몰린
송금
##135
기울여
투사
이집트인
06
##스쿨
##비평
섹터
209
부역
유형문화재
##코르
창세기
##문화방송
오리올
대일
쓰러진
블레이크
고이즈미
분화구
다면체
유상
고른
레이테
각본가
시간표
덕흥대원군
수계
윤선도
##콘서트
양지
시모노세키
메이슨
##1967
##규범
##동원
벌일
심층
##수집
##종과
추석
납득
##대형
젠더
벌인다
거느린
##롤링
시라카와
비핵화
유타카
연패
##루프
발차
논설
950
산사태
스트라스부르
##楚
정찰기
군관
본점
자라나
붙잡혔
|
쌍방울
태세
드레
판시
##수요
##합전
얼라이언스
모잠비크
수니파
KB
｢
신간회
##루이
상과
##쾌속
감독상
말레이어
검교
1689
용매
##랙
##리프
##1966
시련
##크기
##1937
##박자
투영
##해짐
세포막
황갈색
해밀
혈연
Corporation
골대
가나자와
##고속도
퓨처스
전년도
##少
라스베이거스
##백제
도마뱀
위아래
1762
##開
##231
American
예민
모자라
외출
헝가리인
##공식전
##촌인
하와
##글리
러더퍼드
King
직선제
굶
##스루
단락
작화
외무대신
##營
최우선
데포르티보
##Michael
##기관차
셀러
연화
##列
##깨
##고양이
##자세
명료
라이스
관음보살
교통수단
##아마
##노비
외화
흐루쇼프
크리스틴
동인지
외손자
솜
##민중
마취
사담
굽히
혼수
강자
질적
에디터
##1963
##수면
은신처
터져
LNG
더운
글래스고
로트링겐
광석
세워졌으며
뒷부분
일주
좌찬성
매트릭스
##기둥
##바로
##경관
다이렉트
##1938
대혁명
얼터너티브
집적
##항공기
곱하
심도
펴낸
##으려면
아픈
스와
조그만
활력
참으로
해류
승무
시라
##총국
명동
생도
견습
##委員
등반
각하
외적
셔터
팬터그래프
야후
##舍
##1949
보호구역
육아
리키
##함인
조력
앰
김종
##於
이세민
김택용
##레크
울주군
아비뇽
매슈
러닝
엄정화
RC
유스티니아누스
노먼
경호원
마사코
들판
중학
##희망
햇볕
되돌아가
##鮮
치우
홀딩스
키케로
의성
자유주의자
휘말리
통설
차례차례
##이래
메스
솅겐
답습
체온
##변동
마샬
심슨
씨방
라디에이터
서기관
코스닥
풍조
불허
##루트
공성
상동
병영
항모
협공
##그라
언더우드
United
번사
납북
시어도어
##유학
시일
무당
민권
##寅
인도인
나설
부분집합
피에로
록맨
구릉지
겉모습
Management
##그대
조선왕조실록
##實
##서가
##일지
##造
##대부분
##공공
##No
##서쪽
##We
##뜨
베다
군주국
시행령
수월
쏟아져
660
후량
##기업인
오쿠보
강수
브리핑
이기붕
라몬
##회계
난해
지터
기뢰
##티아
폭발물
##부품
김성
알렉산드리
하녀
주법
기류
런던탑
##수스
185
환생
##돈녕
##堅
갑과
판도
숨진
전소
마저
##狀
빈센트
짝사랑
##카페
##型
와트
통학
권했
맘루크
##사라
알렌
##음식
##1948
구독
인덱스
PSP
과천
보인다고
몽고
##이러
남해안
뽑힌
연면적
짠
식년
연명
##벤츠
껍데기
사보
양방향
##綱
##서열
칩셋
정글
실드
##해결
##僧
탄원
유주
##시도
##민회
팻
모셔져
엘람
틈새
##泳
굳혔
수이
군소
##都監
분분
날조
분류학
라리
##플리
##동쪽
138
그린다
##팔의
흐른
##지요
후각
문은
##니카
##야당
의용군
무제한
전집
UK
플로
노미
에어백
태정
##그녀
152
응축
양제
##트레이드
그레고리
함축
시연
극성
매니
갖은
총수
보호령
##디온
헌법재판
헤이시
법체계
남북한
UTC
에런
콜론타이
가창력
오랜만
은밀
##룩
##의미
##주장
무분별
##오버
133
##출판사
블레어
틀림없
##경로
강아지
휘말려
##대부
일절
뿌려
프로필
##220
이시다
##출장소
1823
##상승
임업
구로다
밀고
수선
##교구
깨어나
##威
##1959
주제곡
'-
생태학
분이
성현
레인저
군무
공로자
슬픈
대역폭
##컴
수려
토드
엣지
name
즉석
##브릿지
##보가
##까마귀
굴뚝
—
미그
메소드
무상급식
##나주
1750
##군관
나아갔
건너온
윈스턴
근절
1648
살상
이자겸
##黑
##함께
지극
##ROM
편평
##능
통신망
포유류
현내
푸리에
인턴
##베트남
##캐릭터
트렁크
수역
유망
##兪
주간지
##랏
##리언
변의
수없이
##발달
차리
737
비아
##신이
1759
보급품
말살
##오스트리아
##동화
애착
칙서
인류학
##o
시구르드
파피루스
##푸른
벙커
신뢰도
커진다
##버튼
누출
힐러리
테드
##헬기
벤저민
투척
##톰
홀로코스트
##줘야
##자동
내역
마운틴
고스트
비욘세
진구
방학
석호
##올리
##譜
##맵
갑오개혁
캐스트
##ft
부여군
10000
지멘스
지나간다
바투
용감
복고
적과
나사
조에쓰
대각선
##선고
##민법
두른
배수량
네바다
국수
에인절스
존의
노후화
뼈대
1591
##보위
무정
과도기
1637
##末
大
기악
상징물
슐레스비히
전체주의
##인산
##보냈
자퇴
만행
인터랙티브
군자금
관작
##冠
선덜랜드
불러오
방어전
##상학
쫓겨난
##특성
미하엘
지브롤터
##실록
성토
##아기
상나라
팔라
##북쪽
##트론
1620
린치
소현
소수점
덴분
자작곡
##여우원숭이
##106
체로키
클랜시
##사학
##어느
재통일
매크로
유력자
게시물
구워
SL
우메다
급한
##본이
남문
토의
법대
나스
##고조
판각
조소
끌어내
##사상의
레너드
광동
하루히
만하
아카
자로
##우가
대동강
쾌거
##연합군
##머니
모계
대각
##求
버틀러
##船
##퐁
##리온
대국민
특질
가속도
부동
카네기
페니키아
살롱
GUI
##석유
스웨덴어
##산면
##Le
아킬레우스
유임
맬컴
배재
람보르기니
컴포넌트
##九
##세르
새천년민주당
리뉴
##조성
##淸州
##워킹
조엘
##벡
##1930
피리
질감
삽
소방관
공언
국권
##芳
철십자
스위트
고루
입건
과선교
역적
정장
갇히
우등
이노
민주자유당
##111
1785
##정체
인현
##흥원
올렸으나
매튜
확장자
SU
지적도
##단순
940
투르크메니스탄
심혈
설계도
포뮬러
서재
멸시
밈
트랜잭션
##역대
신예
터전
##碩
시노
##비츠
해답
##노라
페미니스트
불우
히스파니아
##복사
##영원
직사각
##체로
##뻘
브룩스
살포
야마시타
##자와
주유
불러들였
##도청
##충렬왕
청풍
##주임
부군
##대응
##調
##돌기
##도입
열반
수뇌부
하향
관측자
제법
my
닫혀
계획안
향로
##진리
페터
배격
이와키
##㎝
공납
염원
##고용
##법과
##텍스
다이요
자격정지
칼리프
##품류
시에나
##방해
##5000
##가요제
아라카와
Show
시급
##오브
정부인
##옹주
밀려났
##葉
펄스
##어린
여태
그게
각오
병의
##De
원통형
랩퍼
알레르기
우에다
재촉
430
근신
분전
흘려
어진
삼가
##펀
처한다
##懷
##器
##무로
재량
포켓
행선
##정서
카를로만
의관
델리
##퉁
살라딘
귀도
줄어든다
##지시
RS
정순
노이즈
허셜
말갈
소작농
접견
낸시
프레데리크
사외
MD
귀납
##전보국
김보름
##수호
가파른
미켈란젤로
충숙왕
##訓
OECD
기려
맞선
보카
##대역
##직업
어니스트
전철역
##수원
수완
귀여운
넥슨
공백기
냉동
##주머니
##망원경
모더니즘
내뿜
좌초
##선교
계명
스캔
들어올렸
보일러
##城府
포병대
키즈
양산시
##140
홍주
내보냈
끌려갔
고비
##1919
고심
에픽하이
루니
수신기
##니르
##롯
호지
염화
객사
신해철
##터리
족장
원뿔
벡
에노모토
페르미온
청두
임팩트
샤먼
괴팅
남코
건반
중합효소
다비트
부산물
찬가
Star
주공
호놀룰루
America
가출
공민
닉스
##브라
고쿠라
향이
##쟁이
##엑스
선산
##라즈
##從
##祚
슈바벤
말미
##지위
##단백질
나리
##지구의
무찔렀
News
오비탈
중원소
승탑
김제
##緣
##샨
that
재귀
##이런
라부아지에
조선귀족
탁구
인기가요
삼남
원안
##기적
오징어
블레이드
기계어
테이크
접대
빗대
기꺼이
트렌드
소급
고려가
도우
사탕
위클리
신조어
##레인
UI
화순
빗물
주둥이
##자나
잠들
##상담
학생과
올빼미
퇴단
만국
다케시
##鹿
벤자민
완승
부정부패
기만
저널리즘
##댄스
퍼블릭
##St
사보이
바울
테레지아
안드레이
공격자
플랜트
피선
관공서
스파이크
##와도
몸담
마키
정열
##崎
##1935
##레아
보주
배심원
스펜서
쿠르트
슈퍼스타
로리타
창이
##모어
차녀
소치
반대자
##屋
건륭
##樹
주스
##시랑
##邦
로잔
눈금
찾아냈
오목
##기체
박원순
유사시
성터
##스토니
##区
풍화
##等
항등식
완전열
##민사
최단
퀴즈
안후이
두려워한
신앙고백
##엄의
패닉
하우스도르프
조선임
##기소
SE
해수욕장
셰필드
종친
울트라
모노레일
공교
Dream
##郡守
다카시
중앙유럽
BS
신속히
힘써
카카
##랜
합한
고졸
Like
앗딘
팩토리
##툼
##아라비
테슬라
갈망
##厚
라며
갈라진다
시모
##도사
##확대
구속력
폐암
##아침
다졌
Ltd
바친
무위
동지중추부사
조모
##보트
차라리
RAW
회기
시바타
불륜
스나이퍼
에뮬레이터
월리스
파이퍼
총신
생활비
##執
쿼드
GB
거둬
콜라보레이션
콘클라베
아드
수소폭탄
##1946
##포가
##1956
항변
벌리
프리즘
##極
수난
대주주
하마
타타르
북단
##측정
올린다
끊기
##주이
테일
##》)
호스팅
창법
##秘
동반자
응원가
제작소
구덩이
산발
사별
##붓
##인데도
바쿠
파도바
펀치
위급
몸소
보냈으나
Sound
제니
여고생
초전도체
##~》
전교조
키르케고르
애호가
가르친
##1975
미화
치뤄
원판
윤웅렬
부적
##種
마스터스
##서야
##게이
맥도날드
어스
그야말로
사간
##성동
##젊
성찰
마산시
애국심
볼거리
존재감
판화
##諸葛
##쇼핑
TBC
##히데
##真
아우디
입궁
사성
드리블
성년
유괴
두부
불멸
신대륙
음수
154
신식
못지않
##DS
##꼬
##촉진
통행료
변칙
##뫼
##라이너
수호신
콘스탄틴
##˚
에가와
장서
아퀴나스
예금
콜레스테롤
##히어로
1757
##이미
브란트
항공대
##도우
##쿠라
해달
##그렇
##坂
알카에다
##스톤
알려졌으나
드래건스
##그리스어
금광
헐리우드
인장
##태자
오리온스
흑연
대륙성
경마
포구
테크노
전문의
##사제
이삭
영내
##주교
##ha
푸른색
지청
에치젠
Back
한수
SUV
따라잡
고려인
원수가
게양
##헤이
산수
하진
정치범
표시기
증득
미국식
##악단
연비
출루율
코프
홀리
템포
레프트
UFO
에타
받쳐
훈련장
민회
다진
잘츠부르크
임사
덥
유파
##정공
##설과
##도정
쓰였으며
##마운트
조망
눈썹
##슛
##斯
##支
For
부득이
탄화수소
공덕
##원제
유명하
우한
카트리지
황태후
하행선
측실
빽빽
막히
##표본
클론
보상금
##총관
줄리엣
##나중
부계
##밑
에린
상술
##지능
##릭스
##It
자연사
주동자
몸값
은총
##수인
매니아
에나쓰
프렌치
무안군
##∙
척수
롭
EF
킵차크
증여
##하고
##딜
종착
참봉
본드
능히
빨
부차
순응
카잔
샷
내일
앙코르
경직
명지
GSL
마셨
##스토어
##考
플로이드
빼어난
##연령
1605
##하드
##탁
유난히
하비에르
야유
중흥
첨탑
##안녕
베니토
211
##춘추
멘델
브로드
리소스
합체
아리랑
##"|
조건부
속옷
이상재
##질레
전각
애스턴
물방울
##向
##샷
##滅
##건과
롬바르디아
DF
1018
고야
영화사
집합체
펭귄
뷔
추축
##珠
중시조
경화
##108
고부
##梅
크레이그
이데아
단판
부로
양궁
##불안
맞춤법
낀
Heart
어리
악행
땅콩
슈뢰딩거
중앙아메리카
##象
오로라
뒷다리
이니셜
폐번치현
##輝
버크
민코프스키
갔으나
##구체
조언자
##천황
경순왕
NGO
1627
고분자
마르코프
○
포의
##무리
성형
##術
사하
스티커
##진단
##코파
궁내부
명곡
히로히토
콜드
##찌
정읍
코레
##구경
석축
##유공자
##엉
분장
##찰
요아힘
만능
징역형
##서리
수론
앙투아네트
점성학
]
둑
##입대
달라졌
##빠
폭설
##240
##紫
##입학
야마자키
##산현
소질
앞섰
브리즈번
벌였으나
한두
팬덤
##설치
주신
중년
퓨전
남침
광해
앞다리
인도주의
칼데라
부적합
판다
출옥
수동변속기
진보당
품위
튜
산화물
변위
청계천
춘추관
##타트
중앙당
재키
고귀
단번에
AN
청혼
##리자
홉킨스
트라키아
헥타르
곁들여
다승
이산해
목포시
퍼시
##나우
매춘
그란
나인뮤지스
프레디
요크셔
갈아타
##라다
##坡
기네스
침실
괴롭힘
1650
다뤘
1649
##1953
웨이브
##1936
##밀리
테너
워프
비겼
##천문
텅스텐
고이
##갈래
##자키
라이터
노동자당
Arts
송광사
모리오카
물길
1608
복사본
불가사의
합중국
##쇠
선적
##陶
##관장
##만세
의정
##로브
플레
##터키
연례
##트랙
공관
싸웠으나
바스크
국제기구
쇄신
생사
대사성
페레스
단죄
##수첩
낙관
트리니티
호위함
코코
마르티노
블루어
브루나이
가와치
##우상
##타석
소양
##제로
한산
당면
##문화사
##지배
변할
연합체
실례
##尉
재건축
카메오
나눔
덧붙여서
회랑
##’)
특산물
##노리
##소닉
##만이
##도장
대프랑스
유키오
곤살레스
1617
융성
행세
##燮
플루트
줄인
골프장
부스터
사족
불러들여
##to
자락
알아볼
밀수
##IEC
집요
ARM
펼쳐졌
Mk
UFC
##파르
허균
##獨
남진
바나흐
와이오밍
반다이
베드로
##조례
통감
쓰가
##읍성
욕계
##정의당
볼드모트
##가면라이더
난바
쭉
720
207
담양
##아름다운
동족
##웃
##원래
센트
싸여
연평도
기업체
카토
블랙번
됐으며
풍력
글로브
수작
03
카다피
끌어들였
##재정부
##독일어
재적
##Joseph
비견
##기후
850
##구인
Game
##산업단지
NCAA
공생
##팀장
매달려
규소
##사슬
193
차갑
광무제
신사참배
풍성
공작원
괴로움
##국민회
##가입
장학
##스러움
##검의
에드윈
중사
풀기
노아
정상부
##존상
등애
체사레
##윤의
##성운
칼리파
##올림
##사우스
국민회의
미즈노
빗
이쪽
상륙작전
마을버스
부마
##춘의
##文科
##틀리
페달
동대문구
변증법
##노현
tvN
중생대
1455
중문
처참
변성
Council
##송이
강우량
어울려
##표면
넘어선
사춘기
진봉
심어
##관리자
말라리아
##개미
HTTP
뽑혀
예카테리나
##한가
수세기
무방
168
##음모
테오도시우스
닉네임
##실에
##戒
신변
당상관
다녀오
##사라이
웰스
선보여
일대기
1772
중견
##확정
##미시
서녀
##붕괴
인더스
오다큐
##미션
추징금
##줄기세포
밀정
우에
사철
##인사이드
매점
숨지
현령
##코트
비웃
오보에
국물
뒤쫓
습작
##침해
나선다
##毅
분신
공문
##실제로
적혈구
잡아내
Art
208
지카
밧줄
지낼
교배
연성
태안
을과
고조부
이황의
학점
##尾
##경기도
수송선
묀헨글라트바흐
출루
모하
본뜬
##華嚴
##르노
AK
##제시
공모전
황소자리
여순
##대혁명
상층부
##여론
변경백
지석묘
전리품
놀랐
이공
‘’
수구
Business
경당
##낙
천궁
##머스
아센
쾌적
특파원
강인
단말
##銀
애플렉
소국
닥치
망상
이심률
후송
털어놓
1450
1536
동역학
##銅
##혈관
1580
부총재
사마소
##녜
##구력
청송
##일대
세타
##侍
좌참찬
이스턴
리라
##EU
이순
선풍
골문
사라예보
나타났으며
체세포
##컴퍼니
영연방
백혈병
카스트로
정철
##석과
##Mr
붓다
스테이트
##모음
에이브러햄
##하원
##사카
차드
후쿠다
##摠
연작
##씬
투자가
호드
재래식
캡
##이트
##근대
River
재방송
재킷
소홀
사부
퍼져나갔
##평야
##변환
##업과
스코
건재
215
다카사키
UAE
고위직
##170
밀레니엄
##주목
별과
순절
되돌
정유
##한화
살아온
작풍
##원군
##트리오스
옹주
섭동
소품
로그인
##문은
토이
친다
친위
생명력
##경남
##國民
별시
##아목
자주포
외양
배럴
1521
피크
터졌
히스패닉
노렸
앉히
This
파파
각막
키미
파울리
##버지니아
곡률
헤이케
NP
에스메랄다
영양분
겸한
누드
##보급
##브레
행해진다
##參判
냉
인스트
페리클레스
##블리
간척
다득점
아헨
요시마사
물색
##岐
##권리
##블루
##옷
##구미
출연진
홍대
CS
절멸
##休
301
덱
##모노
황금기
##Black
어댑터
당간지주
##사나
##廷
##수장
##を
알림
##교실
대함
삼척
##nd
##亂
낭트
인문주의
디디
금리
생년
영도
전봉
묻힌
일격
생산물
예편
울림
엄호
콩쿠르
프린세스
영일
의전
돌려받
인양
우니
##옌
흔들림
##리티
책자
##手
뉴펀들랜드
앙골
##티오피
사사키
유니콘
어항
##쿠르
라임
넥서스
##1957
무안타
방수
Out
00
##逸
올라서
자유자재
모회사
Mr
##細
삼존
중대장
야스
네이션
성행위
오웰
##일정
르노
예장
은유
전륜구동
스리
##통신부
금발
밤낮
##御史
보필
역관
222
##오른쪽
학내
심플렉틱
오마
게르
맛있
£
꼽혔
수당
베니스
##국령
##분화
켤레
순국
##색한
볼프
스키피오
간디
폰트
##소학교
루도비코
연접
##집합
편수
##贊成
Do
비정
에어컨
지주회사
##웨스트
충주시
멘토
##돼야
Hall
초음속
1782
##109
마주치
현대그룹
무주
무례
볼가
모사
##드림
내려다
완주
획책
바덴
퇴거
왜적
##期
운전석
티라노사우루스
에피
닐스
순방
폭발력
카세트
무수히
1613
소신
매운
Lee
1567
낙마
1779
조운
내려놓
낭인
##제이스
교통부
1760
브라운슈바이크
서고트
유모
메르
##표로
월경
남태평양
일개미
테살로니키
##자살
클라우스
소선거구제
절연
디시
크라
외전
뽑아내
연원
조선어
시즈오카현
완봉
##승리
스피릿
310
1615
도호
섞이
반혁명
##El
사업비
214
악몽
고뇌
1607
실외
총감독
##유사
뭉쳐
스펙
근해
##토키
##宰
표준궤
뜯
##어는
주미
사마시
##외국인
응력
허적
분말
##그루
밑바닥
Games
트레일러
카시니
일으켰으나
가니메데
초신
2021
##생태
##스케이프
열등
하코다
코르도바
공역
진왕
네브래스카
##1944
아이누
랭커스터
성조
이변
자유로이
위선
헬라
카트
대검찰청
구매자
##용기
탬
지하수
##렀으며
##繼
##우왕
이인
Cup
단숨에
광양
영종
갈라파고스
헤로도토스
재경기
명작
숙적
종주
나뭇가지
다치바나
##마이크
##서에
MG
최고봉
##교과서
명주
##예배
1612
페스
##인방
수행자
주방
현대식
저희
광주시
손견
##양면
##양력
워크래프트
##健
##매매
##吾
##양자
미워하
양평
선발전
##무덤
##해석학
호이
이심
무한대
##예종
종성
나우
보육
강서
박혀
AD
물고
PCI
##運動
마쓰야마
치욕
초구
회동
##107
봉수
피질
스쿼드
산신
샐러드
공손찬
카우
1545
다각형
행할
플레어
브리티시
세레스
메가데스
코코넛
##｣
테무르
시발
독보
##쉐
콜라
오른팔
##던지
접했
512
내해
폐업
휴식기
포워드
##카를
##산소
##규격
일찌감치
모티프
태원
고고
마모
##창고
네빌
지그문트
봉급
표현주의
고니시
요트
가타
##What
##남북
참석자
강습
##소수
##단식
표준시
애도
베니젤로스
찍혀
적당히
##형과
##소총
스타드
##轉
탄산
야산
실습
엄중
제사장
그립
올라프
윈저
베라
입헌군주제
##･
수납
고구마
제시카
대축일
소유주
##아이돌
##으신
##역명
더빙
함안
Island
드레스덴
##United
영공
##de
압수수색
와이어
군역
##온천
##衣
모리슨
가전
기요마사
잔재
이뤄져
일어
명창
수사학
예제
온건파
##직과
창제
포식
TNA
트루
고어
##론가
찰
##페스
##마켓
353
도네
경의선
##났으며
##방영
난부
##어시스트
자그레브
파트너십
##아노
부팅
Su
평영
연경
서킷
기입
문호
굴드
괴인
##일과
중진
익스트림
자모
##제이
##더블
신랄
원어
##누가
1582
마사유키
캐치
##천과
게이츠
지어
경험치
잠복
신촌
##신성
실형
##우트
에르미트
##원회
CA
무스타파
방위군
##이슬람
151
##무관
창사
쿠알라룸푸르
근년
감격
고후
##사학자
기득
시스
민자
정파
습한
290
매장량
걸스
스무
##농장
##인형
도가
##뱅
212
제례
엔리케
##분포
인민공화국
##여고
컬럼
체리
참관
아카드
레티
자이언트
##太守
단언
널
##행복
##종착
1728
##군데
카자크
1651
##십의
통째
지명타자
##순간
음각
생육
동급생
도망친
##端
각계
마더
타국
1601
사저
##왔으나
시전
계엄
버금가
153
경제성장
지명도
진성
기무라
파이프라인
##鼎
##데일
##Richard
수사관
영해
혁명군
무라야마
반자동
테크닉
##외부
##블록
하시바
##무사
##방위군
##진실
##평면
튀코
탄창
포에니
상석
대마초
동자
##1922
##330
단테
##중형
##콕
위문
남학생
익룡
춥
그쳐
Good
##현령
초순
OF
##아리
##1933
##鳥
버릴
##공산주의
초인
##이거
##포스트
##파라
치부
땐
블루투스
안과
난방
아이패드
흔치
##좌석
식생
대궐
##교도소
덴무
스틱
소관
지중추부사
##정랑
RAM
―
져
침팬지
라이플
1560
환대
모른다고
의석수
서초
##곰
##혹
매표소
비토리오
##μ
위그노
##문법
분대
매상
시퀀스
피델
남오세티야
##실제
대성공
##더라면
안토니
좇
병마절도사
##부지
##미아
섭외
##가시
안무
##옆
##펀드
자본금
故
##사마
##증진
태화
낙랑
399
교포
수산화
1570
##토론
안다
아카이브
처녀자리
손해배상
주앙
중군
메인보드
카니발
##董
##두스
왕녀
##지붕
##茶
##소식
유니온
알토
따돌림
##예방
다람쥐
##尊
수화
공작령
열린집합
새마을호
문화재청
인의
오메가
정평
##장단
石造
##국보
##아계
지드래곤
고환
실업자
부츠
타지키스탄
장공
충선왕
이바라키
귀부
학급
대작
선왕
##新羅
고트
베로나
공단
헤어지
##봐
##봄
계산기
육사
수적
험한
교유
##마법
양각
동면
아래층
신호장
부쿠레슈티
##녹색
##절도사
##질수록
수세
장막
멧돼지
고바야
##존재
의화단
공범
성혼
1701
대교구
##병과
해충
지느러미
##인인
재조명
##로크
말라야
죽이기
로망스
캡콤
만지
생겼으며
몬태나
관리인
410
체르노빌
달렉
계림
미녀
남구
캐스터
안드로
네이티브
##STER
대양
뒤덮
아시아나항공
화형
▲
1755
번번이
콜로니
청취자
원죄
##거대
사용법
검술
신입생
##명단
##저널
공론
이스마일
통일부
##계산
##유기
자동화
사다리
김정희
천만
죽인다
지배력
##부수
논산시
부안
이복형
선전관
반원
##양군
이승훈
그럼
성산
콤플렉스
페넌트
달팽이
동북아
##그라운드
올레
관악
##320
태어난다
##보국
##","
최신형
공집합
후주
호남선
소유스
낙후
1492
##麗
자연석
숭상
하동군
시해
흉년
석좌
무네
니콜로
##퍼시픽
나바라
조선족
마르티네스
람다
사가미
버몬트
이와쿠라
알레
산마리노
김좌진
방탄소년단
중턱
##1942
크리스토프
223
크라쿠프
##紹
지날
북문
##산국
JYP
앤젤
Space
##신문사
암살자
따돌리
금연
팽팽
소장품
적인
망토
유복
성급
##民主
옷자락
평점
핀치
조시
곤경
##사찰
형세
발돋움
간쑤
##大師
##노인
##수이
속명
얽혀
##진압
##OS
조지아주
##誌
담수
잃어버렸
차륜
##개조
##단부
루키
잠자리
디아스
군체
미시간주
안보리
기차역
##수용소
독이
##라사
##객
퀸스
##判官
도라
미쓰나리
##벨트
깊숙이
지나갈
히파르코스
플로리
순천시
##마시
최고령
##무렵
지원금
마그나
##졸
##동료
아프로디테
랠리
만토바
페르디난도
만민
에볼라
신이치
##니시
##커뮤니케이션
##자회
##啓
##필름
미쓰히데
육조
협소
God
##파워
급성장
병참
가만히
카디프
##성공
신심
이동은
##코마
##물론
##측근
버블
예산군
느려
쓰루
##頼
음양
##조제
토비
카이퍼
생원시
알베르
##지선
걸림돌
탐험대
개점
배다른
정액
헤비급
시우바
##1943
1619
##보스토크
트레인
##호르몬
콕
꽃가루
02
코너킥
Union
RD
##톡
##鄕校
석물
영락
옥스포드
189
상파울루
크로스컨트리
남대문
남명
##인터내셔널
부산시
##벤투
니코니코
시세
고스란히
국학
포용
조제
가쓰라
중합
##翊
##상실
콕스
권신
덮인
방편
귀결
두목
##황금
##教
올라섰
석의
반려
꾸민
한다며
노린
강직
생쥐
That
##준다고
벨리
형편없
법명
##닷
##이카
전편
Education
에너지원
환각
다자
Big
황조
##문종
##독립운동
##바이오
처자
세스
박자
금기
촉탁
재처리
##癡
실학자
비대
트빌리시
협동조합
스노
##병마절도사
국화
##미사
##점유
##庄
센스
감실
평양직할시
위층
고인
##고래
험준
MBA
역법
##만주
코무네
##주소
숙고
##회의소
이를테면
중심가
##저작
백작령
정명훈
사보이아
폴더
지망
코멘트
쿠키
접종
앰프
드롭
##1932
##숭배
131
##물리학자
개와
##면역
무도
하이젠베르크
##남쪽
색소폰
실화
전서
##思想
인품
출신자
사나다
에릭슨
업종
##집중
##惟
어마어마
숙
동부승지
##크로스
##네트
##흑
미달
몽골족
##단일
핸들
##정사
##工
포브스
##드웨이
학제
##공룡
공공연히
통일민주당
##최초
SR
그래
비밀결사
전리
조경
흩어진
광우병
님
징조
다각
징벌
##갑의
속칭
주둥
원성
로터리
슬로
녹는점
##IP
최익현
##무라
상복
파평
각급
1740
나가오카
걸어서
배차
Awards
##다크
부조리
배웠으며
재치
상냥
cell
##사당
##화이트
펼친다
나토
##정이
목욕탕
보행
커비
코나미
펴냈
커플링
폐선
##가루
사라센
##모습
청량
##현은
##가공
##돼지
수정안
##휴
9000
맡아보
후미
차이콥스키
술라
고생물학
포항제철
##괴
명품
##국왕
##織
커크
촉한
오랑캐
비변사
##글로벌
##角
나가토
에반
##라르
부유층
Year
회개
1756
에르난데스
##개입
##혁명당
초전도
##코로
바하
롱스트리트
Brown
스킨
##타임스
##정과
자가용
문맹
외조부
딸기
##督
별자
도처
주박
##제군
친근
증명서
스루가
헌트
##幸
스프
##스테이지
저온
##모모야마
##선원
선덕여왕
체액
비장
##進士
##錦
가이우스
##好
충절
##일까
속속
본따
##장갑
##파인
업무상
씌워
James
MT
근연종
몰아냈
내시
겐신
니조
136
중산층
1520
태운
##将
영남대
분립
농노
홍백가
이오시프
을사조약
봉군
호르헤
##제인
조만식
라벤나
우마
그려진다
##이집트
소사
임해
케네스
레이트
원류
##파스
##지형
부수찬
임했
기울어져
##닉스
안세이
내고
동복
반장
짝짓기
피의
레버
수에즈
가꾸
하드코어
양안
##내면
아카시
일신
##Km
##동력
기요모리
##라틴
설날
마사히로
조광
아나톨리
오리엔트
업고
##坊
기호가
##續
라자
##리치
번역가
##워터
간에이
##수수
모른
##爲
##지름
군마
난쟁이
주모자
적십자
##호인
1469
##교양
PP
세군다
프런트
협력자
사회부
무루
기본법
강착
신약성경
쾌
메인프레임
알콜
최북단
##스토
충만
서천
##球
유관
##CoA
##홍보
도울
은하수
폭정
배지
##오픈
##騎
자칫
투과
뒷발
아즈
크리스천
##성공회
분모
##太平
다롄
##管
##113
양공
춘천시
병설
##潤
##텔레비전
##何
##통과
들어설
##Ⅱ
##추가
비행선
##民國
편미분
##져야
양평군
개혁주의
##빌보드
그리워
쫓겨
화차
##외곽
패트리어트
아리안
##테스트
시리얼
안양시
대간
차려
협시
창극
##보사
마신
받침대
④
##舜
##태풍
발루아
가진다고
DDR
위스키
티르
장준
##니코스
기념장
IDOLM
1765
물리량
출전권
##시르
밝힐
1606
항속
달성군
남겼으며
집시
이게
배트
LIVE
라디
벼농사
금지령
양아버지
상산
강박
음란
##밀리미터
귀한
화단
고질
달라진
##に
히메
640
##條
앨버타
전해질
##교향곡
피어슨
148
커지
##1868
##지아
##손실
달라붙
토우
##라크
운전대
147
##악마
Air
오사무
난항
자폭
무녀
괴롭혔
방랑
공문서
알아차리
##구름
영세
미술가
##탄생
##쿼터
세자빈
메디컬
동이
##슈테
##데리
뉘
불순물
괴링
봉신
핼리팩스
공고히
에메랄드
시어
볼스터
고기압
만하임
##운수
내연
Foundation
소프라노
국가주의
##투라
문학사
복도
##특이
구한말
고전주의
유리창
미야코
사타케
전업
묻히
오호
지중
##總
##계몽
1643
사네
흘렸
새의
태위
초계
힌덴부르크
절도
제곱근
나치스
보소
크레인
건너간
트리니다드
의약
해골
해부
한국사
##博
신해혁명
##驪
지기
##國師
김장생
장신구
신채호
후버
중력장
##실베
##실력
토큰
남이
수아레스
코베인
방북
대종
노런
흡혈귀
총면적
윤증
##고사
어쩌면
##廣州
어우러져
David
설상가상
양립
##신사
지친
견주
##열전
트란실바니아
원호
노하라
잎겨드랑이
아이러니
할복
상행선
메탈리카
##포크
데카
막내아들
##晩
##드레스
열흘
들려주
법상
##방침
MiG
진하
만두
찾아보기
##렙
이시영
참혹
주둔군
사멸
##병단
페르디난드
청화
소변
##Hz
바우
##륭
타이난
가택
##연대장
레슨
도킹
아토스
랑고바르드
순서수
##소단
204
에드거
수식어
##연두
##開城
지나갔
분리주의
이방인
호박
타지
패미컴
페트로
##750
States
물려
스튜
##일제
거지
##한서
137
레이어
참호
전출
##타현
##마땅
마애불
충무공
뜻대로
지워
캐치프레이즈
교점
우분투
노령
샵
계파
##동굴
히카리
아쿠아
단가
클린
과달카날
재외
다카마쓰
요르요스
##1918
노스웨스트
소포
천민
##定理
##夷
상형
청대
대권
원더걸스
기동력
##동방
관사
##아리랑
파벨
워털루
##단인
앙투안
임오군란
오세훈
노원구
소프
을미사변
토스카
부교리
구미시
코인
레지옹
파티션
##칼의
매리
행렬식
PSV
##瞋
언행
부서지
Red
1388
##操
1720
프로페셔널
패드
관음
맞은편
입소
되돌아갔
##시타
수서
브래드
##　
##증후군
위독
##종위
난류
태양풍
##분할
배송
##學士
##본과
가평
서양인
##페스티벌
##環
옹정제
##장에
기묘사화
장현
리히텐슈타인
##제정
1573
숨겨져
카를루스
떨어져서
큰아버지
우익수
##注
간극
」
피격
플랑크톤
행선지
소문자
##念
##사우
석벽
드릴
##항이
대전광역시
일단락
##가군
이슬람교도
백두
불가침
정희
##Blue
덕수궁
통곡
영암
해직
동식물
고아원
휘트니
훈족
실링
르베그
유니터리
쉐보레
필로
198
가이드라인
킬로그램
##Peter
신년
##贊
##UEFA
해적단
##관측
보령
167
넉넉
##잉글랜드
염분
조커
수공업
잠비아
##통신망
외아들
헤이룽장
말려
AA
Dance
##노이
강연회
BGM
Great
##교섭
최고점
은색
##짜
카탈로그
좌익수
##孔
##소인
##대만
과열
계율
##제회
권위자
1621
URL
유랑
##당인
잡종
싸운다
##신인
##東國
허술
축전
1530
##드라
절댓값
알자스
三層石塔
배기
##호그
영제
호스
에디슨
기내
웰
법학자
##부리
들어맞
UC
철권
핍박
낙인
그리핀
챙기
##핀란드
문공
염오
##재외
나일
전령
정은
##述
양녀
칭다오
삼국유사
로시
괴로워
실감
##疏
정진
Japan
레이첼
커스텀
1745
##이적
##남용
외세
바쳐
코발트
형과
통한다
##시계
##급행
대용
영덕
##수준의
발트해
##내렸
Radio
원효
커튼
외측
장계
보그
여전
퇴적물
마리아나
임지
음악회
음소
장론
급식
편도
우계
오디세우스
번트
타사
사육신
##법정
엘살바도르
남중국해
리버스
최남선
모란
대하드라마
183
직급
도체
##젯
메타데이터
390
챌린저
항등원
##편하
약재
브룩
404
파스타
유쾌
우생학
184
##방문
라파예트
마르셀
##문헌
스커드
색계
스토커
##街
##그래프
무굴
태산
합천군
라테라노
축전기
##素
준다고
백금
호치민
한랭
유니버시아드
냥
또래
##"-
스콜라
##녹음
웹스터
늘릴
어색
매개체
1526
##전당
1630
초급
##캄
살림
생물체
##벅스
초승달
상록
평시
리암
게일
최규하
방이
서무
##震
##나카
1674
입항
선례
몰라
모하마드
아프간
액세서리
쏟아지
##1926
민생
스탠포드
풍선
##레일
1629
고착
심상
홍천
후지타
##전투기
작아지
판문점
##레프
자라났
##1910
양준혁
쯔
##kt
워렌
국책
증산
중성자별
##눔
청장
##넘
코크
화평
워싱턴주
류성룡
완충
교민
영접
그로스
도망갔
##주지
스토크
호그와트
편광
##통신사
디지몬
마도카
베텔게우스
##항일
##힐드
JTWC
심해졌
##스트로스
흡
땅볼
역병
an
##지각
원더
명실상부
1675
Story
현상금
##핏
레스
군의관
채워져
##가게
##어주
변태
레바
##契
##노아
성수
여가
해내
걸어가
외장
첨
EA
서라벌
태백
##정거장
간간히
삽입곡
##1947
프레스코
##보관
베릴륨
여제
향유
##再
##타코
##뉘
가마터
##스카이
후생
##화합물
인스
아람
스팸
중립국
역경
##다섯
##우도
집터
보건복지부
봉천
합해
##잠수함
한옥
표의
레아
##플라이
오마르
고상
그친
##챠
버릇
##갈색
이언적
##보살상
성악가
오라클
찾아다니
녹스
백군
##언어학
소르
아우크스부르크
장력
에밀리
한명회
종수
뉴햄프셔
##劇
하퍼
##총력
주택가
조리법
본보기
##1923
포츠담
태사
극본
쳐들어오
Team
셀틱
주치의
##기회
상승세
581
밝혀진다
##으니까
냈으며
물음
응고
바사
해양수산부
범한
점막
##").
1589
김성근
에미상
##簿
134
철교
통달
까다로운
고용주
1568
허가서
황태
드러낸다
예송
넘어간
거북이
발자국
유코
병장
TNT
사회단체
이베이
기계식
수도자
##단총
##여대
##토크
지표면
에이로쿠
본존불
사정거리
완강
불빛
##신분
##1954
VVVF
마테오
거스
##Best
천주교회
끓는점
고등관
알레포
##근본번뇌
환공
서포트
법률가
960
어셈블리
선량
침전
닛코
리허설
로스트
##마로
휴양
벌어진다
착
시나가와
도깨비
궁금
슐레지엔
랄프
##킷
화산재
글쓰기
필리
부녀자
응모
슈퍼마켓
##포병
##성전
이천
거듭나
##徽
##리다
##퇴
##而
##수령
반목
스쿼시
##發
##리오스
##이동
평가전
봉했
다른데
팁
피레
##졸업
나침반
기거
개신교도
##1928
공화제
크라이슬러
1565
##생식
396
3500
간헐
난사
##국방
##청춘
사액
##vs
미주리주
마이너스
##직이
플라자
웨버
데이먼
리타
내슈빌
##太祖
가야
FX
##関
리포터
사들였
##시내버스
1694
##Big
질산
김연아
백혈구
능률
드니
##충돌
중앙아프리카
##유전학
여행객
망각
차이나
사쿠
통찰
##하얀
피니
비와
캐롤
서커스
##돼서
1768
치매
영안
문부
암묵
1504
u
##Bad
배움
##비행장
모하메드
##卓
두려워했
Paul
특진
피아
##惡
답사
미비
푼
게릴라전
데려왔
도굴
기억력
리브
저고리
작별
미노루
워터스
마티
도리아
매일신보
아바스
카파
핼리
##대금
감속
웨어
##아직
칼뱅주의
Don
사모아
나흘
악수
1602
책략
##철학자
주니어스
##연주
신앙심
유방암
폐쇄성
꾸란
안구
##식스
##이기
표지판
자꾸
허벅지
정토
Vol
당진
실축
반구
->
아비
777
PAOK
유량
온양
##전압
강우
##功
##禧
##도중
서산시
호시노
##만과
풍산
##210
데크
직할시
##지침
##摩
모음곡
광릉
전도사
##사례
돗
에러
자연환경
##랫
글의
독립선언
구로구
피난처
합헌
방과
405
위트레흐트
크로스오버
노숙
남해고속도로
읍성
지요다
즉위식
이석기
로이스
⟪
사라왁
법무관
VfB
##라이브
Boys
아즈텍
윤봉길
마자
스티븐스
관전
보수주의자
철의
초라
##장전
실세
휴먼
##방학
저승
아민
##만부
후쿠
클레
##115
회령
MX
540
장경
진산
##滿
엠파이어
아산시
필치
##웨어
칩거
쇼난
연금술사
세심
바르바로사
중경
포클랜드
소제
172
성동구
##가문
##강제
SI
빌리지
저격수
분묘
##으라는
##役
멀린
성욕
##해운
챕터
##勢
##댄
##야구장
부탄
이효리
조업
웜
행크
분구
부원
Control
침례교
맥도널드
후스
중선거구
##難
밋밋
##Korea
군단장
##僕射
주희
미네랄
##雪
의정서
표식
질주
적립
어학
미로
비꼬
##타임즈
##아와
##듣
황건적
응집
방망이
풀려난
위기감
일으켰으며
1683
##立像
##봉사자
219
이종
전광판
후쿠자와
오야마
고마
And
전용선
익산시
건지
미야모토
물량
##진주
##胤
##계로
민의원
동구권
소드
희빈
삭스
176
무척추동물
보인다는
티베리우스
##메르
튀어나온
##GHz
태어났으나
수기
사업장
##116
항공우주국
##베르트
##캇
비각
순회공연
바바
도바
##青
##빙판
일진
연필
식수
정복자
통찰력
이정희
##인트
포커
리베라
지나간
서강대
히딩크
##성제
서바이버
닷넷
루도
##캐롤라이나
네로
이소룡
빨치산
돌려보냈
동두천
460
##세기말
불태워
##提調
##자라
폭도
마실
더군다나
나아갈
파블로
나오미
별거
##발행
143
마이크로파
수집가
굳히
기관포
삭과
##공인
##하이드
재빠르
Times
끊겼
데스크
불능
##參議
숙부인
시크릿
근일점
봅슬레이
우암
시흥군
전법
서화
##라이드
##1871
다이아
##kHz
관습법
템
잠금
반미
황국
토모
부와
에미넴
스플릿
##공유
중무장
백조
건기
##활성
휘장
##登
버니
미츠
##성유식론
##불법
##사회단체
바이너리
이더넷
민병
폐해
백국
##카야
쿼리
상무위원
판임관
PHP
희종
애국가
성호
연개소문
##싸움
##帶
##버려
156
이사금
##일합
##웨이브
139
특별상
노년
##워크
##薛
가리킬
유례
금은
딛
##페이스
##3000
##관제
삭
##結
펄서
달해
한국식
살펴
접착제
##기독
안무가
##왕자
##드럼
##바닥
에이미
##성군
관향
##入
##職
자청
##연산
##고구려
벌목
166
번들
휩싸였
붙일
크누트
레인보우
초본
옥타브
깨졌
버려졌
아론
지켜본
##그러
사대
Power
경악
고다이고
총열
자헌대부
비버
우주인
관악구
대덕
농협
팔각
##정청
삼도
중등교육
호프만
진무
퀘
##변이
빙그레
기숙
넘어지
다카오
소명
##직할시
주범
911
##오온
토레스
양복
레게
플레밍
바르트
전능
니시무라
무득점
플롯
하루카
프란시스
기즈
단단히
빨랐
##江陵
주춧돌
##의해
연천군
##〉("
not
가디언
속여
거문고
유미
임직원
미안
스테로이드
부대원
##국민당
제트기
##柴
근위대
페르난데스
##USD
##공학부
##고로
소학
아오
##비로
are
1572
김부식
드라이
터키인
내심
##1934
서곡
##1924
해탈
##카로
##근거
##직접
반달
뚫려
소공
옮긴다
##사운드
미케네
공대공
외동딸
주당
인준
철광석
토라
유권
군축
마츠모토
##학관
##사슴
복숭아
장타율
초도
양모
##포체
당권
알바로
분류법
스트롱
수자원
플로피
앵글로색슨
머스테인
성좌
돌출부
##입시
수해
성역
##태양의
브로
고려사
##甘
로라
##Live
##진에
정밀도
스타덤
확연히
시구
일개
검지
##대상자
##군청
절로
1645
시킨다
Home
##1921
1583
공공연
효령대군
기강
퀄컴
길렀
프레이
경시청
기일
##발사체
막사
사쿠라이
실학
##지미
외할머니
##233
비틀
##부흥
##고무
친화
##母
교세
타이베이
작자
케라
##이센
위너스
이즈모
##협동조합
영릉
##군정
핀란드어
##렀을
베넷
양말
월간지
중남미
견과
입석
1543
전국구
성전환
동작구
에마누엘레
괘불
##衆
커리
석영
알제
자이
Language
오자와
OEM
##고스
가요제
木造
후지코
달릴
오오
바이올리니스트
참지
워킹
메이어
마가렛
덤블
복건
감독관
아케치
##마쓰
군내
라우팅
음정
CG
인부
##Die
용감한
떠났으며
폭풍우
단맛
스모
People
림
랍비
색출
164
토요
사칭
따름
강해졌
뷰티
후렴
##헌종
##폭포
뒷산
구례
연혁
최영
##멕시코
행실
군자
성범죄
##교포
##般
솔리드
이시애
Line
상관없
##樞密
늘어놓
군수품
##자로
쿠릴
살아나
##슬램
용수철
노역
채찍
다무라
주동
태평천국
훈구파
꼭두각시
순례자
베니
가할
트라키
닛타
##교육학
달마티아
1764
육신
패러
찰나
##다호
즙
드라
시나이
국민정부
구레
##진입
홈런왕
파이브
##해요
Data
밝혔으나
매뉴얼
배드민턴
##中國
내력
##사변
빌린
특무
왼손잡이
개회
서하
##詞
현도
말뚝
all
슐
찬미
##우편
장학생
기댓값
후금
##Louis
개화
매혹
방형
체형
소홀히
##십자
극락전
종회
스탠다드
##최근
제럴드
##자주
수고
최저임금
사구
##始祖
##노리오
호흡기
비고
화분
##중독
황주
가중치
##장판
권속
식욕
산호
제소
##슬로
토고
##點
##翁
제청
디스커버리
##지난
푸르
1456
White
음파
오에
봉행
몬티
금과
왓
##아크
마지못해
태후
케이지
군신
헨리크
##경연
도미니코
##리아노
일직선
##어선
극좌
천상
갖춰
에콜
교편
해경
체스터
크리스토
##쏘
셋쓰
##청문회
팬텀
적진
##증과
이복동생
1707
##군부인
##보좌관
광기
사로
화질
##보단
우동
##http
##하르
##副正
행각
1540
과언
봉지
발원지
한라산
미야기현
##청년단
##倫
부검
##명과
폴란드어
##유전
불기소
##kr
William
도전자
청백리
아노
요시키
##強
코우
롯데월드
##栗
주석서
다이어그램
##易
사브르
서른
DSP
성하
옐로
룡
##민속
##공위
양인
모란봉
##〉,〈
토속
크라이
##총동원
예이츠
유향
비화
##허브
스페인령
군국주의
산불
데빌
엔투스
문화부
자유시
최순
소조
KAIST
##집단군
제다이
이마트
##스팅
언약
최용건
마재윤
##승점
디리클레
순환선
명만
하남
뚜렷이
178
##버드
##홍콩
이완
여대
Light
비스트
느티나무
Michael
이화여대
군현
##中央
CR
##껍질
##나트
하얗
화학식
페이퍼
허약
일류
여느
지의
스카웃
왼편
얼어붙
##힌
오위도총부
초창
맹주
##그래
병상
양사
남긴다
절지동물
1559
모독
##작위
충격파
접선
Smith
그람
##112
노트르담
##아키텍처
선무
##허의
##데일리
볼프스부르크
공대
아오야마
##유전자
에우제니오
1767
##임기
##강변
끼칠
반출
신령
GPL
역전패
헬무트
##忍
##국악
1769
##정복
굶주림
붕당
표범
##국공
##매일신보
활동전위
기모노
장승
페르세우스
미림
리베리
견도
장기수
모퉁이
송구
마술사
령
##振
주경
바니
케리
행장
##부모
시외
##성시
학풍
##속국
325
##±
Can
유행어
피콜로
반역죄
##구제
##기단
경사면
양부
##무형문화재
오른발
##사부
형평
썰
비닐
간담회
##死
##이글스
199
펫
원폭
격문
##私
최첨단
일레븐
##라라
알선
안락사
##우르
카바
똑똑
논박
기로
헤일로
누비
##1927
힌
시어머니
##1900
##수출
##그때
##공포
존스턴
사과문
이주자
##라이스
KO
Moon
##世宗
폐사
배와
환국
레지
레이더스
Are
보비
배선
통감부
심소법
타결
##친위대
팰리스
NHL
‘-
벅
##드라이브
서머
포르쉐
마사카
##전향
SG
순정
치타
페루자
레슬리
##럭
퇴원
##술부
##러서
충원
자유지상주의
##지급
옵
파우스트
접영
개리
##니어
1611
##크로
머라이어
원가
한발
균류
조어
과부
기침
곡도
소부
멋대로
수륙
혼계영
중임
이면
'(
##忠州
이름난
##여객철도
시흥시
##菴
명복
문벌
스티
로버스
function
쓸모
##도루
증기선
##원에
물리친
받아들인다
혼슈
재림
토네이도
천둥
노려
##특전
##1955
##1907
외피
루키우스
장부
중앙집권
##감소
리스크
181
아브
예산안
성금
##1929
##리타
넬
조너선
##푸르
잉글리시
수출국
##en
수페르리가
세르지오
원세훈
스카이라인
공예품
매리너스
익힌
저항성
노하
##父
평장사
1398
세계인
##輪
쳐들
##蔵
##낮
##줘
개소
미술사
갈라졌
##마리아
오시마
##단종
오군
Young
##바디
토사
1588
졸리
##리라는
세바스토폴
Type
끌어올리
##줌
츄
1595
천정
##潘
사공
체벌
##지평
##반란
베스트팔렌
뻔한
그건
##눌
게이힌
격식
트랜스포머
식물학
만리장성
##중주
새만금
벡터장
현무
마커스
헬로
##감찰
전경
##계곡
환수
이견
편집국장
아가미
김안로
틀린
##헬
요시히사
##自由
다뉴브
링고
들어온다
##성체
바그
##무명
뭉치
페데리코
검투사
##주식
중수소
선내
##江華
싸이월드
##나요
##패키지
##森
안수
유명무실
그라나다
웨일즈
헤일
##先生
HK
보름달
손톱
IPv
찌
기선
요시미쓰
##고속버스
##罪
##탐사
북해
##인생
##더라
1616
정묘호란
##재배
제자리
머레이
하이라이트
리한나
##미스터
키르기스스탄
풍토
협궤
##럴
투수진
##취의
찍힌
##여러
##β
##屬
대소
##강희
##參
유한회사
박힌
인천시
우선권
##平安
니시노미야
##소생
##시행
부러지
##웹
전분
순전히
##모하
안티오코스
리오넬
Blue
휩싸이
오존
에이커
##래스
외도
관복
##동아일보
1773
##Red
양감
쥔
1555
마사키
밤중
##거로
두건
에버
대륙회의
장신
##서류
노하우
신천
다이애나
미끼
듀이
하달
공소시효
플러그
서베를린
독감
퍼스널
엔리코
친목
##나온
##도상
오너
##에요
##식민지
##미가
##쟁
##119
수개월
알려진다
해프닝
불태웠
불발
##비노
글라스
##Good
공수부대
도량
스키장
도르
에레디비시
1659
갇혔
##리얼
분동
무한도전
예부
디나르
리버럴
경구
##尼
##丞
카슈미르
병원체
WWF
설파
##1894
##찾
하타
츠나
중등학교
##무가
덮개돌
홍성
형제자매
##㎝,
제각기
##문항
##Sir
유카
##사과
꿰뚫
됩니다
폐포
##훙
묶음
##1952
##공로자
##척탄병
수발
츠카사
클린스만
양산박
내사
##골드
에덴
비축
타악기
택
##누구
라디오헤드
time
탄식
북한산
뵈
##라야
준말
왕도
##牧
##천문학
177
해치백
찾아온다
신군
1628
동궁
진양
##實錄
체신
##채무
꺼리
헤럴드
순창
렉싱턴
##선정
증편
##경색
##종시
백부
여산
##걸음
##사령
##으리라고
카나리아
개작
간염
평화주의
##간섭
좌상
##皮
어려워졌
정돈
벤더
역내
흑점
덕수
##필리핀
##괘
일어서
오피스텔
칼초
과보
##了
네이트
낙원
##박근혜
부주석
아프리카인
축삭
주교회의
##리카
트랜스젠더
태동
필리포
파키
##총무
번화가
##계단
이케부쿠로
##南陽
##순수
랜스
##策
삼중
워런
콜럼
##부근
연변
##호에
드래곤볼
##단어
지치
1640
적갈색
구라
##이마
##관계자
내용물
입점
레이놀즈
나이토
해온
##紅
##중화
마나
##聲
Human
리얼리즘
한자음
초속
##결제
퀵
##감염
팔레
입이
쇼토쿠
버팔로
무속
##㈜
외신
MGM
사경
1513
도쿠시마
리나
##추정
1761
고액
양민
맹자
철새
콩트
부딪치
##추적
남포
인터프리터
##Henry
PDA
오븐
가늠
성신
##동구
로코
##호주
##染
##접촉
##판정
발명품
장준하
파이크
큰곰자리
디아블로
ㄱ
프시
베르겐
국지
황무지
##오이
색다른
달라서
Christian
안료
나무껍질
셜록
##洲
다녔으며
##后
##역인
오줌
560
##飛
볼테르
갖췄
##파동
푸코
암반
##社會
##쿠사
훈련소
GP
후쿠시마현
##연구관
##누이
졸라
자유민
봉투
양곤
둥
소대장
191
여공
부딪혔
희석
뒤엎
다이나믹
1599
디오니소스
파조
141
##望
##편찬
VS
##238
##조선왕조실록
출두
채우기
성비
함재기
휴즈
탈북자
##수군
실의
##볼라
##121
무용수
집합과
##스코
##안과
##句
고흐
We
##質
돌아섰
지킨
콜레라
짜임새
##진하
조나단
득실
스커트
CSS
°
##소시
##시라카와
순열
팟캐스트
신승훈
아서스
러시아워
##SBS
값싼
1418
182
미타
정신병
##중단
기염
Pro
데와
제호
163
##어이
##메일
##世界
타진
##원주
천식
##냐며
구주
악재
더더욱
##아드
An
##則
##블로
재검토
텍스처
수포
##慶尙
##扶餘
약했
발레리
태양신
긋
코스타
카리브해
골목
앙카라
혈전
##리라고
링네임
어촌
마요르카
시그널
1080
##모사
##지하철
도수
양해
##倭
연해
소화기
역원
##저우
게이밍
##">
배아줄기세포
호국
거동
회절
예절
위신
목축
##공세
스에
송병구
배교
숭녕
마수드
##예비치
라지
194
##翰林
예천
예매
재연
1661
##보증
리노
이끌려
산동
남길
종과
1594
끓이
격인
워즈
##터로
스포츠카
노이
헤즈
급변
##출전
운문
홍차
높인
열연
될지
라스트
MB
여성부
##자극
갑각류
##혈
휴지
썸머
두루마리
##이리
##설화
##횟수
울진
##光州
##귀의
미적분학
##UTC
꺼려
저절로
참작
헬싱키
신시
성삼문
한국일보
##바드
감도
##座
편집인
신생아
##카가
기요하라
아와
실추
트레이
1534
1457
문인석
딱히
##蔣
영상물
벌집
회색빛
First
〈〉
파비아
탁지부
통킹
최충헌
##평론
##울리
레반트
스트립
##우당
경공
##부락
법주사
불변량
마쓰마에
카타니아
엑셀
가타리나
노회찬
중남부
툰
퍼플
##중부
세터
필라멘트
162
발길
자연법
항법
##遊
가르친다
시들
소방서
금당
##미팅
저소득층
철자법
1634
회관
속죄
제갈탄
##스트로
대공포
수꽃
라이드
##코미디
비르
##폐
##담배
##충격
베트남어
철원군
징용
극소수
고차
##愍
##단체장
쑤저우
수보
중서
골고루
혈중
이브라힘
Design
공중전
가맹국
London
울라
수필가
난소
메릴랜드주
팡
197
하수
뤼순
##스테이트
Sun
쏠
TOUR
제비
형량
맞춰서
##엄마
체직
폴로
파월
고양군
당상
가진다는
의학부
정방
지하실
아이비
퍼킨스
교과목
COM
암행어사
서귀포
에드워즈
코시모
보에몽
행한다
##역정
명당
건조물
경쟁사
케이시
위업
##뮤지컬
##호쿠
이동성
##제약
##자매
다쳤
옹호자
맛과
도내
단당류
어간
데릭
정중
양원
노반
어로
위암
시프트
유속
##도전
NPC
황해도
##사스
1646
##국문학
##巴
유프라테스
마우
일련
원광
##혁명군
반역자
##항목
##건조
토오루
##264
주유소
μ
화포
이착륙
파푸아뉴기니
오토마타
칭하이
비누
실내악
팬아메리칸
병석
##衍
무학
풍수
캘빈
피폭
플래닛
불림
로타링기아
실증주의
황희
1515
급등
##합성
접두사
서태후
이교
##연군
민다나오
##대례
운전사
내딛
현세
##故
1655
호군
##假
길가
오케
##기치
노심
라우터
절실
##유가
1587
##오빠
이뤄지고
##호수
##진다는
텐트
##散
##²,
유자
##납
##그래픽
이안
##각이
조난
하마마쓰
청진
##병기
##캉
##は
처소
퀄리티
문왕
##주문
하리마
처사
엔젤
외우
경서
이인좌
기록물
얽매이
이루어져야
내서
북주
로마네스크
철군
국기가
남우
아라이
마포
나섰으나
음계
관료제
블룸
배운다
동질
아뢰야식
둘렀
외질
##1912
##w
##도독
전연
두드러진다
죄책감
VfL
연천
##행이
프레이저
##인에
교집합
순결
맞출
포트폴리오
구어
백조자리
봉은사
양동
곰팡이
##芝
##122
발흥
산학
와일드카드
##살리
겐로쿠
보험료
##몬스터
시복
혜종
포토맥
성희롱
##루비
인피니티
엘레오노르
수호이
도시락
야코프
##儒
해남군
교육청
##는커녕
##齡
##수용
##近
성시
담양군
이어졌으며
총격전
Development
아르고스
General
일전
재밌
군제
##기대
Hill
1632
##마르크
평택시
단파
텅
비관
향해서
보살핌
영재
불러들이
하토야마
동호회
##시집
종손
##요청
차고
##1931
사색
이거
한국은행
중이
면회
신제
Δ
Little
상아
마트
##증상
##빔
출고
반야
##오토
무하마드
풍의
빠질
##식량
##베크
##방정
에리트레아
##승지
미네르바
무브먼트
##조장
##127
##투입
劉
핑
##대대장
오레
CH
밀폐
##기사단
올가
자책골
제라드
##궁도
삼엽충
##원반
##KST
Edition
##′
사암
1522
원한다
정해진다
1725
메르켈
##128
생소
##FIFA
겁니다
입혀
##연설
1712
##우선
##시보
무서워
어근
##인기가요
아르테
대용량
여길
패스트
알린다
대서
국방위원회
재계
오카모토
GDI
##陀
##배틀
파괴력
진안
늘어날
##鴻
여수시
부교수
갈고리
공보
##문관
진핵생물
##판단
슈퍼컴퓨터
##습지
젤리
비로
늘린
맥도넬
어사대부
Long
사다리꼴
수라
##흘
안상
샨
##해산
##BC
우발
살인죄
theory
록의
아델
마우리
##프레임
약수
폭락
##宝
블랑
카노
##유격대
쓰리
##팜
스타트업
그리피스
페르디카스
공녀
조피
##코노
튜더
포즈
윤보
##정은
단바
1653
경미
1722
##홀딩스
##타시
명군
우선시
1512
West
헤르타
1575
불거지
##妙
생겨서
##마왕
##융합
세포질
감염자
오무라
##NE
과수원
대장균
허무
그렇지만
##國際
팀장
##진법
##주역
리카르도
라빈
사로잡혔
##개시
만과
북청
데려다
트라우마
##²)
입조
브레인
##症
##체육회
##1600
능했
유탄
깬
차등
갑상선
##131
##450
슈베르트
##대결
떴
형태학
보성군
Law
금주
##추구
의열단
##포항
##고보
980
1635
##벨리
##어를
##바우
##왕상
빈라덴
동봉
그런지
퀸즐랜드
장합
##교과
희소
약해졌
연방제
##뜰
현대캐피탈
칼레
바이스
동남동
장형
##취소
자유민주연합
기념사업
실바
페드루
포크스
범고래
전계
일리리아
EOS
착상
작곡자
##旅
Season
##평양
호황
1467
루르
##거리의
##한자
민스크
냉소
알아채
제멋대로
##연예
날아다니
권능
사세보
후크
탈주
코니
##지속
Suica
직감
낙서
##만장이
제이미
줄지
##萊
스텔라
암세포
간행물
수운
##다이쇼
어려우
신디
막상
도쿠
##114
##兒
174
##시정
##산지
##막이
오라
가져온다
1525
##모치
슬라브족
출하
##熊
에페
내한
탁발
고변
진공관
니코
장유
아사노
흩어졌
다케
요시모토
어귀
변주
권좌
돌기둥
##야말로
##수에
스프링필드
씹
포가
도감
찾아보
##느냐는
##骨
석가여래
이슬
비키니
##colspan
수출품
정답
에인트호번
약초
1471
##초각
안식
수출입
##밸리
##어파
305
##기념사업
자상
대천사
제이콥
쌍극자
##상속인
마고
Global
##수량
신안
접점
의술
1622
뒤따르
강인한
##유아
##銘
##篇
치타스
관상용
신시사이저
뱅
스몰
책임감
미네
수생
##친왕
##생물학자
맹목
엇갈리
수박
당근
##닭
##1925
막대기
정각
169
브리타니아
거친다
맞췄
##기어
중종반정
밤새
해준
준용
탐라
1527
상대편
초상화가
내년
묘지명
##교대
버뮤다
휘트먼
내버려
SP
아톰
전용도로
옵티머스
코먼웰스
무신론자
##지간
동치류
스카이워커
해마
880
쇼니
##浪
방조
##국기
사토시
##트레
미혼
##斷
출연자
Korean
카트린
지파
실직
아키나
임요환
왜건
예과
고케닌
노르딕
##하우
대구시
무스
이동휘
분추
미하라
초이스
구청
나이키
병결
##예비
GE
잠겨
1721
노장
##울산
아오이
종지부
더미
323
플레이스
##표지
방탕
원대
1584
소꿉친구
올랜도
마리나
##아키라
난립
군명
빌레
석회
버즈
애국자
##校尉
세실
보금자리
지토
1688
정력
제네시스
##쿠마
Now
토호
신명
도화선
한림
##프랑스어
대광
벌칙
트로이아
신경망
고흥
KS
##190
알릴
로제
후처
핸드볼
기독교도
지대공
음경
달려들
경전선
톱니바퀴
라인하르트
완고
##230
숱한
마티아스
레인지
##兵曹
진보주의
로어
##戰
##부담
이요
구술
호주제
안달
Academy
헌병대
잇따른
바랬
순진
식별자
##느냐며
제논
##왓
덴지
건설업
##금지법
조안
요시카
백이
사들여
열과
##메가
스프린트
1662
253
썬더
##남인
##이중
후쿠치야마
오프사이드
컬트
위서
##鳴
알아낼
브레스트
안시성
##渡
##화성
헤매
정연
번식기
연골
못지
1550
약체
덕양구
깨끗이
##캣
페라리
##聯
##琴
##硏究
##백인
배급사
게을리
일본화물철도
입궐
트릭
1754
1585
이감
부끄럽
Media
1699
##루브
##広
역부족
##顔
##기일
밀양시
장과
알마
부산항
403
스테인리스
천태
띄워
##진다고
228
척준경
벼슬길
187
##불가
##스퀘어
불신임
해로운
장구
##토이
##구성원
부르군트
보조정리
자치현
노다
암꽃
##험
집정
##비디아
프라이부르크
칭화
East
##其
각의
티셔츠
교상
##루시아
##일본어
제헌
되살리
유색
##민속문화재
법리
건널
경장
산적
홀로그램
##위가
##무네
##略
##상회
동고트
집중력
트레블
MLS
##정치가
손질
##This
##吏部
마모루
안겼
##배구
##1911
챈들러
1713
##부령
드로
홍건
##국도
단편집
금서
아성
##주권
시에라리온
상습
쿠르
##페르시아
St
활로
점령군
무난
응징
##등부
스몰렌스크
##피오
괴벨스
##혐오
캐럴
##하치
마쓰다
##옵
아스투리아스
갤러거
원예
1626
소경
1642
아이유
체급
##123
리에
정인홍
##동일
엄하
태반
157
플레잉
국문학
가짐
살필
고메스
##量
볼레
내려서
##124
수용액
플루타르코스
##Edward
Information
통일성
유요
수문장
오트
##피아노
Program
라그나
군사분계선
실생활
빠
멀리뛰기
인제
남강
늘어난다
##좌도
세관
가즈히로
태백산
동태
완치
인트
요란
소성
##리츠
##신증동국여지승람
##서명
유려
리우
배드
##복수
자코모
보르자
##방언
진골
##格
##스틸
왈라키아
카르텔
유황
##형법
쉬웠
알렉시
##구축
정의역
구파
렘
##아즈마
h
위르겐
IRA
##총궐기
ETF
##나토
그린차
영흥
김책
1730
나팔
노련
타타르족
##Karl
사와
Die
##터치
##米
로열스
음질
##창한
##장르
##―)
아리마
미코
리쿠
모을
급부상
수익금
원기둥
저마다
부어
Dr
##臺座
##메트로
##후쿠오카
케이블카
내과
록펠러
핵과
육로
##蒙
쌍계사
옐친
백호
자필
발성
##관인
관측소
재보궐선거
원은
161
##129
##액션
등식
명승
틀렸
##카트
재조합
두드리
신데렐라
##리비
##III
한시
아자이
##1895
전기철도
정수환
##카나
작업장
료마
##캘리포니아
##국동
##이스라엘
전투원
##杉
##都督
벨파스트
후연
스토리보드
지탄
지질학자
##러서야
1563
##구멍
##ㄱ
좡족
읽히
시럽
봉착
##폭격
##濟州
유럽연합
카나
이준
다르크
세손
복자
##차구
후쿠야마
막달레나
윤허
고창군
인화
##Rock
France
##金海
##룻
알버트
나치즘
전산망
##테일
에센
##長安
##배경
가위
##메탈
##회화
가라
하세가와
##부총리
토막
벌였으며
승승장구
Hot
인스턴트
##도라
본떠
##삶
디렉
태상
납입
승차권
난동
##관방
##인수
홍성군
##조선일보
1652
##黎
##彭
지상군
유가증권
훔볼트
요일
마그
유즈
1546
장손
##턱
편대
MHz
수전
##禪師
반한
##얼굴
놀랄
##사이버
가와고에
경원선
증서
##문화원
식초
오지
금의
사미
##격차
드래곤스
##補
롬바르드
스트로
876
파이리
변속
상속자
정구
심상정
폴라리스
Album
게릭
이인제
쩐
볼란
방진
주체사상
손흥민
성제
장성택
ZARD
Christmas
득세
루브르
##農
##維
##자장
##灣
레이먼드
1562
하인츠
럭키
스크롤
##1908
인구수
광활
엥겔스
노여움
퀘이사
비우
##원부
##空間
사용량
머지않
##오에
남안
마음껏
1415
520
빼놓
##베드
1002
중련
샌디에이고
1625
프리덤
##実
갯벌
고단샤
남양주
활약상
강동구
바꿔서
##둔다
##赫
##비서실
인심
묶인
문리
배설
침략자
##마키
타이머
##나크
##유닛
ATC
흄
188
나빴
하북
가상현실
승강기
아바타
다다요시
아마고
막말
가인
관악기
##파이어
밀사
질러
##豆
##타지
##테라
요구르트
관의
##러시
글귀
어우러진
##꾸
영암군
신중도
신드롬
여행기
호우
우디
대항전
가네다
커넥터
##수역
심령
애슐리
푸이
##웨이트
야마우치
평창군
권법
크세르크세스
북중미
##패드
국소환
송치
##기상
##웨스턴
##270
입장료
드와이트
무라타
스톤스
상장군
##340
우타
1658
넘나들
망명자
신혼
##大邱
Commission
코브라
너바나
심부름
총대장
Systems
1498
##與
##퀸
TTC
왔었
##용지
##해발
가봉
구보
엿보
해군기지
##치직
##550
사계절
시스템즈
불가르
MMORPG
1676
##한국어
매춘부
##상도의
##팽
1690
치적
앉혔
목수
##아내
논설위원
치렀으며
##선행
중간자
1516
기장군
##마인
##AU
만만
군부대
범종
238
##선박
##MP
주례
딜러
금기시
팩터
##제곱
나카가와
가오루
침탈
##시점
1524
##어군
산세
다행
월등히
색칠
##감옥
트롤
##分別
몸매
번데기
이재민
보츠
##보훈
백범
약국
체의
완장
발원문
네발동물
조승
매립지
##통칭
##ER
미나
짜리
우고
##성현
졸업식
##葛
금세
터득
려
건너와
리카
##갈등
1766
낙방
##旗
##출장
꾸리
연합뉴스
##발트
##壇
끌기
진화론
시위자
창설자
돌아서
무전기
연다
다친
수액
연합함대
외성
복복선
##퀼
즐긴다
##신용
간사장
##버릴
단연
186
음극
의자왕
태인
다산
경전차
의구심
천공
##휴의
오스카르
##문장
요충
##高等
덤
한양대
펼칠
##묘사
##용인
신춘문예
화사
시사회
미팅
감화
##GM
인목대비
##급여
##동양
##반과
1547
사직서
요시노리
1533
지쳐
##영주
동군연합
저우언라이
자유민주주의
##137
팔츠
##리히
의료진
의결권
존립
##县
자랄
청원군
옹진군
##員
##오페라
탱화
1537
##経
통고
라싸
##불화
##曆
사계
삼프도리아
광구
##지표
##해왔으며
유위
렉스
고유어
동리
콜레
램지
초거성
##피크
베어
##신민
노바스코샤
##라테
##시모
공제
우성
완산
##솔로
히로유키
심장병
##開國
파스퇴르
Force
##平壤
Robert
Thomas
컬리지
##賈
식인
밀렸
모리뉴
마왕
난관
##照
신사임당
환멸
미즈키
천태종
158
건주
1528
발아
덤불
노환
코드네임
파비오
인쇄물
##이크
유키나가
기행
선다
수산업
NH
##́
##터빈
엠마
##태도
유치선
남파
비야레알
할애
기화
171
장연
심양
온실가스
김집
인선
거쳤으며
##돈의
##누나
관보
도일
교만
##놈
가해진
장제
##메스
KN
업소
아타
확증
##133
히든
##구청
분당선
##사각
##거울
피터슨
특공대
모리셔스
구국
##승과
끝자락
##행군
##앴
남색
청국
빈혈
순행
##로이드
띄우
디버깅
은평구
##re
아일랜드인
1494
재규어
##존스
##메트
미란다
차가타이
##교가
##관음보살
통근열차
PDF
브륀
디아라
보렐
알렉시오스
##伏
가졌으나
로스터
질렀
전자기학
##136
##이해
530
##슬라우
욘
앞발
리에주
##자책
이재명
생산품
진력
흘렀
컴팩트
##극장판
삼한
스테이크
##여졌
라고도
샤흐
##스웨덴
타마
동프로이센
##무효
##짝
##정보국
##성실
##급인
샐리
말초
후백
마지
키운
##条
##말기
##問
##전남
함양군
##해안
##濬
##General
##남녀
양명학
형부
##소프
142
##재생
식단
가까우며
##計
WCW
청해
봉사자
석패
억양
코모
##이게
솥
복병
##산전
대명
일소
##이라크
군론
##갓
옮겨진
치닫
스파크
로버
왈츠
감무
##스트리트
##저런
##塚
대화재
면했
모략
민란
End
FreeBSD
안젤로
일러스트레이터
##지리학
##신탁
신파
1389
CO
쿄코
##슬러
척추뼈
회칙
##링거
완주군
아르카
Nations
시리아군
MySQL
##상응
대남
235
수거
Down
팬택
##북면
경수로
직장인
##콘티넨털
종신형
모치
불러서
##올린
##강령
##라시
혼란기
도파민
아파르트헤이트
엘베
던진다
힌트
단상
열혈
##간접
##변국
공급원
유의미
번번히
악천후
축사
미쓰이
고이치
Again
은어
음모론
정교수
뻔했
##번가
당간
##증서
1561
무시무시
##元帥
경순
관계없
##어미
묵시
##폐지
##상대론
1714
당쟁
본가
##疑
국을
폴리네시아
드론
##룹
",
##드래곤
바라볼
롤러
##경선
조형물
개창
이바라키현
NX
들여온
##정자
1596
스폰지
##','
가나안
계양
1558
죄악
##평방
비춰
ESPN
환초
수만
탈영
로자
경리
사재
모닝
##청원
세이코
명부전
사샤
지배인
아리스
떠돌이
##경비대
게자리
크랭크
##Les
남해군
동주
햄버거
글리코젠
브래드퍼드
휘그당
렉서스
배기량
큐어
히치콕
1748
벌기
호쿠
대전차포
##동아
신안군
##牧使
위인
호두
펜더
경복
##교토
##인데다
박물학
로테르담
두드러졌
오디
내렸으며
문루
##나선
##坪
##오로
그분
스투
건축학
원추
히라
포경
원자량
위건
애니메이터
코스프레
##나노
##이즈
린든
작정
##280
목적물
들인
##기념물
벌금형
그램
해면
##Great
##라든지
1670
##睦
시게오
황보
255
##외국
그랬던
중급
영속
##사직
참신
이경
윤선거
판중추부사
전치
##아무
##蕭
도립
따라갔
방목
나하
도요하시
##敎育
##1914
##신장
##아함경
방화벽
석비
사이온지
살균
##압력
##로바
체코어
신랑
수잔
전차로
코칭
##로즈
광고주
1542
수병
블라디보스토크
직분
존칭
벗겨
울리히
레고
분주
이원익
구약성경
##相應
좌승지
##유치
혹시
가드너
##키나
##절대
의역
여대생
약해진
##넥
메디아
Over
탐페레
오더
말뭉치
##해방전선
##대지진
Code
Beatles
디오클레티아누스
노태
한적
앨프리드
표고
에비스
넘쳐
##코카
##내일
사진가
왕정복고
예술품
택배
##수명
가메야마
속초
숨겼
##배열
미술품
리코
##On
##음성
선주
More
코르크
##적십자사
레미
흘러들
주종
위크
트렉
총연장
야인
##國家
에워싸
격멸
도시바
가례
이브라히모비치
말다툼
##務
##커플
카렌
1711
##우림
조위
명대
하지메
특례
우치
부기
##신체
935
홍국영
부호화
당뇨
몸싸움
1517
북제
화두
모식
##편집
궤적
쇠락
프로토
좌안
##港
##레이다
사라질
##했으니
##노와
재실
창경궁
방벽
스물
##아식
앞세운
힐튼
##民族
##우산
유조
##지주
비상사태
감면
휜
가비
로번
악취
심경
##비어
몽골어
박영
양광
김용
##츠카
의용
코볼
##所依
노래방
피루브산
지프
긴급조치
아카디아
아흐마드
##會社
베르누이
셀틱스
청도군
##拳
노비타
세드나
과거사
강팀
고해상도
대기근
두텁
통역관
##대학생
약혼자
##호랑이
당위
##중반
##광학
##논어
1656
홀랜드
목도
대충
기쿠치
http
##래쉬
지휘부
##사키
##NET
공급자
섬인
##타케
##지냈
잠식
북면
게임스
커진
IL
149
##계좌
창간호
죽산
감영
파라미터
##경계
완도
프로메테우스
완도군
##원종
1735
회선
게슈타포
아코
##중기
지방도
##점령
##히사
톨스토이
##누의
베르디
노스캐롤라이나주
영락제
##진수
##상부
김태원
가톨릭교도
1531
PV
스텐
폐결핵
##상작
상륜
병자
수십억
##阿彌陀
우금
ITV
정인지
미유키
금천
빈부
진이
상대역
피아트
다뤄
2030
수트
괴산군
##게리온
##자치단
History
함안군
헬레나
love
세네
파머
##변인
웬
리버티
RT
세비
##도트
폴링
브란
차우셰스쿠
로페즈
준급
서광범
일면통과
##히가시
명신
조가
성장기
##대도
퀴리
##檢校
##北京
용융
##賓
피날레
로체스터
PL
거만
가를
할레
쉬워
붕
치지
##검색
하청
볼링
##인정
도봉구
유제품
모유
##지휘관
인천항
암술
기다려야
방주
Will
튜닝
오른편
##요가
히로시마현
내비게이션
Committee
통수
홍명희
택한
탈라
##진사
##兵部
거제시
리무진
지치부
아키히토
빈소
볼츠만
##Get
스톡
배설물
##우크라
217
해냈
케르
철퇴
저감
세르히오
입맛
군산시
세포이
##베르그
장화
워크숍
수비진
우방
카보베르데
스푸트니크
무더기
##입장
##파이터
신동
##峯
##거점
산개
뉴딜
완구
##그레
냉대
김정호
각서
손발
요네자와
밀리언
아르테미스
마태오
동관
홍명보
불거졌
위연
루지
확실시
우라노스
바빌
소묘
토번
ME
##명감
EXO
플뢰레
업자
1724
사야카
##Dr
모리타니
구스
아오키
스테인
막이
George
투표자
세라믹
산업용
도넛
특산품
버추얼
덕성
##럽
##고가
##정세
##쇼크
마칠
웅덩이
프레젠테이션
가르칠
경공업
##降
낙농
돛
1746
213
나눴
시운전
##850
QS
##MC
불출마
추숭
빌바오
우주비행사
전면전
##전류
##1905
아스팔트
반비례
##장수
황해북도
##모니
##영업
##위로
소액
함유량
창궐
판결문
항공모
지지부진
학통
##다비
##段
적개심
피곤
##DNA
클립
##지하
디저트
##서북
생동감
부르짖
낮춰
##건대
대시
##디언
진형
늘어져
맹렬히
결백
##소집
##손자
응교
들어올리
장료
세자시강원
비운
로열티
트레이시
1541
##당은
새크라멘토
타쿠미
휴전선
##트리스
기네스북
군정청
올슨
##롤의
올림포스
WBC
예보
최악
청약
나츠미
VR
보천보
매수인
네온
이슈트반
베니테스
해머스미스
공권력
##1500
니제르
##喆
사투
메이드
##군단장
1664
진평왕
Joseph
##신보
병들
##장령
바둑판
속어
##후반
##육상
대피선
##점프
돌과
##자음
건넜
하타모토
##혈증
1771
##다마
비신
##그런
축산
쿤밍
##후지
ST
치장
의경
기시
Green
창조적
1657
희생양
DMB
염전
반기문
##率
임치
##산이
품격
##贈
##겹
장방형
도학
다카다
IATA
구르
만주어
##으라
허수아비
아일랜드어
수족관
##일지라도
##鐘
나자
##코딩
잡식성
##중랑장
쫓아냈
##트레인
##추세
##리프트
행상
선호도
유공
국비
##전시관
정치권력
캐슬
With
##평화통일
공격기
언쟁
견학
사나
1752
다닌
##경사각
환의
핸드폰
중층
##소위
건무
익혀
##박물
팽대
##封
보내왔
돌핀스
Charles
##아우
매스컴
개화기
##레이크
연역
##소자
슈테판
보로
##118
둔화
모양새
##나니
장내
##원대
은행가
화살표
응수
카마
알케인
크리스티아누
##시카
디바
##+)
역참
고쇼
목종
화순군
##山君
##釜山
접착
1654
1668
##PM
##소비에트
##치만
필터링
물줄기
생활상
중편
##열린
양키
##일곱
카페인
훈령
##公孫
기발
##우루
푸아송
##佛敎
돌릴
주춤
##스트리
타이포그래피
##1951
가해졌
스테파니
녹차
##몽골
어금니
지배권
##읽
명랑
인공어
싸워야
마사요시
##精
1665
##스텝
##동인
경련
##유일
호헌
넘겨졌
나빠졌
퇴로
당색
##광산
1718
야만
##다와
커질
연구회
##共
곽사
밀레
증비
Health
one
##여섯
오대호
룰라
안드레스
선점
##로워
웁살라
직영
##곶
후원금
형용
오이디푸스
1553
##연전
275
경희
서울특별시장
엽서
1470
중전차
##부시
상거래
##배수량
사르트르
1468
1466
편액
유유
넋
제레미
##존자
히데아키
이스즈
쇼텐
자부
##명회
빙하기
페스트
밀크
영변
전갈
감청
##노사
소중히
##작성
노조미
루덴도르프
##폭격기
스톨
캐머런
롤스터
아레스
이륜자동차
박헌
1204
아미르
에그맨
비단털쥐
##했었으나
불행히
##호조
##演
##적용
포크볼
본의
상주시
1667
창녕군
##하우젠
유격대
개이
존엄성
이뤄지는
극의
칠드런
분교
##한국인
이치조
데려와
키울
NK
하반신
부견
아길레라
##플라
초엽
##버스터
바하마
아카이
혼간지
##환상
##학번
##192
##리버
깨뜨리
암자
애너하임
##讓
후쿠이
엽
부녀
1544
##부원
치명상
NFL
펀
《》(
살아갈
668
오웬
##성산
1566
##變
토륨
##내륙
캐넌
자오선
건드리
1741
의사당
##ISO
교미
피부색
파수
사시
사울
부력
영부인
부교
##착륙
비스듬히
##유대
##리더
##요한
무적
##사절
보스니아인
##천안
맞춘다
어구
이나바
예쁜
##증이
##蜀
##전역
지정학
플랜테이션
힘차
서정시
##비교
##세스
국민대
수문
세포벽
퀘이커
인어
분청사기
재목
이승엽
넥타이
스파이스
독트린
Bank
##錢
굴착
진여
코뿔소
##비행단
구독자
테스
##중립
##소대
광둥어
경비원
강북
노리쇠
##조물
밀약
디지
##바둑
KC
상패
##1917
##조국
말린스
##미나미
로렌츠
##유치원
마일스
##칙
비서실
고신
지리지
의성군
신격화
##광배
##依
##Pop
김수환
없앨
##京都
뿔뿔이
##LG
여군
피침형
별동대
윤종신
살의
선착장
미아
##용대
##上海
Key
##비자
계측
##이진
법황
집무실
맥북
찬송가
##빈도
단신
삭발
지날수록
당숙
훈련원
혼례
##고와
나뉠
유스케
강림
멈출
양적
per
was
근면
셰프
초현실주의
##화합
1571
단교
리히터
테트라
APEC
##117
##중앙지
둘러보
기도문
조카딸
출원
관영
##蓋
청계
##이때
유곽
##宮主
육계
##부채
##全羅
상소문
증폭기
은빛
니시노
기지국
##스피드
노팅엄
야훼
Who
##라데
나카지마
##세도
나세르
식민지화
고위급
리턴
사해
구조대
수각
리모컨
이목구비
##회도
하버
제물포
##대령
##ㄹ
카시야스
##재고
니나
효행
보이오티아
칙
지기스문트
레자
뉴사우스웨일스
주코프
장갑순양함
텔로미어
간선도로
테네시주
##중력
##綾
우군
1633
1682
##보였
나이츠
위드
##내리
디트리히
스탈린주의
어택
아방가르드
1749
산책로
##지훈련
##政事
##퓨
휴학
이걸
브이
##구호
##戶
##퀘
##메드
##신자
참나무
난형
끈질기
##법전
결가부좌
탈세
스위프트
시크
단명
제닝스
일문
가창
##취급
##深
1394
장지
양전자
Digital
괴팅겐
부룬디
현대사
올려져
중요시
훈련기
자만
친정아버지
해양성
매끄럽
조산
진종
##기술자
북두
마사노리
선인장
양주시
동반성
970
##주인공
에스파뇰
퍼싱
패튼
기공식
##程
##우와
##리시
1523
석실
광범
관선
##불능
목차
포신
사복
상속권
이시이
자랐으며
##공예
사생
영생
코카서스
금산군
##알라
##이아
##​​
예지
완파
밀어
케이스케
##邪
사선
탈린
농림부
시라크
##조직법
병마
코린
바너드
침례
##좀
##호로
서예가
부호군
명문가
로즈월
##오스트레일리아
##序
##둥
##게르
본상
청소년기
##칼리
세이지
##유한
216
병주
닳
##문대
프롬
뢰
크루스
##紋
##챔피언
##화석
볼리바르
민담
포부
##스코프
KTF
아세안
전조등
스바루
##닥
프라이버시
1510
버틸
##기리
##카니
장중
##간이
카자흐
자른
레이지
밀림
##비크
##마가
안락
해학
슈타인
윤선
화족
메티스
허공
##효로
선분
얼룩
##항모
AAA
w
본부인
신고식
풍년
##東晉
##마니
버거
##컬러
##이프
분만
##음료
국무회의
페테르
차선
##관리국
단청
산화제
227
메모리얼
Band
##1913
##셈
##공은
문도
칠성
##．
장보고
집적회로
218
##眼
왕윤
구세주
계룡산
마르그리트
##로웠
수도원장
네우스
소뇌
##無漏
##파이널
##무진
고택
##Super
요안
침체기
슈뢰더
Orchestra
산리쿠
네이션스
헤이우드
점원
가압
노멀
차자
기술인
1681
풋
##마스크
화공
진평
남원시
이정
남양군
##지마
번스타인
메시아
버스터
넘어오
##청주
쏟아졌
아칸소
숙제
##비록
##가닥
영주시
남만
순도
의령군
##대좌
##의자
##페어
수산물
##이야
혈류
토마
짱구
힐스
외주
##と
채울
툴롱
헤어진
##綠
##육성
뒀
칭한
하드리아누스
##분지
탑승자
##마이어
유인원
지냈으나
##바이올린
교수진
##경쟁력
오심
간수
더러운
비숍
아토
오시
##조달
페이팔
따라다니
발견자
갈대
##비즈니스
통조림
평성
##歸
불씨
노즐
후이족
##상하
##교서
What
캐리어
##落
축이
##增
화전
OZ
##건담
학병
물러날
숙빈
윤임
##모이
프리뷰
천인
첫해
민속문화재
Women
무정부주의
##휴게소
이주영
모토나리
생업
##부제
프랫
철분
스루
헌금
##탈리아
##수소
##이르
##천체
중순양함
변희재
타이가
견혹
##치웠
카오루
쿠르스크
##太宗
##海州
헤어졌
박스오피스
편파
##干
김천시
에토
朴
Studio
1669
Earth
유태
식물원
##First
##King
이동욱
돋
공감대
##학점
던질
퇴폐
굵기
영양소
합리주의
혼전
항이
비이
브루투스
가업
다이라
##사사
덧붙이
본류
##무를
PK
잠잠
묵시록
##州牧
난조
폭언
##장자
##나왔
역인
아닙니다
계류
문학부
석고
##문양
홍건적
츠빙글리
##습
인류학자
닫히
##논쟁
풀리지
음독
제조법
##템
받아들여져
당직
즉사
##報
식구
##리나
##障
창왕
로프
##1906
Op
집행부
##止
##개동
팔찌
##렸
트랩
##나비
광서
##辰
도면
오퍼
카르탕
##베르토
##제독
천성
전세가
##불량
마담
실마리
쿠로
단치히
티거
직제학
##국민학교
고문관
노고
전패
##천왕
목관
임진강
아키야마
볼모
정인
토후국
##인대
1742
##선출
내직
##최순
방관
히데타
리퍼
넌
시황제
o
비토리아
##김일성
요크타운
패터슨
오페
군장
아이리스
버디
전통문화
개척민
크라수스
플린트
동해선
칼케돈
어뢰정
샤론
아메데오
교령
이바르
##정화
기슈
멈췄
데려갔
후삼국
멋
ES
퍼뜨리
창업주
##중략
아깝
##經濟
卷
행진곡
외딴
##제트
##구현
원초
가고시마
##리코
##도감
자동차도
풍만
1641
코사크
실권자
소책자
경비대
어음
##楽
##너희
네모
##BBC
녹지
##타다
줄리
여몽
YTN
WHIP
봄의
기대감
##주행
##전해
##영화상
##민간
##타격
산호초
##이성
미영
##원전
##ㄴ
반수
잠기
갖출
백마
오치아이
경색
사망률
고등고시
한역
##화엄경
##〔
##전파
쿠마
##뱀
##인척
##재판관
팔과
발바닥
능한
스미
충무
주사위
##문예
매몰
닌
파의
라운지
##상고
피르
412
에어리어
##웬
튀김
브로커
##당파
진부
후지모토
불렀으나
격투기
##경국대전
니콜라우스
##아미타여래
##화랑
##자녀
소비량
외경
서늘
캔버스
태초
버펄로
컬
카즈야
##울프
숯
흥천사
##디즈
스폴레토
전생
##650
톨레도
##화승
##차림
양원제
시가전
메이스
양정
산줄기
##惱
##須
##유가사지론
찰스턴
한명숙
##교향악단
김대건
##슈타
##개리
베이비복스
오르가슴
##주요
한국전력
콜론
알프
민주국민당
예테보리
코르시카
제니트
쑨
이건희
탄원서
Film
##최우수
당했으며
##좌찬성
고초
외로움
##伐
상고심
에라스무스
송이
코다
##위너스
값비싼
끓여
Computer
여담
월스트리트
유니세프
알력
##北魏
살아간다
직종
신분증
Al
차마
야마노테
1581
다키
나물
복귀전
요시오
SLR
##젼
##나쁜
마사오
베르나르도
세입
선지
고레
##봉과
##약품
유사점
가칭
분관
베이루트
티토
1673
1715
폐출
1549
유두
##博士
공비
상피
특별시
카리
세뇌
예도
운전실
##참가
##법령
385
모드리치
##High
엘레나
##耳
전문점
꿀벌
##協會
##봉쇄
수몰
고출력
엔카
옴니버스
끈질긴
##건국
인종주의
다방
##하르트
class
김굉필
태실
다이어트
호구
플라잉
학도
태백산맥
인신매매
속구
베네딕트
타자기
##Windows
431
##시리
HR
어용
##리니
규산염
q
로동
슬라이딩
케리건
##구리
국민회
스포일러
토종
혈당
칼로리
드레드
王
##번뇌
오버플로
콘월
국민주의
독립신문
구드
##가디언
##민스
도네강
초성
##어드벤처
혈청
로니
아르슬란
여순항
함태영
양고기
폄하
##니트
머지
아시아인
##高宗
Peace
미도리
그토록
249
1577
Open
엘라
이사의
싸인
##브라질
암울
관방
Xbox
소시
준거
풍족
공변
승하차
조처
##인격
어순
창자
대동맥
교향악
완행
위트
펄프
휴고
군마현
1751
음주운전
시제품
환도
폐막식
##雅
1569
급료
임진
제제
자아내
맹인
##벌레
##推
이정표
푸저우
페니실린
나날이
767
##제사
쓰쿠바
일렬
산남
바칠
매겼
편중
VHS
##跋
필하모니
코라
##간격
##프로세서
프로파일
##코너
영점
뱉
1586
1702
남향
##타이완
꼬임
성탄절
남다른
##문물
음료수
하대
웨이트
운현궁
##여왕
보여진다
갈비뼈
##지분
IPTV
북태평양
##생인
이타
##감리
##섹스
정주영
##대첩
간지
##어항
##要
마코
NTT
##地法
##수다
월미도
애비
수호성인
디비
배틀러
개헌안
박트리아
##bit
골란
에일리언
전입
비주류
##우라늄
아우슈비츠
덴노지
스이타
주해
부윤
김현
##진구
젬
##상장
은은
금상
##교인
상공업
안트베르펜
##스튜디오
간절히
##나코
시디
##몬트
1390
##제거
930
##앱
신문왕
충적
##涅槃
우량
살라흐
무역항
Engineering
##차르
고쿠
Public
##환승
당나귀
양배추
##만석
작의
고즈케
길잡이
측선
외자
가급적
##隋
##리틀
##126
1638
##황자
##노가
##澄
궐기
##耶
##행과
활쏘기
##사르
놓여져
##총감
##升
날아오
℃
아담스
관상
##부속
뒤이
정병
라라
훈도
사우샘프턴
CW
낙수
AF
파이어니어
##붐
잠적
한국프로축구연맹
부추기
##클레
DeNA
##가슴
남만주
칸토어
RGB
##해병
자전축
열성
비례대표제
사업체
Mac
마사지
의안
##삼매
##공무
비위
액화
클리퍼드
솔라리스
정릉
##너무
김준
옷차림
가린다
##모던
티베트족
##초대
##왼쪽
캔버라
티아라
##노회
꼴찌
샤이니
커밍아웃
##쥐과
##乾
네스
##엥
##이사의
북로
루빈
캐스
구게
코오롱
보안관
칠곡군
리디아
##총동맹
매도인
##바니
포스트모더니즘
##벨벳
오푸스
라그나르
러쉬
##영토
북극성
##파베
막심
1419
##南原
##諡號
고려조
세거
##202
##마녀
쳐들어와
샌드
마룬
##Fi
페레
##未
##경종
##密陽
클리프
##憲府
살아왔
피복
##역량
스키타이
겸용
인파
애드
덕택
심성
##악곡
##트레이
문학가
정명
브라운관
한의사
핵산
증시
후천
셰인
경기병
아랫면
김포시
##중학
상점가
서민원
##공고
식견
##融
낙찰
고명
체재
술어
1435
##마케팅
가극
ATM
##측면
마자르
정규직
사진기
사파리
정위
당악
지자
상왕
##천군
제각각
당론
##議政
도총관
이족
##南京
정읍시
##농도
화강석
의문점
1710
빠져나갔
1709
합주
미생
장모
표피
사유지
답장
소심
증광
퍼붓
##참봉
관계식
##대사전
훈구
왈
강의실
##려지
훔친
치히로
텔아비브
로보
최전선
사이키델릭
##是
AH
##업소
칼리스토
##모아
##최종
묵주
크라이스트처치
1672
따져
오로
오데르
유흥
앙심
프리메이슨
부총장
정몽준
공허
##캐스터
시한
##태세
스플리트
피해액
전태일
아웃사이더
무인역
키바
피카소
슈타
운율
흑표
우디네세
##강좌
서측
슈퍼주니어
벅스
##하리
유아기
##까진
동명이인
##대법원
Two
에이리크
##퍼드
멤
##자임
##牟
##132
##愚
바순
브루
레닌주의
모뎀
##How
##DJ
하한
히카루
쏴
뿌리치
##복판
목공
척하
##잃어버린
##히스
구루메
##POP
##가가
##다기
합참
##二
##렸으나
1679
틀리
가로채
1647
다우
##증명서
##{
1420
##渾
스벤
프리스타일
##San
유작
은진
다스릴
1548
모라바
레진
##조사의
창춘
레흐
##스코틀랜드
통풍
265
슈만
자강
회의실
옮겨서
벨리즈
색감
우부승지
합쳐졌
니노
##−
데비안
##석학
하카
찼
##미우
외손
구루
##ll
캐롤라이나
무오사화
터미네이터
영동고속도로
과천시
도로시
##나고야
##법규
지대석
발데마르
394
묘청
백기
402
불국사
버드나무
카자마
브릿지
##駿
##코자
##酒
미덕
무라
680
드골
신청서
미혹
체크카드
우이
##퍼스
##더리
결산
##비니
시즈카
가등기
라듐
모용수
##실수
##버니
##도라에몽
확률론
분별기
섀도
##.."
up
고음
이용은
투데이
##증거
내려온다
포천시
히데오
들렸
애들레이드
1509
##스크린
웃돌
한국학
San
열대
냉장고
173
##주변
##拓
단막극
편승
공포증
##나간
##신과
헤모글로빈
생식기
상충
영구히
##다는데
파타
비범
참소
스파이더맨
컨설턴트
지지가
정육면체
다수당
이상일
한라
최상급
쟁탈
노토
##시스템즈
바꿈
뒤따랐
백병전
오스본
##스텐
스티어링
JK
기상학
홍역
수혜
숨긴
거창군
현상학
솔트레이크
##케르
##의가
SO
##交
오바
찾아낸
충혜왕
판매자
반찬
워크스테이션
순직
멕
##유년
메콩
384
사르코지
##Johann
오마이
모라비아
중랑장
수일
##토미
대모
가맹점
원자재
매카시
정일권
이릉
이와테현
벌어들였
##가환
킬링
##레티
유진산
통나무
##채용
##명부
게르하르트
##공이
오리건주
##용사
캐롤라인
로주
##蘊
##투르
옥새
구치소
##어떻
##기술원
최댓값
##政治
국서
무형
오이라트
풍물
로마노
부전
미분기
초동
840
##체인지
ft
하타케야마
##ː
##숨
스완
Software
##탄압
##총생산
반쪽
UCLA
켄지
상임위
김재규
##자드
서포
동재
연료전지
##태그
페가수스
##산부
사우론
허시
##사회당
리시버
##慢
Papa
##가상
##개성
비너스
##바보
##동경
999
##長興
##안동
##莫
암기
인원수
들끓
우시
##라지
1464
혁파
##선물
러너
Sea
##메이커
원당
알프레트
와의
반의
미스테리
진중
중증
백악
주어져
1564
##스도
##人民
##施
외교통상부
최고재판소
칵테일
##줄기
##日記
번호판
노무
양녕대군
##검열
동선
1356
서용
노모
결승선
허준
스피처
##1909
석성
발사기
효장
불완전
레이던
체감
바이크
개혁파
울지
계유정난
ICAO
셰이크
테마파크
##KB
유피테르
우현
목과
엄숙
##거스
CT
가르쳤으나
에딩턴
화답
광명시
어두워
뒤따라
인내
곱한
우드로
바라본
##Single
신센구미
오갔
트랙터
##由
대동법
##교정
Board
단발령
명암
990
##슌
인주
사약
##돌방
##帖
푸딩
여호와
##화음
##교학
실비아
##지우
본교
리비우
바츨라프
시아버지
여비
##j
천이
##엘라
허파
아다치
누에바
선거일
하네다
##튀르
##ə
##캔
셔
슐츠
교조
명왕성
걸즈
폐질환
오르트
라모스
카펜터
콘도티에로
승단
프럭토스
크나큰
홋스퍼
세계사
##통보
Martin
오쓰
##엄과
봉해져
##鑑
##주직
신망
일탈
##저축
##소방
##알파
부추겼
##사립
##국경
워치
장수로
샌안토니오
공구
진천군
우거진
##하천
대자보
소가노
MF
농어촌
Fire
호기
놓친
군사용
그러니까
##지출
##洋
숭고
채광
펼쳤으나
더위
가리발디
뮤즈
##삭
레일리
이우
미들즈브러
골반
백상
친아버지
명수
내막
스켈레톤
승급
국민정신
무인기
##만호
농서
허수
계가
영의
상록수
맥베스
##황과
면한
보급선
##우에
중전
세키
가쓰야
##지령
##덤
오경
하츠
##국원
##IV
2200
##1904
##然
##미스트
한의
경극
덕행
베링
##만들
에딘
괴산
뉴멕시코주
벤츠
하늘색
##근로
##Baby
깊숙
마르텔
야곱
경인선
##革命
##390
직합
고군분투
da
핫토리
##站
쇼인
Summer
시책
산부인과
일광
프린트
억누르
녹봉
트인
이사오
로베레
##호분
빠짐없이
##밤중
말레이인
급상승
##戱
차일드
##표가
접두어
간식
수체
##尋
##소프트웨어
불선
불면증
한서
해미
치뤄진
##스투
지포스
강제집행
##실시
망누스
##권역
##스파
##과일
히로사키
허니
퇴색
사이보그
호엔촐레른
##시어
도르곤
노비츠키
솔라나스
##관리법
임야
##검증
##패션
막차
헤엄치
클라우디오
##餘
##다케
가즈
##Christian
##〜
노쇠
돌린
##예전
신고전주의
##모으
1687
하루노부
우애
슌
염산
베네딕도
별호
상위권
##칼라
뚱뚱
가고시마현
##코바
붙잡히
청양
피칭
승수
HBO
코스모
이학
병인
다케오
만력
##연습
걸출
돈의
1727
적국
웃도
푸시
일러
예주
##는다며
마커
##저장
##갱
누군가의
보통학교
현전
정동영
살육
악사
외방
감쇠
저변
싸웠으며
멈춰
신야
##응력
마사토
##한데다
총의
침강
찬란
손병희
224
오손
오사
407
슬리
##쿠엔
이대로
지으
바구니
파인애플
뽐내
용산역
후커
애썼
윤상
옹기
머릿돌
##스턴트
푹
소행성대
##도다
대저
크리스털
클러치
디아
##사망
남겨둔
470
특징지
첨예
다로
체이스
타카하시
##의혹
브리티시컬럼비아
##좌표
추진제
파송
##OH
##히코
모모
왕태자
##키아
##카가미
##강연
브록
분광학
궁내
시온
에볼루션
박규수
클로제
윌리스
디펜
##후인
해평
##린이
##스팟
##본선
뛰어났으며
1743
##백작
##해낼
프린
물망
##명탐정
998
수춘
가정과
오공
##지터
타케시
도킨스
코마
배편
틈틈이
절대주의
##말려
239
##수비
##자카
##천장
국세청
자연재해
꿰
##체전
공사비
##비에
1440
아틀레틱
##플랫
구교
레지스트리
KDE
##기분
체외
몰라도
##드레
##대사간
##연애
Town
번외
킹스턴
구기
김두한
##제동
415
##어사
##예술가
식객
이국
##지옥
표현식
라켓
탐독
광복절
내려져
지석
김성일
##사료
알랭
펴내
허씨
##티오
석회석
##Pierre
대당
인디애나주
사초
스타킹
SN
한계점
카타리나
리보니아
소고기
중정
##색인
신봉자
납세
##부동산
적장자
툰드라
푸아티에
독촉
향료
군포
##판인
호민관
카푸
##마기
벨러
잇따랐
##정형
태평양전쟁
##주주
시르
피선거권
코흐
전자파
협찬
신민회
##141
마중
라미
가넷
민진
Never
마이클스
베이더
동베를린
장흥군
내려간다
헤시오도스
에리스
옐
저당권
지네딘
매리너
타오위안
국방헌금
자급자족
함평
병음
나오코
##쿠시
주원장
월나라
241
기노
1685
South
도정
##Mark
##그리스도
육수
##직전
실러
해박
##LOVE
대마
오도
##거니와
##順天
##세가
##착
라인란트
챔프
맬
##든가
우사
비욘
세일
누계
갑사
아름다워
이철승
##대교구
##복원
꺼지
##생각
##漢城
알프레도
박제
야마구치현
레이나
##힙합
석륵
변화구
1729
튀링겐
##대체
1574
반다
##시한
##부진
Mark
형체
야사
맏형
다카기
콜렉션
조르
##1899
##舟
제원
참회
소추
신문인
##노무현
조총
표도르
##스메
##복제
610
오행
딜레마
##장성
##Be
우변
교습
##DC
보디
남발
셰이더
English
##모씨
##비례
덴마크어
홉스
##십자가
양당
AESA
##曰
오쿠마
##음악상
퀸시
##문집
##선도
알로사우루스
달빛
똥
##프로이센
1703
프놈펜
##문답
##휠
Football
브레시아
보호국
히포
부렸
빈객
루즈
파헤치
바바라
결정지
##카마
##니티
##옴
경동
하데스
스미토모
##관할
순탄
발권
총영사관
카카오톡
##이우
##보행
##뭉치
로하스
##왈라비
허헌
체흐
##모래
코지
험난
진작
##公州
##전주
일본제
빠뜨리
요점
심배
벤조
페놀
도태
##산인
소호
##작곡가
용적
카슨
도입부
234
1460
관현
다스려
감바
##奴
리콜
##간대
칼럼니스트
##Grand
##製
##味
##스틱
##내장
1631
중합체
답답
Dark
##선단
검색어
##비료
##193
소사이어티
발표회
##자루
##강국
##카제
555
##符
Kim
에픽
천주교인
##소비자
##여건
##編
낮출
포악
성주군
##185
가느다란
군영
##팍
벗기
슈페어
Journal
##株式
식탁
##釋
##정식
검진
##혼란
일병
##법화경
##센서
고릴라
##출시
가까울
##셔서
긁
흉터
정치부
##붕
Book
초장
에뮬레이션
평행선
청량리
후경
##미녀
플립
교호
김준연
##라로
오성
행성상
##ray
1576
옴니
행궁
랜돌프
끌어올렸
똑바로
무용가
스즈
요리법
정태
##농협
갑작스레
##교와
1503
##가마
담아내
배기가스
물들
##Royal
칼라인
세이버
Avenue
MIDI
판교
민수
##미코토
229
복당
##포대
김성주
블랙베리
차범근
내각제
언리얼
도팽
웨이드
슈티르너
마니교
렉터
살충제
나니와
의왕시
##상원
왜국
더러
##260
580
데려온
쇤베르크
##확보
선발투수
이끼
##고타
##地方
##해체
사로잡힌
파섹
브리스톨
스노우
트레일
영묘
허리띠
여섯째
가정폭력
야요이
##영향
당당히
애버딘
수유
원피스
##佑
열지
요령
1717
##백스
가쓰요리
Museum
마찰력
부정확
1723
##장력
넘어갈
SSE
1705
무리수
기전
호루스
정전기
##Hans
##특보
##사신
##³
교행
##防
##山南
2100
저촉
남녀노소
브라만
상봉
##보유
가릴
China
##모식
바이런
서대
클수록
국상
공정거래위
지독
평화통일
수입국
당적
Report
나방
여남
##시실
케일리
논밭
안시
해군사관학교
고철
1732
관인
##碧
Not
흔드
Army
##刀
국자감
##도로공사
##입구
##그랜드
요시무네
428
니시모토
미뤄
이마에
열대성
문화관광부
천의
##거성
하모니
##조좌
Want
포로수용소
이드
##흡
헥토르
수크로스
So
자유국
성배
도회
해군력
##고객
985
홍진호
봇
##단군
WHO
##레르
친가
##총재
메흐메트
높이뛰기
챙겨
타카
대칭군
파운데이션
화구
괴한
##⟫
##다드
카렐리
을로
독립선언서
넷플릭스
프라모델
뉴타운
##식당
난무
신오사카
##트인
은상
소프트볼
오환
가까워졌
지협
유언비어
비비
##미즈
현손
자급
베르크
권근
본서
##늄
위관
공동묘지
냉담
들으며
##구분
엇갈린
일지
출중
눕
말려들
루블
쥐라기
냉혹
테오도르
태고
##발리
##해외
마르크스주의자
여력
버클
분점
어조
후술
##지오
총생산
1666
##전람회
313
do
잠자
과대
숙모
조부모
단양군
스마
파울리스타
레그
추돌
##로지
##소경
##도둑
좌지우지
콜키스
썰매
CE
송가
이홍장
이월
니코틴
화법
알란
패티
유격
##엣
미끄러지
건초
경사진
벌어질
159
롤러코스터
오키나와현
배신자
##심이
쫓아가
##체질
쾌속선
##복식
##賴
감로
##점인
순흥
##영사
##우인
국민은행
##이른
험프리
진자
##투데이
##White
딕슨
항구의
1443
빠져들
혜제
메카닉
진통
409
##종사
천구의
깊숙히
멸치
암흑기
에닉스
570
육각형
음대
끊어졌
##아사히
최고위
아라비
Last
프레데릭
DOS
알바니아인
##레온
데이지
##폴드
롯
콥트
옐로스톤
원환면
타슈켄트
##과학부
##스탄
가가와
##서터
##락스
창조주
##도호부
##샴
민원식
터브먼
피플
녹여
촘촘
행의
##露
##組
환불
1747
world
하야토
고함
##存
263
안내서
##벤트
혹자
다재다능
조진
철도청
##골든
##전단
GRB
카롤
막연
##스타트
회양
난파
##모바일
사이비
##자치구
기제
개연
##Time
##타나
탱고
##테마
Days
샤워
영미법
들어야
얼리
CN
##보유자
속아
국회의사당
수안
##공양왕
입체감
인천부
##節制
황해남
충렬
유류
형태소
마그누스
회의주의
분수령
##擧
동승
통제력
##인류학
져야
##환원
들통
##이사국
##武帝
모라
보태
##름
##왕과
Championship
패의
레니
##사역
우주국
용례
계절풍
##택시
하딩
##타령
내삼문
비로자나불
소토
찬드라
엎드려
무방비
위나
먹여
귀하
가부키
덕목
붙잡힌
신덕왕
##튀르크
##IC
백합
Dead
##이젠
때린
소득세
팩스
##콜레
정략
풍류
##냄
##중지
##셸
##제단
##텐더
로직
##밀스
젊음
류자
대종교
쇼가쿠칸
등교
사마염
유카리
합집합
조왕
macOS
DNS
코사인
트리톤
근우회
이분법
##다승
낙천
화보
명반
Super
1241
격변
##유령
##대포
문턱
대사마
##마타
정회원
도이체
##유도탄
##亞
앎
직설
##할까
올리비에
양왕
##공중
반세기
표가
매칭
자도
빈발
##내전
그만둔
선지자
통괄
##결핍
바운드
클로버
##湯
금욕
##벤처
나이프
구례군
##카이아
##클로
슬프
##浚
##積
오데사
멜라닌
303
부치
히토시
##데뷔
파종
##대국
1678
대홍수
##大將
황녀
대종상
마사아키
내무성
우도
1538
##인단
##154
울려
커리큘럼
포박
게임큐브
312
##할아버지
세워서
제구
##의상
흘러내리
걸러
마친다
한골
작전과
##중요
근동
스티븐슨
##상소
사누키
진귀
264
진실로
제석천
주회
분비물
진통제
금박
##제대
Play
1501
결재
1518
법률안
메로빙거
##요미우리
고서
정찰위성
##여야만
##배출
##으리라는
부안군
##匡
장마
##Little
몽둥이
179
강진군
##올라
##인디언
임수혁
카펠로
흉
프레스턴
1551
카이펑
돌아왔으며
##하학
돌파구
문책
구성요건
앨리슨
##HD
도용
장쭤린
##노이드
##국회의원
박근
매해
전라선
번졌
로마노프
##문학가
정강
젖산
전하량
옥외
##상가
안두희
뻔하
##건륭
수업료
코미
초조
##  
항력
시가총액
초대질량
CDMA
수혹
데브스
##4000
##置
매시
공로상
석관
수뇌
황당
주무
##재즈
##Hot
토하
미성년
##239
코스피
냄비
##칭하
법상종
##루지
630
항행
##單
여학교
##전후
히젠
제적
동무
쳐내
상반신
콜라보
##혈의
점액
수놓
##정치인
마테
##리어스
꽃차례
##쿠로
쵸
Machine
##다툼
순치
나레이션
한용운
전자책
숏
매드
첨지중추부사
봉산
들러
##산성
돈독
아페르
보관소
쟁탈전
고자
##체자
주서
퀘벡주
대기압
광진구
소인
진열
##소와
만호
510
하세
아타튀르크
떠오른
##당사자
미궁
레이드
고대사
압축기
311
고봉
##도프
##UN
로이터
226
퉁
기울어진
##현황
##티니
하쿠
전자기장
##경북
산양
적벽
삼국지연의
##밴
670
변두리
마르첼로
##1915
블레
##궁전
1539
##鎮
태프트
카우나스
AJ
성심
심기
아사쿠사
##동요
피워
중심인물
두툼
아미타여래
친자
구보타
무형문화재
올려졌
오카
총동원
요동성
기색
폐하
##키트
필선
아키노
처신
트리엔트
##리호
숭례문
262
##映
후보지
엘렌
샴
##都市
자자
##pop
##스티스
아체
##세월
제니스
황우석
크리크
실존주의
##특집
##대장경
##司空
로디
라카
샌더스
##니오스
후지무라
히라가나
색슨
헌혈
##르니
연속체
오르시니
경시제
월성
와카야마현
곧잘
Security
튕겨
will
촌장
테디
선동열
1663
올려놓
롤리
##晉州
페테르부르크
헨델
터뜨려
##됐었
아탈란타
가히
입방
모에
연속극
넘나드
팔의
급작
활짝
석이
상비군
251
히고
1697
호부
다카모리
아닌데
Sciences
##BAFTA
이이첨
참살
##해피
Asia
질식
수렴청정
475
덮쳐
후원회
조슈아
'~
신일본
##체조
불렸으나
근친상간
물러서
##쾌감
##모자
상신
##조상
양친
방심
베리야
유압
김자점
ECW
수재
Web
##확률
사노
항성풍
접어
재력
SMAP
개천
진과
짝별
사형수
정간
##노력
장한
라이징
카로
노랫말
##'·'
내렸으나
애슬론
라만
우미
상수도
##우로
##라바
절기
##나이다
프란체스카
##댁
강계
아몬드
##조기
정상급
##방출
천왕성
알갱이
감고
##정국
1495
##Operation
##주파
토벌군
##劍
##야전군
포퓰리즘
로미오
도요코
프레슬
아이오딘
한국독립당
OK
키보디스트
##〉·〈
출강
파니
이수영
쪽지
민족정기
스컬
박지성
프롤
그레고리력
우주망원경
PSG
베키
선곡
냉각재
Land
파나소닉
포르투갈인
내려다보
살인자
을사
##위키
설욕
몰아치
##행체
적대시
절묘
이지
초은하단
다스린
총점
결석
동북아시아
##곤충
야노
논술
다이너마이트
크리스트교
넘어간다
미적
1744
지갑
메구미
Office
효정
동행자
초토
림프
##형무소
##발라
1639
995
씌우
##교차
##레테
##co
한식
##으시
이호
호세이
가선
##롯데
면책
태양열
이기면
CI
든든
귀엽
호서
양변
옥산
숙원
대흥
라가
현자
재학생
베어링
삼성물산
병인양요
데몬
콘코
##실로
아래턱
##박정희
차폐
일요
포커스
에치
한결같이
CGV
오드
##신전
달기
코에이
Theory
대장장이
아오모리현
##310
##영과
어사
브라헤
책무
1535
심오
##天王
의친왕
게티즈버그
건장
##制度
##參奉
우찬성
다가올
나아지
장량
##말갈
송곳니
겨울잠
통영시
메트
사와무라
먀
적중
덧
석판
라싱
##용자
IN
총사령
아인
세인트루이스
##식학
Know
##메모리
리츠
삐
##임대
오두막
디비시
데즈카
임대료
마조
경칭
차오
세벌식
종택
아드리안
##씨름
그라프
대례
쿨롱
클라우디우스
##대출
##테이프
태연
코카인
##僉議
##府尹
악인
불쌍
무섭
발암
브렛
프랑켄
##雜
현인
유라
나갔으며
팽배
루디
그리움
안목
구급차
폭군
##산악
썼으나
변덕
##신도
채점
잔잔
변함없
들키
##예요
##朗
##Prince
대도시권
당산
선천성
의한다
##갈리아
##물산
##유니
번만
장방
배면
궁수자리
전화기
세탁
##Go
잘린
자물쇠
염불
##키즈
풍경화
수건
나카쓰
약용
##메시지
##계인
나눠서
##151
콩코드
DOHC
수비력
독약
##郷
재생성
##미라
초중
공여
흘러나오
##영양
##庭
다당류
박진영
삼단
을사사화
위젯
폼페이
역수
1396
병환
##馮
##卞
SATA
van
베르됭
##윅
##흐름
인동
1704
Future
글라이더
렙
읍내
도포
고속화
타살
쿠프
##虛
##덱
1671
풍천
##구이
##서구
알로이스
방광
1433
##봐야
밀린
사부로
##조선인
매너
노동부
가쓰이에
총공격
##鐵道
쌍선
Am
DR
##사양
루벤스
Federation
저작권법
옥개
##코끼리
다카히로
##진회
블라
단골
도원수
##학도
회심
판테온
총영사
각이
이스터
에베레스트
치바
신토
계위
로트
알파인
마주쳤
##여당
듀란
저의
##勇
마키노
악셀
##중대장
TGV
지양
이원론
리슐리외
000
추기경단
투표율
김두봉
해바라기
석신산
필즈상
CRH
##스지
파크스
삼중수소
Review
연강
1402
##虞
##담보
이찬
선보인다
Jones
도이치
서장관
부려
인본주의
태국어
아이린
성난
아쉬운
석굴
지번
##소나
여백
복제품
구마모토현
말경
##도카와
##봉인
가즈사
1578
##MW
치우쳐
향사
##都正
데라우치
직간접
인도네시아어
산타페
멜리
영산강
지열
미개
산청군
IUCN
가져다주
##행정부
기준점
##塘
심히
궁성
익살
습
에어쇼
임산부
넥
##콥
등지느러미
벨벳
##종료
##프랑
##아인슈타인
늘어났으며
##201
전가
Series
언양
타수
##Hello
이동의
작문
너클
기나이
열후
헤게모니
##해고
##뚜
르페브르
공교육
##면부
배임
##로고스
##라이히
##우먼
송익필
영이
징크스
##굽
용왕
##학명
도치기
Ver
##클라우드
메구로
le
조이스
##봉기
친서
훙
풀린
관입
히로키
굳건히
##무엇
##광물
바닐라
조르조
승조원
##河東
카누
##넛
라그
##카베
##양성소
306
돌봐
자폐
말라카
파티마
##무선
쾨니히스베르크
적대감
작호
부도덕
언명
봄바디어
메텔
불임
가법
프리마
포우하탄
에스터
살레
##隨眠
타이베리움
명물
##홈피
아라키
기다려
918
##위탁
끼친다
생겨난다
##초프
바이에른주
바이로이트
North
사려
놀이터
악령
##-"
철인
바뀜
위너
덕망
##기력
line
곡창
쾨
라바
현혹
장수왕
##포함
발랄
비바
파고들
벼랑
##치는
##예고
501
베푸
##鄧
모닝구무스메
ICOCA
순경
##延安
아마테라스
##司事
정쟁
아전
정무직
움푹
술회
##독부
덴진
##쓰리
1452
1380
##첨정
##萬戶
성소
선거관리위원회
로슈
시효
##이행
##금리
##일요일
##응답
시적
##품질
경순양함
친지
혈족
우천
양봉
965
##PS
##Open
수영복
코스모스
시험관
##기밀
올림푸스
블로킹
펀자브
멘델스존
빨려
한결
불사조
##석기
##나트륨
첩자
신립
윙스
케이티
##수반
트러블
##한겨레
##재판장
생강
진승
##中華
관등
의천
끓인
##투아
방책
거실
브리스틀
치뤄졌
##활약
환웅
서두
LS
필요충분조건
빈티지
안드로메다자리
홀란트
움
멋지
분기기
입센
##라이더
외관상
된장
##손해
##토바
##좌표계
체르멜로
소말릴란드
비사야
##이승만
아르곤
낭야
##睿
스완지
BJ
##레와
트윗
##무력
자금난
##뛰
VIA
타마르
발롱도르
##공관
POSIX
호엔슈타우펜
ASCII
이재선
일쑤
##끈다
이곡
챙겼
##괴물
다가왔
##乃
근현대
비상시
량
##203
임천
##금성
에두아르트
웡
한림학사
급유
##134
BSC
본원
공업화
##藝文
이성은
##강한
1556
##온다
깡패
속설
##파트너
모나
셀룰로스
혈장
##중심주의
##동산
돌격소총
돌격대
"-
항해사
중심축
법회
시너지
##오피스
##盟
대운하
##한반도
대주자
축구장
빠르기
진도군
소독
후위
제철소
##전권
가전제품
와우
##체결
어가
선영
아키코
카미
찔려
##이외
후조
##대제학
휴직
##協
악센트
추도
황동
벵
기념행사
##피해자
##1867
##To
속령
중입자
기후현
학술원
357
##대립
천막
##도파
말뫼
곤살로
##聯合
촘스키
도읍지
##東北
아달
허나
대지주
농산
##검정
가담자
항등
방직
카고
나갔으나
뉴먼
##타이어
저항군
니미츠
추인
大雄
##余
##용군
##스테드
하라
소소
휩쓸려
활화산
참칭
삼기
##흐트
##르투
긴자
학당
양태
##연속극
묵서
##리즈
##우터
호킹
융자
뫼비우스
밀라
##라이즈
다다랐
저층
메기
짤막
십진법
하자
단아
애틀랜틱
##Dragon
##정치국
예쁘
로넌
##등분
신용카드
김정남
다분히
점근
순양전함
베크
##말리
학무
피파
재거
##정수
유마
카펠라
하치노헤
알렉상드르
샤른호르스트
세페이드
NEC
토에이
스파이더
이르쿠츠크
드레퓌스
임피던스
1004
아세틸
누미디아
양곡
출장소
가쿠
##밋
주중
##이식
##복음주의
착실
보름스
##자재
연휴
분권
건수
노퍽
유승민
신타로
느껴진다
엄연히
훌륭히
과달루페
명중률
기념품
유원지
광속
##르바
##갔으나
온다는
##層
후견
뢰프
학산
지렁이
##샹
고배
선미
위자료
히피
Video
채결
##Marie
VIP
지방행정
초전
논점
애프터스쿨
차이나타운
##크류
김규
##권총
평남
연합회
765
##乱
##중국어
소굴
첩이
##호부
개울
연체동물
미해결
##츠와
##이족
연암
캐딜락
패널로
대광보국숭록대부
##960
##正郞
립
##카리
핵자
몰디브
메틸
레시피
##싯
플레이메이커
친해
대위법
육손
비구
##라스트
살라
종명
##전구
##개장
공청회
곽재우
거듭났
테바
종사관
SNK
뿌렸
스캐너
##Saint
들렀
뜻밖
테크니컬러
##로스트
랜서
이사야
계발
##클라
꽃무늬
UP
##리눅스
전모
하양
##누마
##엑스포
동화사
뿌린
##복귀
완간
프리드먼
##흰
헤이세이
열량
양천
족제비
토스
거위
도봉
뮌스터
##제국주의
##부조
착하
선택지
##시합
녀석
북북
이상적
공작위
로터
영현
오티스
코타로
농악
##아속
클락
##바이저
다코타
술탄국
쳐다보
카르노
316
사원수
둔갑
근왕
모리타
마법소녀
##찬성
몬페라토
생활사
노략질
팟
노르트
하랄드
주전충
젤리빈
콘월리스
심시티
##찌르레기
돌아다녔
245
지부티
##430
1422
##직장
싱크
까다롭
저질러
##위장
진가
전근
과감히
스필버그
1482
붐비
##감독원
##실질
재흡수
억제제
어의
232
신권
여세
수정란
빗살
##常侍
메이플
##포기
밝혀졌으며
성층
모험가
1753
온돌
텔레콤
카스피
Girls
철로
##동해
그루지야
##動
##적과
##사다
레딩
카메론
블뤼허
아와지
비구니
##曾
##부활
##》〈
이연
1708
용천
폐합
사택
##부나
1719
##테리
##139
아데나워
격렬히
티타늄
경기자
스칼
돈녕부
##적색
##십니까
##370
죽전
스트레이트
##ppm
빈스
DDT
##京城
##원론
옥천군
##여관
헝가리어
지으며
##역한
##攝
옮겨가
조로아스터교
멍
아과
미크로네시아
##인제
칭해
날린
최루탄
목제
물러가
귀납법
장타력
헥
왜관
##유키
가산점
전단사
핵전쟁
독일제국
1250
##리사
Death
착좌
다당제
##천주교
에로스
##구매
##착하
VOCALOID
곤궁
870
##앨
##미수
1493
낙성
영친왕
아가리
산신도
조속
캣
히로오카
페가수스자리
떨어뜨렸
##더글러스
환속
하모니카
페소
##수표
소운
시추
Java
##토토
1431
포물선
##성사
##피질
추수
##부제학
비센테
헤타페
에레라
오로치
##형인
##감자
##조부
이타가키
정몽
오귀스트
하와이주
위법성
스톱
루프트한자
고등문관시험
아머
NS
순서쌍
최린
##요정
기괴
미량
총참모장
애프터
걸려서
막혔
홍군
송진
식년시
페르소나
정보국
뉴포트
꺾이
휘종
마키아벨리
##속선
##을지라도
카림
##속편
##謝
켐
##나무과
편한
제록스
나가사키현
더럼
데려
##시공
결손
##리노
##패턴
##광선
쉘
옷의
커먼
문답
스오
교목
카네
##自然
정통파
패스트볼
1451
##쿠타
가쿠슈인
##習
히다
그렉
창가
옷깃
스토리텔링
##솜씨
레슬러
은의
##皇甫
##必
품사
Paris
바란
##우시
베레
오라녜
살인범
##관찰
마르티
사이코
뚫린
배쪽
##요새
##인문
##138
매회
##盤
병리학
요시코
벤젠
##어차
?~
궁인
##傅
##비문
외손녀
FPS
판단력
나타난다고
그리고리
Away
로빈스
판윤
##워싱턴
##포리
이리저리
슈나이더
귀찮
##중처
LOVE
우의
하층민
스캇
##개구리
##애니
오사마
##이사장
다포
신료
##현직
법흥왕
여단장
체인점
##진짜
##혜성
헤엄
##늘
연장자
시파
노르만족
285
좌석버스
살릴
아난
##로스터
##각각
성혈
켄시로
컨버터블
남유럽
996
바이오스
캐니언
헤이스
##스타드
##펌프
ㅁ
데데킨트
송신기
모지
Final
약혼녀
리보솜
피임
세슘
##석가여래
보험금
마오리
885
툴킷
##르비
Railway
흥사단
크로우
##농림
갑을
##리스토
불그스레
발렌티누스
미니애폴리스
민자당
복선화
##약속
##페르시
크리스찬
맞설
동호
치러진다
도료
풍양
절강
##승도
유도탄
고타
this
##If
##편지
삼키
레이커
교활
양전하
Saint
조영
이럴
입영
월등
파지
친부
스토우
##조이
예술인
총포
액자
꽃자루
분고
마츠
##巨
##시와
페렌츠
##믈
건평
캥거루
산길
척박
스미요시
##財
##이단
##키치
유착
따와
##원국
후당
스턴
낙랑군
1684
##유출
광주광역시
도로망
표층
공저
##ABC
1529
박진
범했
추탈
김수항
##포로스
아악
##체크
겐나
빼앗겨
기흥구
당사국
어민
지역민
담그
동력차
드로잉
##수각
##뿌리
##일행
내다보
신생대
##이미지
1507
가정교사
챈
분홍
브라이트
##인기
메디나
각주
마르스
##模
실탄
급파
판자
부쳐
##편곡
소와
##정언
어수선
상면
707
담가
김개남
몸짓
포메라니아
야고보
석가모니불
지쿠젠
리처드슨
노리치
론도
1737
##梵
##오키
두세
일구
방도
수용자
앞이
##토끼
##뽀
##오족
##쓰가
법치주의
Royal
##庾
##노동부
잉글랜드인
완행선
조인트
##전함
시상하부
콜먼
가정부
물산
가파르
##리조트
Master
탕진
수련자
ROM
##만능
SLBM
실기
루이지애나주
계면
베르베르
##무자
카라스
거스르
물권
자오
세베루스
대본영
##실리
김병로
가필드
변절
유조선
정회
##산역
후지오
울루
칙임관
루트킷
하메스
레드불
##콤팩트
아람어
아티
분봉
진노
요서
1393
사은사
##范
##楊州
맴돌
랙
타카시
##조원
en
교육용
홉
계약자
1414
로젠
1485
당겨
##흑인
마그데부르크
##London
##掌
학도병
역점
마흐무드
##쿼
친권
##고정
꼼꼼
분석가
##1916
스타인
##성령
불합격
##宿
향가
메테인
쳐들어왔
원병
체인지업
무기고
##저녁
##徵
##摠管
##が
폐모
쓸모없
김수
탄로
상궁
##都事
프티
나체
##河南
김제시
전주부
명산
##原州
RF
쿼
위수
뷔르템베르크
##위생
조선사
##朱子
노량
파사
##자국
딱정벌레
##固
회의장
이중성
다이토
떨어진다는
육우
고하
가성
점자
노라
ITU
스토아
톡
골망
Organization
##默
##이나마
저상
##바트
김상
들여왔
마귀
동양인
오보
농약
##해상
테오도라
다정
##애국
##대표자
##산리
이시하라
##鼓
##지야
봉화군
338
북반
##레오
제전
폐막
펼쳤으며
편집부
##교장
양성소
##자석
마르가리타
오하이오
##왕전
##자치통감
소정방
##즌
##통해
에데사
##코믹
##전제
##水軍
##지부장
하츠네
천주교도
칠리
구울
공모자
##증명
찐
##피터
##翰
잇따르
세율
##망이
헬레네
스피노자
자마
보은군
손학규
참파
복족
여왕개미
마무리지
알자
도평
종북
1170
다수파
##經筵
우크라이나어
북원
혜경궁
##군사령부
류지
고해성사
##분립
원적지
어형
소연
##승광
##클린
이즈음
##리바운드
##의숙
그루브
키치너
##\
베네
파쿠
순환군
요시토키
##시바
보아
CSKA
##추천
##모집
주정
Magazine
스위칭
school
한단
1706
앞당겨
수성구
Gold
난의
##부자
##共和
병든
목책
형국
##지역인
상도
ACE
##피시
##곤란
총대
고생대
##니다
##珪
파노라마
##신대
1474
##네요
봉건제
헤아리
며
최면
제조가
에이벡스
케네
내려간
##스터링
테레비
정선군
소용이
##시야
잡지사
신호기
파로
내레이션
정숙
##";
##姫
##尚
##정종
##메인
강주
551
기문
금빛
논객
충의
##카게
##렬
원심력
루아
##Korean
1260
##자니
원반던지기
형제단
고려청자
충정
##유동
창과
영창
##라타
문항
CMOS
행정자치부
Tu
그렸으며
우승지
국민장
부산대
스틱스
야마나
395
조사단
구와나
풍랑
농상공부
직제
##스페셜
##수군절도사
탈레스
정삼각형
##스톰
군항
경사각
시시
남궁
##文書
판석
##보름
##이토
##봉수
노부유키
975
암트랙
##제임스
극적
주전자
요람
펠트
자지
되돌아오
간략히
퇴적암
종조부
780
알레만
복상
맹약
헛
##경찰의
##大妃
##丙
기예
##NHK
슈거
퀴어
로더
레오폴
1736
달아난
데일
##세이버
팍스
"《
잔뜩
톰프슨
다임러
하이트
내뱉
구심점
민화
삽화가
안근
CCD
##버섯
리처즈
##갤럭시
팰컨
와타루
##사옥
##동작
로마법
EX
최경환
입학생
약관
몬테비데오
임영신
외드
자네
핀란드인
웨스
490
CERN
선거인
마크업
바실리카
티에리
쿠우
닫힌집합
다쳐
열에너지
구배
##동일본
수압
수시
더듬
멜로
##카레
델로스
의형제
##에이스
##引
이병철
음성군
알아본
제문
황금색
존엄
외침
연을
곁들이
##동조
멘셰비키
##에어
고차원
언동
괴담
불전
##모스크바
사행
für
##게르만
##光背
시마바라
연구가
1395
##가르
창작물
##문학부
돋보인다
##동네
창녀
유순
애원
##175
객석
군권
함몰
연결기
신평
##凉
경주로
스며들
막내딸
뜸
무열왕
theorem
##養
##일상
##시조
##획
원종공신
무바라크
미야
과학사
나루토
가다듬
디럭스
앙헬
더디
시터
크리올
베커
쿠니
전문직
RISC
##쉬르
마개
##아마도
BEST
한은
상보
신광
들뜬
Test
견줄
대원수
고흥군
258
##165
1557
파내
##베를린
acid
333
가노
부서진
장대석
경산시
##마우스
인데
언관
인상주의
휘문
남획
416
패션쇼
고트족
##온라인
JAPAN
##파업
마신다
영창대군
인촌
대어
##응용
망주석
교육법
현물
열렬히
워홀
⑤
라인강
총사령부
괴수
기독교민주당
탄자
오베르뉴
저메인
경사지
Free
##평생
##有漏
김경수
박테리오파지
클라이드
##매장
##보낸
##개정안
##쇼어
난리
김홍도
스피
ISU
부폰
##반지
##선교회
게이샤
션
##조서
계회
금정구
앨라배마주
이현상
포티
Win
에틸렌
전투단
##혼영
언드라시
NADH
레가
유한체
##作意
##이득
##발전기
기품
1401
##공판
##壯
##紙
##480
섭렵
굶주린
정류소
리플리
1733
채워진
##전면
##보편
밀랍
심부
##의약품
##미티
획일
한몫
가교
머금
주형
애호
애니플러스
##났으나
라피
데어
술잔
##鎔
생태계
##멀
내보낸다
##리전
##潭
1444
쇠사슬
##대표부
후비
##Microsoft
인신
##仁川
노상
선언서
##근접
##렀으나
##냈으나
##음절
운구
##거주
##글러
##방송사
다다
문안
1692
케말
##145
##성질
나일론
제해
인증서
##자수
원외
웨일스어
시켈
괴상
식당차
##요코하마
307
배위
가람
##바바
펜리르
검찰청
##정통
##다라
쌍발
철판
관절염
헤로데
광산구
순이익
불매
##캐스팅
미테랑
##경보기
행정학
엄정
##미오
도버
##언덕
##콰
축척
GK
월동
린킨
스트리
드림웍스
맡긴
뭄바이
버텼
건축사
매겨
##沢
송의
뉘앙스
신수
백관
##1896
원운동
##비나
334
적장
갑자사화
김윤식
미에현
테티스
퓰리처상
루주
##ㄷ
장쩌민
##주관
사령선
소작인
황푸
변함없이
미남
이누이트
##우치
구데리안
##램
디버거
설령
##包
##㎡
##내역
나가이
관념론
이원
번뇌장
험악
럼
콤프턴
종국
##밍크
스핑크스
증정
빙의
##특별법
직진
##마드
한이
루마니아어
막시무스
##면제
호머
##우마
로웰
논사
안평대군
유자광
판노니아
##음악회
제노
선역
##不正
##일식
##논리학
실루엣
무오
##수번뇌
##교육감
##り
##Oh
서두르
##대나
##嗣
로서
##204
Special
효명
##>)
Grand
신나
##슬라브
##어둠
관도
감비아
화관
세로토닌
홈스
##거북
샹파뉴
조도
출연료
마니아
##로리
##哈
레오폴드
직립
##So
회백색
하사관
##)"
반문
##테이
그레그
문흠
##둑
Say
Money
행동주의
체득
##오노
추사
부끄러워
우완
##부하
칸막이
주행성
이상주의
애쉬
파이트
1677
##彌
##남과
##협동
토산
매장이
##溝
포퍼
천리
##FTA
##至
나라현
##콘크리트
도매
줄리언
에스테르
산중
국산화
고토바
##영혼
Alliance
##우파
진명
싯켄
황화
간질
##혀
잘려
유영
노보
1270
조헌
포춘
나로호
##144
존왕양이
페퍼
예법
##혜왕
##神道
포크송
조용필
특수전
가스통
파이낸셜
마인드
총지휘
굳건
측천무후
##仇
프랑크족
투레
하후돈
##〉〈
동물학자
말썽
홀드
##탐정
##나투스
##드나
##슐
샤르
모데나
풍차
항암
##장구
피랍
##던스
##001
##幹
율리아누스
위니
루치아
위버
묘정
##수일
마가
OPS
##파시즘
1461
라비
아카마쓰
셀림
수첩
KF
##의도
##버트
대잠
##무소
그라스
지략
쌍곡
##동성애
사이판
산토스
검출기
투약
##학대
메꾸
야전군
튀니스
라스푸틴
현수
유타주
동방신기
양현석
산후
이휘소
＊
비소
커세어
쥐과
테일즈
하랄
핑클
Connection
거미줄
잠긴
허비
엉망
Queen
권수
1511
야마시로
일반의
보훔
브루어스
기뻐했
에프
##Arthur
그림책
극작
덩굴
##령인
크다
바클리
페름기
후도
##경성
1066
##CH
##신학자
알트
##티크
##폐쇄
게오르그
##沖
가르쳤으며
브랜디
##체이
미용
유희열
출반
##수력
내측
이와타
##안내
방의
양자수
엎
시뮬레이터
히터
페예노르트
셀타
두터웠
661
입힐
##인터
하남시
##西京
##箕
##라리
##좌의정
간신
Edward
기나긴
number
##농성
##조화
man
강선
주왕
개탄
초산
##225
##European
정가
수입원
##宏
진에어
도살
해동
종인
프루
현대인
##교차로
모성
##비르
연약
##Free
향악
인센티브
기립
뉴클레오타이드
지닐
갈아입
노량진
1532
군용기
의미론
##원가
나오키
##神社
##쿠바
##筆
정류
##노보
##Friedrich
투박
불단
트러스트
De
주몽
##성원
##신다
범선
흉상
##생쥐
##레인지
##투족
##펑크
김호
의화
독립당
파르네세
237
##관객
유시
흥남
심고
레이서
구종
##因果
메서
##147
롬바르디
파슨스
방통
아카기
애국주의
청원서
남위
##서재
함교
로건
##도당
##근로자
##프렝
클로비스
경무국
출입국
카이두
##린턴
청산리
베스타
##한민
사라고사
아리우스
##규약
팬더
질투심
남곤
손아귀
일반직
Van
내준
골드만
특임
아롱
맨슨
방아쇠
윤잉
탈수소
점렬
벌채
고트프리트
크랩
웬만
놀런
기울었
##尙州
##太師
##씨족
##한신
기요스
가증
궁리
고품
##翁主
Sports
##武科
노자
확연
鄭
격납
SDK
##불로
평단
##쿠지
추상화
##國子
##맥주
도미니크
전갈자리
마이어스
252
##薩
##시브
선반
장만
무의미
귤
일경
##형상
##舌
견당사
로지
반제국주의
말사
##방지법
한해살이풀
다빈치
메인스트림
히타
##晴
포르테
옹정
친했
도민
##이슈
유람선
대단위
오메
극락보전
2400
##이오
##산기
397
고친
의왕
##작정
오가와
여종
부평구
침입자
알려짐
월경지
스키마
중앙동
최솟값
켄터키주
움베르토
마미
김진
DX
설교자
이축
허스트
##奈
##에이커
##1400
체카
##서비스업
장양
Jean
파라다이스
Agency
교종
센트랄
블랙리스트
##Carl
노블
흐리
##현충원
##에스파냐
기타노
엽록체
##멸종
소거
1483
1480
참상
달서
복소수체
갤리선
완강히
엡스타인
리간드
Louis
MK
용기병
##문화상
탐지기
표준형
##철폐령
파울로스
조홍
농토
치프
벽파
##화력
시메온
##흙
쌍곡선
섬서
포도밭
즐비
권말
소장본
##노르웨이
이화학당
전말
##North
작명
양기탁
1417
신동엽
##參贊
##파나
아즈사
조앤
지조
마리안
경례
소방방
대합
##베가
프리스틀리
면죄부
블러
피해야
##변형
##화강암
다면
##실내
1465
닐슨
##몰입
팥
##就
스레
##금고
##시온
블록체인
목초지
세례자
기수법
성작
조호르
##사막
영광군
초선
활기찬
##Martin
안타까운
##정말
능성
삼중대광
##戶曹
신음
짓밟
##魔
##공법
##이언
##電
간무
덕종
휴스
코디
##힝
바라지
골동품
길림
대련
수호천사
다가와
상국
##레이어
이롭
##婆
##大乘
##鈴
##彌勒
슈타이너
군데군데
총량
##될수록
포스팅
##195
##1902
송수신
흘러드
호펜
태릉
##정신과
##시게
평북
##")"
로드리고
Conference
누운
##権
Culture
교통망
##실적
##同盟
명함
코헨
##문동
##데로
양견
##상법
관구장
고우
북극해
아쿠
웨딩
석면
벨레
렙톤
패스트푸드
복통
ATS
캄차카
##勤
수순
기하급수
##직후
1739
로메로
목자
넓적
튀어나와
전자기력
단시간
상한선
통합민주당
폭약
데쓰
괴리
선발대
우편물
정견
DOC
##172
단열
##카우
축퇴
크리티
이와사키
Peter
만재
소도
1434
일임
능호
##191
이발사
어긴
봉납
공손연
##손가락
쓰요시
게르마니아
격감
##빗
뒤덮여
야스쿠니
대미
##테타
의빈
##토성
유현
황충
유언장
등정
##수차
경배
다층
##捨
STS
브라우닝
고위도
불응
##위안부
수개
파고
구룡
페르난두
바실
작성자
등거리
럼블
눈여겨
행랑채
상영관
인형극
Centre
마스터링
바트당
프렌즈
개화당
군위
쇼스타코비치
김장
민영익
인용문
AE
응원단
##린스
아옌데
제르맹
베유
카트먼
##푸드
액면
단짝
뒤진
에이전시
재배치
Model
파출소
수초
##성급
독립영화
##聞
##강자
가연
우로
##급제
가즈오
##炯
분카
드래그
##≫(
덴포
Side
007
논조
속담
Right
미시시피주
나약
내구
##습관
우다
괴로운
인목
247
##비즈
동서남북
휘말렸
항산
보야르
글루코스
공금
왼
가운
애완견
주안점
##페인
수제자
온도계
탑승객
##梨
##彰
##She
##賊
영전
개보
##선언문
이클립스
지하도
##김대중
유카와
페널티킥
##주위
흉기
마사미
동지사
##忽
너구리
425
특공
model
2025
배관
야코비
분간
##취득
다도
##420
##말레이시아
슈이치
##부패
자존
##령도
제어기
##스마
##唯識
도겸
아이레스
소시에다드
세수
쓰지
##야가
##법사
비법
매달린
랍
콩과
HDMI
POS
수두
##텝
르망
##昌原
##참사
패잔병
들여와
##유엔
변증
탁자
연의
랠프
비엔날레
##광복
주현
폴라
##조명
##이를
##来
코피
용구
삼보
##雍
##垣
소고
활달
##장로교
칼라브리아
우즈베크
크레디트
##소울
흥국사
##세례
서량
피웠
아일
아스키
단호히
메두사
##수교
##타당
저당
##침략
식재
책망
하위헌스
깃대
Bridge
##幀
##통사
응답자
##세라
##튠
봉직
마쳤으며
미연
가금
체임벌린
라티
브라보
조종석
##점검
앙카
테마주
운영비
역사관
우키타
영자
오스트로네시아
노부시게
GHz
##튜브
에밀리오
늘어남
##South
##256
##킬로그램
에지
##鎌倉
소인수
##정교회
차렸
긴축
##섬네일
TF
가바
진안군
아몬
나탈리아
신카이
창세
##누아
불온
나경원
##오비탈
조성민
더그
방호순양함
##트루
증결
영결식
##일간
모니카
터치스크린
증원군
아르투르
윤두수
##候
##211
짜증
도미노
233
242
##尺
간다는
바쿠닌
코엑스
부클
문재
클로즈
속인
교로
관모
떠다니
쇄국
히사시
##Treaty
위메이드
부정기
열한
튀기
Wall
##라나
동북동
##케이트
쿠도
##지적
##독수리
쳐들어가
노구치
##->
304
##봉산
가용
야마나시
토탈
처가
##정밀
삭탈
조병
헤스
##1903
행사장
측정값
국자
구청장
궁을
크리에이터
##지연
방재
단검
비친
만경
카츠
히드라
##진동
##사부로
##155
끌어당기
##지산
##드루
플리
TR
피코
##勒
트래퍼드
##羊
만든다고
##리스크
나타난다는
상좌부
신극
장작
##발언
주디
구엘프
##어온
##舍人
아무렇
습곡
어려
343
##순환고
정일
##베라
취조
##유신
##억제
##제프
옥포
성무
킥복싱
##스탈
옥신
짱
야포
시켜서
영산회상
동업
유격전
끌려간
하후연
덮쳤
잘리
##파천
무디
동헌
무정부
##정부군
##薰
흥국생명
카디
1514
성가대
1430
옌
했으므로
장충
다낭
##弓
로데
답례
##베르가
321
사이언
손호
JPEG
크루프
##마쳤
데인
높낮이
오피
##테이크
##遍
테이트
요시미
원한다면
하이드리히
산도
##어웨이
정격
##마이클
데루
##재소
진원지
시복식
##Master
##산분
중학부
바르바라
고주파
박찬호
롤프
Forever
페페
##log
작용기
호무
군나르
요시테루
폭주족
폰토스
##후원회
윈필드
영천시
##교국
태즈메이니아
레기
프로베니우스
심불
미도
공터
##전처
교수법
398
폴리머
구지
##콜로
영업소
오라토리오
늘어선
인건비
넘버원
본업
노르트라인베스트팔렌주
물고기자리
밍
잘생긴
혼선
애절
예천군
##感
소산
뱀의
이불
##249
##페트
조간
높인다
군법회의
지난날
폐색
지눌
도공
##奥
어째서
Williams
##賞
혼노
캐피탈
274
##행선
린드
조디
촉각
##MS
나오토
플라멩구
##무한
사천
히라노
860
대야
##為
형수
좌부승지
대왕대비
살수
배부
전처
수확량
##選
Zone
항주
##班
판도라
수작업
중역
945
극점
와전
복관
정랑
고리야마
기력
1476
일기장
##각류
##217
슨푸
타법
그놈
서도
##용역
##386
돌비
##브레이커
부연
대구부
##오후
사로잡히
힘줄
DSLR
영중추부사
TG
쌍이
산골
##公園
1399
함경
##501
운동권
넘길
허먼
할리
끝없이
정함
Ring
항우울제
비프
테쿰세
희천
백서
##양산
리바이벌
곡성
치달
귀와
드뷔시
영인
부황
건넌
벼락
불어오
도나
선암사
##보완
남연
구걸
##’(,
전등
##급수
이숙
244
향약
아지트
데비
ANSI
김상헌
##재무
글씨체
##履
620
##개량
매달리
식물체
##머스트
##520
산산조각
김유정
참지정사
북독일
장로교회
##리에
##수렴
포트란
빌려서
##팰리스
##주차장
양천구
스매시
##":
SAS
##벗
이고르
##족장
DP
LPG
부자연
분석기
캄파니아
##프롤레타리아
공출
장쉐량
최전방
아시리
##函數
모레노
스네이더르
박막
루드
##능력자
주임관
내선일체
구생기
##윈도우
##％
##협조
반투명
훈련도감
##파니
아메바
##흔
알몸
견뎌
다이고
다트머스
##佐郞
오르내리
섬나라
연초
##매수
성협
전우
예감
명탐정
##공영
무도회
##교로
대강
##屯
소견
##전방
금천구
북안
##포브스
Sky
이분
철도선
이펙트
검은색
호암
고열
##黄
##북로
##패니
1439
##국철
샤토
홍타이지
##1800
710
양단
##종인
273
도치기현
##걸로
Henry
위화
##빨강
1454
남평
평해
##俱
##원비
파시
대학인
여겨질
##NATO
앵무새
Le
서일
마립간
##1866
인두
잉어
촉수
다져
따라오
286
반소
고료
급강하
울부짖
##스타스
함상
##桐
##새벽
남장
##Jack
이해찬
##외과
과외
##구레
아파
##클리
##1901
고해
##奭
갱스터
인도적
코코아
베들레헴
초식성
길주
##끄
방산
1409
1445
SMS
도망친다
도시이에
재결
##척식
ESA
방덕
1458
##맞
ATI
보급로
##상어
갑오경장
분견대
총사퇴
박팽년
늘어진
사리탑
데루모토
##1897
등속
##경이
Blues
슬릿
자축
재무장
팔로군
떨쳐
수족
종주국
##대주주
NTV
##255
##슬리
##로렌스
##개최
##當
에리카
##드니
샘물
##각지
발렌슈타인
풍수지리
정공
##영문학
##숀
메이크업
##세나
오타니
##다람쥐
1350
빈치
납땜
##토요일
대박
윌킨스
##시즈
##연락
파형
##SP
유시민
동력원
카사
토키
##이계
불가리아인
국공립
##였음이
사도행전
곤장
날렵
예물
무반
경교장
산업단지
ABS
장성군
##치앙
칸나바로
샤머니즘
##모를
갈레아초
툇마루
시성식
##정려
##-(
라드
HTC
프로스트
지도층
라돈
벨라스케스
정인숙
2023
GLaDOS
##위각
##카리브
바투타
벨트란
페텔
계단식
모텔
##손인
##참모부
캐피
##鬼
##조류
이코마
##융기
##帝國
놀라움
가려져
나달
자장
슈테
##卷
농어촌버스
카니
오용
##결전
수억
##157
##都尉
국빈
산모
멈춘
행해져
##西北
진야
회갈색
##치우
송신소
성물
전용기
카니예
착지
선악
행주
문전
인왕산
혹사
기요시
413
미온
우노
헤드폰
명판
리코더
연민
하역
울진군
알레한드로
도토미
끼어들
경주시
고다
귄터
삼니움
남과
기사환국
일어났으나
영천군
##아키
심해져
단위계
##대리인
불꽃놀이
공짜
이타미
2300
실용주의
설명서
과소
##荀
런닝
저상버스
오버헤드
##실용
##자당
아무튼
진제
##提
위키리크스
317
##마하
##싸
##비이
기탁
##昊
말라위
스페인인
IQ
유토피아
홀트
경춘선
진해구
유일신
도메니코
룽
무르시
하권
##庫
전문지
군포시
##著
티투스
##覽
극락
##서경
쉰
##釋迦
학무국
능력자
1552
##藍
알짜
##θ
온순
브레이
주재료
에히메
##오비
왕기
공산군
타닌
작도
제관
Woman
산토
##오크
성한
사냥감
황사
##jpg
##소니
##스킬
드레이퍼
담판
1280
두렵
##흉노
##라오스
콘스탄스
박멸
##홀름
##구원
##부대원
1459
화엄사
##무상
##포르투갈
소극장
공증인
해리어
연결선
불공정
UD
##瀬
##대위
##링스
발걸음
여류
신한청년당
노턴
1001
이동국
김종수
몽펠리에
다름슈타트
어소
미카일
건준
카산드로스
베인
##타노
##뮬
##앙고
정성공
베르망
프리온
심실
청라
##환은
호한
무코
냉각수
##정립
신해
##정에
에르빈
떠맡
Maria
##光祿
조잡
굳어지
스프레이
##縣令
장담
##題
로튼
수없
安
물러
사자자리
##지문
대했
##ml
연출자
기쁜
##Der
음전하
##성격
홍색
##명소
PDP
동맹자
이음
바우하우스
아우라
1691
##앗
257
떨어뜨려
##Real
이니셔티브
배스
유후
귀금속
##主簿
서성
니키타
##코믹스
용성
누르하치
스타워즈
울주
상전이
"[
##세종실록
세바스티안
어제
내무대신
##티온
이과
1274
마이스터
트라이얼
필살
##우의정
평왕
##라임
구인
##퇴식
유로존
##Al
과립
##루시
이징
천계
키타
이과인
이바노프
안위
급행열차
음악상
히코
매화
흑체
미정
토마호크
##자전거
계산법
헬름홀츠
방파제
##컨트롤러
##헤이세이
##당계
불미
흘린
린뱌오
참여연대
##代數
쓴맛
샤우
말레이
수평선
리빙스턴
과오
##觀音
오토봇
간암
Hard
##720
남계
##토사
설악산
라덴
##청학
초소
신청자
자유의지
##232
주발
헤비메탈
##從事
개혁가
김춘추
최종회
non
##포도
남대
지고
인과관계
변색
##동국여지승람
##어다
민트
줄리아노
넘어온
지중해성
데스테
천여
수공
바오
차축
브라티슬라바
루앙
좌장
##항한
일깨워
위튼
##밝
미오
수원지
구천
포졸
신흥사
##원화
##처녀
케어
##SF
섀도우
##당상
의뢰인
요기
##방공
##대안
발신
##사절단
Social
##아빠
##212
인빈
당밀
BL
요시토모
본기
고쿠진
이동녕
김일손
틸팅
스나이더
춘원
옐로카드
##티어
성만찬
토바고
성결
시맨틱
카프카
우구
4500
##비단
누아르
경수
나섰으며
##피리
##萱
##왕비
##조종
##昌寧
헵번
댓
VI
곤잘레스
하락세
##스포트
##Do
특채
물감
##악화
명문화
남녀공학
##스위스
단풍
##旭
원서
가로수
die
순치제
흐릿
복리
451
일회용
Get
어록
베셀
##축산
미세먼지
대내외
##우사
샤아
세팅
황급히
붙여져
입법권
대식세포
친아들
##천하
발육
사나운
##己
체면
##문단
##이조
시무
보령시
개사
극진
서너
집게
카인
메뚜기
사마귀
##璋
밸
급팽창
은나라
##on
서황
게레로
고즈
승강제
##학력
항시
오의
환온
맹장
급박
밀스
##재난
푸가
가공업
리자
##이명박
공대지
1475
봉양
##浜
리아
원론
AND
공작인
데쓰야
##전법
##동국
Field
알아낸
##262
##전리
피레아스
인디아나
##주립
##닌자
불도저
농기구
무정부주의자
당김
관부
##자상
섭리
상량문
잰
성읍
헤아릴
##고추
내항
매끈
##rd
에탈
315
쓰임
슈퍼맨
남악
##敎會
##아나
##절도
서슴
자두
행인
##생성
네스토리우스
챔버
컴벌랜드
레귤러
이승환
에트
베이브
덫
골든글러브
Fame
죄송
슈마허
후부
##진도
##접근
am
##한정
대포동
##렴
권율
응시자
아포
##급과
##都護
DD
BB
##放送
##언론인
##세사
힌디어
리바
미네이루
브레히트
nm
헨더슨
##독자
회전축
Library
총책임자
임사홍
##미츠
치룬
만달레이
##성모
펀딩
슈바르츠실트
##부기
쿠르드족
##駐
디아스포라
메클렌부르크
삼부회
바스티유
모르고스
##갈라
##암군
하야테
콴타스
평화민주당
##동우회
피험자
PAL
메아차
가우크
고카
##특공대
##막스
잡초
빙상
##첨사
소멸시효
아세트산
코네티컷주
무령왕
##브레인
##토너먼트
막힌
역류
국경일
평등주의
게이트웨이
내쉬
머문
프리스
##168
Head
주색
빈곤층
실정법
한가
1477
불스
살렸
스트로크
복학
괄목
##제안
불순
선험
띈
변용
미제
마쓰우라
축산업
##항원
앞니
##조사단
간섭계
척결
시오
격전지
프로젝터
##거든
클리
몰아낸
##공병
노부카쓰
맥길
여겨진
##181
##역전
your
라티움
풀렸
##182
만다
서핑
총회장
##育
송사
##召
경보병
##스페인어
두령
나당
##高句麗
SETI
##군왕
시마네현
1579
##回
보장왕
##순천
로브
##상환
전근대
떨친
카멜
##가동
부호수
회덕
서생
외투
섬진강
오세아니아
##바지
##조리
예복
수상기
중지하
느렸
고칠
급전
존치
비밀경찰
산란기
##은가
##공평
열기구
대들보
##項
영가
은근히
엄지손가락
여성학
개진
##커피
전산학
##가르드
방어사
카사노
##아홉
##켜
차대
SAT
##천국
남당
오치
숍
##후국
추토
온난화
##졌었
홍무제
중기관총
구축전차
사회봉사
매케인
계기판
애쓰
##rpm
effect
양털
##빨간
등불
궐
잔다
북벌론
방조제
분업
까치
아덴
##교지
우창
홍무
프롤로그
여미
아무래도
##甄
게르트
장주기
푸트
law
얄타
득점력
흉부
타이타닉
코랄
부원군
네바다주
기년
현수막
ACL
##농악
##수급
디스트릭트
제중원
발설
타갈로그
Standard
번져
성관
EFL
성병
라이온
심바
교도관
플라이스토세
레코즈
암프
박인덕
소다
타쿠야
경식
막걸리
네이처
홍천군
##엘리베이터
엘리사
단바인
재통합
매버릭스
##합치
블럭
바흐람
토치우드
왓츠
홍길동
##족인
뉘우치
##기름
TS
##항공사
##工曹
1716
##Daniel
운전기사
##간지
##賦
##본인
요컨대
루가
전환기
##640
오브라이언
##정치학
618
##생과
가오리
헐리
Movement
##실패
화학공업
만취
##투르크
장외
우열
근시
선글라스
문성
##刑
##정관
##海東
선속
논할
카우보이
절박
생의
##한국명
샤넬
##옵션
좁히
##화전
히로미
이바노비치
##타율
입장권
##선임
김일엽
상례
##왕도
##선데이
호연
백정
사무처
부동소수점
문예지
찾아낼
페도라
시마네
끝맺
모항
총관
반듯
##설명
팝스
##炎
오니
자인
##비안
1696
최장수
본과
##시멘트
##교관
틸리
찌꺼기
mRNA
일어난다는
##1870
통속
융통
화엄종
##리듬
##1884
명쾌
서천군
동교동
##培
조련
약식
##탈퇴
##프로듀서
##208
세타가야
고다드
올려서
몬순
트러스
테레
이산가족
통통
프레데터
##헌장
##간행물
송림
##대말
화나
결구
소하
단의
해시계
##트린
차용어
##三道
화엄경
빌더
요로
왕중
경마장
한지
고령군
수증
임페리얼
철사
중재자
휘둘렀
부지사
온통
안데르센
키토
전단지
신학생
팔다리
1508
퇴근
화주
법통
프레시
##범주
박아
선화
##폐기물
흐지부지
피버
플레인
##언니
##계위
용자
차서
1360
882
원심분리기
레온하르트
크로퍼드
하이패스
##사물
인천광역시
워리어스
주노
##분사
##刑曹
##미리
아처
역방향
송파
조리개
##표창
목마
좌현
1499
시종일관
영성체
유부
감싼
마츠다
한영
호자
배색
그리스도론
히라이즈미
ㄷ
김인
판과
##곡면
##고르
재임명
쿼터백
##노니
##보우
연옥
빙산
발키리
티미
선다발
##체스
카본
인기상
##함량
##판도
##크림
936
호장
필그림
가한다
오벨리스크
##티르
숙이
웅변
연회장
손등
논스톱
가재
##司諫
상성
측정기
역사책
쳐부수
홍채
925
##non
무르
절규
명승지
앞세우
##覆
오진
##니가
##깃
원줄기
##투자자
##ヶ
항고
마스트
민속놀이
후식
제과
마데이라
현실주의
리지
커넥션
##센스
##瞻
##한계
필진
간파쿠
흔쾌히
##충전
맞히
촉망
대가야
뮤온
오가타
레트
테트리스
##호리
관통력
##동정
##이이
지크프리트
##스턴
##메타
대학자
쓰루오카
병원균
세포내
302
##301
##회색
유증
수속
비니
##해가
리스프
##천도
##복구
##레슬러
드루이드
부르키나파소
시각화
뇌출혈
##天台
##618
##빙의
##어법
##明治
##後漢
제학
##Just
##니키
아티스
레빈
허덕이
##각서
델파이
트루아
##도민
극명
고래자리
Ladies
회사원
인멸
착의
##드래프트
##正言
BD
마멸
##妻
소도시
억지
매독
##후유
기울어지
##영분
##입니까
자코뱅
연구용
서평
424
파가
##사업단
1497
도당
피츠
인상파
##복음서
Medical
##Maria
##그로스
He
비결
아슬아슬
타미
박은식
도심지
공리주의
불러올
다가
##그로
OpenGL
테라스
내진
움직
보람
##─
##윌
킹덤
할례
요시쓰구
메노
마빈
백선엽
슬립
대장경
브레즈네프
브릿
툭
●
수구파
몽케
뷔퐁
##투리
피드
Apple
보광
바쁘
##Global
통가
사스케
검문
##파충류
봉고레
롤리팝
함석헌
홍영식
베를루스코니
트라야누스
한총련
통덕랑
##레알
##지모도
알리제
전민
##사위
##취록
##분산
정안
尹
현풍
교회사
##審
불포화
스티비
키라
산시성
##강릉
##설가
##訓鍊
서수
산서
호상
##산조
레겐스부르크
노르웨이어
플리니우스
Protocol
어겼
참담
##의존
##초간
##텐트
1370
1441
##IOC
특종
645
Mind
계간
##염기
혈소판
크라스
##판무관
가독성
소아과
페트라
##205
요시무라
가평군
화천
상심
고장나
##輔國
쇼타로
전차선
기다린다
로사
##夜
승차감
상징주의
##寛
##레흐
##핫
##예측
부칙
##軍器
오대십국
이왕직
양치기
조사의
임대차
##사이즈
정례
빈자리
진중권
프란
##라토
##아랍
동양학
##喬
신맛
##­
섀시
져서
"...
##포니
There
##意識
417
##원경
직항
##話
제플린
##성가
총력
미행
악귀
##로프스
등가
파이팅
##캠페인
##이노
##EX
##早
장릉
맹공
삼총사
커져서
##세프
비워
옌안
##가산
금수
##단자
328
##미안
아즈마
##모터
아마노
##納
##陰陽
##란전
웨이크
서피스
면사무소
요망
##365
바우어
소강
천룡
평주
모리안
총계
급진파
격심
퓨처
아관
반월
##司成
프리웨어
쉼터
##壺
##〕
느
##타원
남섬
쓰토무
슈리
유관순
캐번디시
애첩
파푸아
##대선
출감
연석회의
Name
전륜
1478
행정청
살바도르
비수
위너스리그
##레이저
연구비
급경사
최강희
피켓
##지질
##회인
타블로이드
예고편
쏘나타
AIM
피카르
팔라스
광섬유
당분
##레노
은하계
##보이즈
류리크
암송
직업훈련
겨누
섬광
건졌
토러스
##낫
##임이
카르발류
##活
유우키
생성기
##쥘
네버
##集合
닷컴
왜행성
메이시스
엘륄
난수
압하스
Hz
임차
무협
트로츠키주의
난제
Order
type
421
히비야
##도면
침례교회
1695
산수화
식중독
보수가
마유
호퍼
관리법
초서
엄청
마마
어버이
##장벽
회답
배팅
건달
김정우
발코니
구설수
##수신
미확인
가라쓰
다라
##만료
##시탄
Plus
쟁쟁
##스스로
견문
암술대
##가타
326
##포티
구매력
##휴가
유훈
얼티밋
디카프리오
토했
Three
907
정결
꾸러미
진서
메시나
##토요
훈계
파리스
트리폴리
##소설가
사람됨
##정면
##블로그
유성우
##히로시마
기자조선
1377
중파
이부
조칙
용언
순무
##위스
항생
##傑
근기
##유구
매사
##거짓말
돌아왔으나
악순환
골치
Face
통사
군청소재지
##상단
예후
factor
##筑
##무시
이오리
굳힌
공도
에버랜드
왁스
에이다
두들겨
시로
2700
##6000
##7000
##냉
Point
주목적
나았
종지
##緣起
로사리오
동그라미
리트
아첨
##공헌
운집
##자아
동편
##신임
##肥
##1636
##蔚山
이동과
##総
##行政
요시유키
##Queen
##料
나타낸다고
바스쿠
##심장
##매카트니
254
갈매기
함길도
고쳐서
얼마간
##후군
1479
치켜
합쳐져서
인쇄술
환희
장도
##창단
##투사
##기념일
GSM
기녀
에페이로스
지참금
스트링
이뤄질
사우스다코타
해파리
미코토
##Man
Let
수신자
트레이딩
바르톨로메오
세공
송달
머리칼
낭송
##스퍼
왕세
##墨
둔전
유일무이
##버거
ITX
##광업
##국부
약소국
787
##拉
##위협
행정소송
이어폰
##테크노
바야돌리드
##><
응했
루커스
소래
로딩
인쇄소
관구검
나바호
판타
소작
우베
##픽셀
알하이삼
한독당
##김구
XX
장완
특진관
##페란
대리점
파킨슨병
서광
협성
생드니
log
백산
누르스름
알렉사
젝스키스
페널티킥으로
##AKB
배낭
음핵
246
프리먼
##코인
페아노
웬디
참수형
##성회
##"></
RB
삼풍
묵상
개역
##트릭스
네이마르
호비뉴
리엄
켄드릭
본죄
##급주
나이트클럽
자책
##유와
동그란
770
강속구
계룡
##稷
딸려
영동군
평준
훈육
김무성
새들
돌변
놔두
앵커리지
동업자
##제목
도지
##중심지
구류
##르미
##勿
크리슈나
##前秦
평원군
##핑크
##동아리
아크레
##구마
디펜스
동중국해
##넥스
만든다
굴레
짊어지
참선
1734
##짱구
사마르
##먀
조수석
여러모로
266
선용
노파
##원왕
북량
비틀림
주려
모셔진
##물류
심지
드네프르
된다며
231
1686
Energy
앞날
무진
##도제
복간
들린다
##1864
부령
용강
##忠烈
표제어
핵폭발
청어
박동
광역철도
급락
##협과
##打
##연안
대숙청
실신
설계안
##슈미트
채식
미스트
꼬집
의문사
##乘
성리
##1892
Max
##檀
##캥거루
전일본공수
##살해
아도
Heaven
##葬
평양부
평전
적출
##짧
마리야
##천재
순시
##Please
신경전
##내지
황룡
윌버
승병
##중앙선
이뤄냈
지침서
오야
발사장
이렇게
영명
히토미
교분
국방과학연구소
태권
만유인력
담겨져
새겨졌
스웨덴인
##東海
강건
##冬
헤라트
나발
변인
##兒名
##서당
언데드
밀의
##만일
벌려
이젠
##로자
찾아간다
우마이야
중징계
##마전
회맹
샤푸르
웍스
적통
떠도
##투용
생활고
음영
불복종
안네
시보
근대식
끊어진
WTO
##토레
##모가
비토
불연속
산청
암호명
##通鑑
##클로스
##신비
법계
극단주의
연극인
##소방서
##크라
솔라
각별히
##경은
##럿
야마하
반값
튀긴
##대지
##Digital
1502
플로렌스
태백시
회전수
칼리아리
Run
##숙과
켄타우로스
급부
후두
##카리스
접사
##濃
대륙법
분광기
트리거
율리우스력
##착역
ICE
서대문형무소
##오직
\
##라코
##노름
천연자원
SSD
핑둥
박종철
묘법연화경
벤허
바느질
##理學
##223
대표부
방어진
##悅
한림원
호치
##렴구
밸런타인
코닥
살라미스
요사
상병
##나갔으며
##巡
##전위
##엇
천진
올림피아드
역장
풀어내
##벨기에
##최의
엄한
##암성
베드타운
남겨졌
농후
수술의
322
사탕무
##스마트
멍청
##Frank
마쓰자카
이장하
손침
탱
수송량
##완화
나카야마
코스튬
아베노
##破
바친다
##제명
##水原
용두
옮겨와
1447
피습
머무를
##丹陽
인피니트
##이무
사회상
복수심
바벨
결행
##軍事
궁수
추문
481
##이민
##확
해령
피커링
산림청
##事務
##둘레
##욕구
상행위
##네이
빠져나온
두음
의견서
##보수주의
CFA
칼라일
##면체
방탄
고고도
방류
천신
중랑구
야욕
격한
대계
아줌마
##소부
안첼로티
금산사
윈체스터
몰다비아
적나라
Division
##한스
도농
##케어
음보
376
Il
떠안
##면장
리콴유
불하
일어난다고
우지야스
미네소타주
함성
##어진
##158
곁들인
액트
##條約
##카펠라
니트로
##간담회
미련
##작자
알칼로이드
Yak
##루아
탑비
대업
국민학교
##비로자나불
키리
##290
퍼뜨렸
시군
대곡
##及
파울루스
##치과
동침
내려앉
##擇
경계심
##東方
린츠
##예상
Stadium
##자비
조충
##1898
강북구
##강남
부지런
답신
랑스
단합
누군지
##NASA
성장세
##증기
##옥시
##제비
독사
절인
##사무관
##184
##善法
소종
푸에르토
##주파수
스타크
##발레
금제
레나
##암산
옥살
씀
##京畿
##플렉스
더듬이
제련
팝업
##비키
내셔널스
##실버
셉
포르모소
##대원군
상계군
자화
라이트닝
##공국
간기
시크교
BLACK
김명운
유키치
드림캐스트
축산물
이윤열
오순절
블라스터
안토네스쿠
실재론
MSX
##치오
##교역
맞춰져
리미
Got
손색
##프레스
슈에이샤
철조망
##중군
346
Train
MR
냉철
##레이아
파우사니아스
희롱
에머슨
적수
##顯宗
1397
플레처
##新聞
##트랩
로키스
송대
부정행위
준설
조감독
내비쳤
IF
때렸
실론
지나쳐
Rose
태울
##로이
syndrome
정예병
군사령관
스타니스와프
매미
탈수
자민련
고주
이성애자
##조계종
국내법
구조주의
Marie
간레이
매머드
호메이니
##사랑과
γ
Lord
옥저
##중재
삼별초
쿠시
머드
新
절충장군
장로회
진정서
처절
##謹
내선
##청자
도리스
문화어
##공학자
머독
플라스
어레이
KeSPA
손길
사사로운
경륜
소좌
척신
CC
##성지
새싹
그려서
적임자
##사이다
##221
##멧
##마식
아라시
##구부
##정계
지어서
깨져
##코보
혼혈인
압제
선경
오이겐
향락
에티엔
막시
비합리
여실히
레베카
##禁
##실행
##직인
젖소
##퍼스트
관이
수형
여우원숭이
##리엘
이종찬
라슨
기아나
앨리
습하
지부장
##등성
Economic
배수로
여의주
소형차
장기하와
##백과
1489
##게스트
##공회
##점성술
지그
##텀
블런트
##내외
룀
잘라서
신법
##업적
들여다보
조복
##경기만
에스프레소
##가우
레노
아키모토
잇키
##정목
개회식
황교안
뮈라
레예스
유투
베르트랑
##글루
로부터
증보
맹그로브
##뷰트
약진
##자구
안토니우
야스다
시몽
고황후
##선동
하로
진수부
##姚
카린
곽회
오톤
로스엔젤레스
스파다이나
입기
##전승
##중화민국
##선국
유보트
적선
동석
베렌가리오
영춘
##원시
308
##공사관
최창익
미륵불
선더
원재료
참주
홍범도
SSR
내륙국
약해져
##동맹회
자이르
비요크
케인스
정다각형
서로소
##크라테스
에니그마
면세
영화인
귀주
견습생
스네이크
전무후무
PT
1416
##最
경사로
알아차렸
Studies
넉
활주
##AM
##蕃
##던가
파울로
##大都
아르덴
##平等
말렸
##경영학
충무로
벌어들인
##옛날
청력
##기존
편모
해조류
미이라
양구
European
##디자이너
##노라고
묵묵히
동떨어진
토스트
치앙마이
화목
##상임
야스시
##미노
효수
관람석
##원지
심포지엄
산노미야
극렬
소윤
부총관
1180
중핵
##이에
느긋
증손녀
문화인
##党
수달
##슈퍼스타
사사로이
베이즈
##史記
##菊
##퍼와
##붙
기산
전투함
웅대
##카피
불시착
##우참찬
배신한
FDA
Record
##아문
##펄
이튼
탄천
##정전
증조
게일어
DT
##和尙
세친
##화현
음악제
##진흥회
##'("
때론
##文字
##WHO
##국무
신재
비젠
모트
노부야스
##庸
아라스
##품은
정탐
어법
926
새미
아티카
##키스트
척이
ISS
요양원
##부설
경학
##스프
호안
992
발렌타인
군공
애제
상제
족하
선돌
황진
상순
##Life
아브라
##歌集
가섭
중상주의
대첩
##DO
알로
##재직
##르네
##밧
공위
##대사성
최상
##명예
부담감
장개석
누룩
난처
##헌병
##215
지경연사
심심
원할
티그리스
##헤르
일몰
거리낌
##우익
고티
과당
유급
##라틴어
날뛰
장훈
서남서
켓
##지성
##mph
##보육
##스피어
절정기
##무인
##시네마
기스
PR
트라이아스기
언더테이커
##스프링
호베르투
##Mary
공격진
##극한
##鏞
##피고인
##148
바인딩
##매김
시즈
##페스트
##TR
컴플렉스
----
카간
검도
봉송
섬너
##蒲
숟가락
은광
혜왕
은신군
음량
카뮈
카스토르
케른텐
##베츠
건흥
퍼블리싱
금식
종탑
무신도
루지에로
실레시
##절과
##레진
취체역
##재청
쿠르디스탄
군통
JNA
마르셀린
안기
선댄스
##통산
호도
선처
마쓰시타
세자르
##악마의
##동서
아미노
힘겹
저력
정반
함평군
##視
##1872
저항력
##home
##타니아
신플라톤주의
애석
##혼자
밀짚모자
##해낸다
상디
갖춰져
아오바
기관장
유람
##穴
손익
##보원
민방
자야
득표수
석탄기
마름
유제
##제하
세나
공항철도
카지미에시
FN
즈베즈다
##물가
라이오넬
농장주
군종
벽체
UH
도대체
광의
표로
라일리
Here
상락
브라더
연구생
타순
고라쿠엔
찔렀
테세우스
##아와지
군민
김동인
##義州
##정유
525
다자이
##999
저버리
본처
##아산
싸워서
동평
김진표
248
통훈대부
##골프
요한다
심폐
오작동
연타
##카인
우스꽝
##행량
비엘
문장가
군량미
신분당선
남겨져
침엽수
##山里
VII
수도권
고공
코언
##재로
##＝
놓인다
꽃줄기
IA
##하프
불교도
##迦
대천
면밀히
##해왔으나
##1883
증후
미야케
1368
##1593
잠수정
미식
##앉
391
가무
##실무
서연
UTF
우루
1412
##차나
실망감
동심원
카빈
##중추원사
국전
##명명
Cross
세잔
관악산
##천현
애당초
흘
##蹟
##혼한
흡수선
야나가와
##Advanced
장기전
발굽
근력
##163
대내
단두대
Level
##개체
##상식
베트남인
베트콩
꼭지
아랑곳
##惑
토지개혁
태부
작업자
1421
##소학
이재용
셜리
##솔라
##축전
데이비
진취
룬트
동기생
울렸
본산
##루크
##깅
δ
과수
##후부
메르센
라바울
공창
테오도로스
##예보
##잡이
댈
타오르
##無爲
탐탁
##作用
배워야
총회의
##퇴한
조속히
라파엘로
혜공
##雷
his
분란
유색인
율리시스
바인
효과음
말콤
루퍼트
state
피우수트스키
디드로
##渓
증감
약소
의정원
최충
펠프스
유비소프트
동대구
부케
kW
미노스
스톤월
서지학
지하드
아이덴티티
##雕
영호
탐관오리
르장드르
차크라
##證
OH
이종욱
염보성
점화식
갭
윤영렬
##相續
##돌고래
사양인
뇌척수액
스케줄링
해리성
투르크멘
법부
순순히
찢어지
어번
지정석
##치사
심영
##建安
소폭
지킨다
알래스카주
KCC
조몬
칸타타
##장조
간절
양양군
음률
통념
##전반
덴엔
1488
삼미
제스처
코메디
동단
##이파
섬머
생년월일
자줏빛
조휴
##TBS
망고
머무른
##노우
하이드록시기
진드기
소노
문수보살
쓰였으나
##전집
기본군
control
##沼
번스
##세키
해상자위대
##건안
볼랜드
##熱
조쉬
비상계엄
연락처
엇갈렸
깔린
##菜
제라르
##工業
숭덕
##창원
컸으며
##후원
1693
낭만파
벌판
팽나무
종도
BK
##坤
짰
챔버스
코르넬리우스
##DX
오이마치
가스미
##1869
노보루
Express
죽도
뱃속
식기
우월성
부수차
붉은색
포환던지기
##당사
겹처마
NEWS
망자
호법
##228
DMC
기로소
##항상
에렉투스
##시라
고참
##미트
좁혀
광양시
시공사
투석
무릉
method
수인선
금정
##나루
##龐
실수체
##동형
고밀도
##마라
崔
##단독
##중세
스콜
##단조
Canada
추녀
##改
##국사가
뉴델리
부석사
김육
##잘못
지녔으며
고쿠다카
티코
##服
극력
박정현
##그대로
388
록키
##불도
##지드
##마리오
##Radio
고유종
##浅
배나
투치족
##러키
##^
각처
용문
##地藏
배추
끌리
##공명
County
바이칼
도왔으며
기노시타
##堯
마제
수확물
분국
##才
도시샤
일출
맹수
##장학
관망
문민정부
##근육
왕준
성진
수미
플로우
##코지
바루
##합창단
##묶음
템스
페라
광서제
외조카
톱스타
##본위제
에조
알아사드
##여학교
배구단
도키마사
##이페이
group
람베르토
##퇴화
GHQ
##British
##HMS
카이엔
기혼
위고
볼드윈
르누아르
섭입
위스콘신주
보호법
##>*</
##발원문
적법절차
##부인회
포옹
싱클레어
바하이
##크세르크세스
가라스
질런홀
패딩턴
##더빙
시달려
1410
윤관
##기동대
어이없
시가현
학예
변주곡
##Home
오구라
##편입
맡겨졌
편협
고된
네드
##Alfred
가로쓰기
1473
888
연기대상
장진
지금껏
Style
참새
나온다는
천상의
모리야마
세속주의
와카사
WCS
리아스
오하라
고니
상황도
심플
상생
팜플렛
Fantasy
##陣
생테티엔
##클릭
사냥개
급서
##케이블
《》,
숭정
##속이
경기전
면해
메인주
중병
Plan
고교생
엉성
정석
외사촌
매부
치성
크론
##야르
##국토
##浙
##스트라이크
##선거관리위원회
##열도
우문태
올려진
##스미스
국민혁명군
##투성이
강학
##覇
##우윤
조끼
예브게니
육식성
소지자
무기력
동도
월마트
채드윅
오가키
밀봉
##대초
칙명
590
##典籍
##수치
##합당
담황색
##지체
두통
Johnson
히에이
1351
고했
헤이스팅스
바르바
수르
버트
Limited
왕따
백의
##방사선
##산도
무역상
성동
##남도
284
준이치로
티모
음표
##브룩
무모한
마쉬
수용기
##추방
701
장애인
##민요
잊혀
##읍지
연화문
엉터리
고지마
##Alexander
도로변
미트라교
망한
됭케르크
향할
##교계
현시
##성취
스트라빈스키
##양상
오코너
가린
초두
국수주의
차관보
입김
외설
경축
##단기
무역로
허난성
레어
격언
환인
정중부
캔자스주
오호츠크
플럭스
항성계
자딘
공작부인
에버렛
크렘린
가와구치
대미지
쇼헤이
##령부
분자량
끼쳐
준공식
믈라카
마루노우치
소비재
아틸라
장항선
Bell
1448
몽환
콘돔
페트
파치
##관청
파우더
에로
##세비
성덕
##관현악
##장학금
##사무국
홍산
산호세
Baseball
나일강
모집단
##윈드
악티늄
비행대
아사미
로물루스
날아갔
헤르미온느
테레즈
##브레니
미라클
연방주의
진경
건너왔
괴델
LGBT
라키
전투복
##배포
카탈리나
시스코
볼보
사마르칸트
MBTA
보험자
토티
시슈
동관왕묘
생필품
##휴일
강단
국익
##㎏
##총제
##수서
이스트우드
빌렸
리디
조타
제러미
##직도
오아
##世祖
드라마틱
멀티태스킹
식과
사회생활
사통
소방차
오키타
영양실조
왼팔
##저지
##당함
다신교
거상
전고
##泥
양식장
1310
자국민
패인
외향
대검
명석
산탄데르
커터
##Back
소금물
실용화
##黒
시모쓰케
동원령
##크리
물러났으며
상중
김도연
##189
이지만
괴짜
은지원
육중
이보
에펠
블로거
보국
도밍고
월화
##계면
##近衛
남동구
바랍니다
팔관회
합포
모병제
##迪
창백
병진
만화상
대륙붕
##mi
##通信
구상하
Rights
SKT
교통편
스칼라장
##采
외롭
하야오
##로비치
키클롭스
훈독
갑술환국
古
다이호
맡길
910
괴사
갈레노스
##코우
##文武
##종사자
신창
빨래
부주의
##희극
##陸軍
533
7500
##142
동우
리리
##세아
##출처
뤄양
335
내장재
##대종
##트랜스
담담
##앤드
중도우파
##레이드
라슬로
1382
1391
##諱
다카우
치러야
할렐루야
세르비아어
##戰鬪
오갈
##몇
##항만
위가
카펫
##ノ
원핵생물
이덕형
##개통
동호인
##개혁가
##143
##237
호시
세이초
##展
##원작
성황리
About
불어나
##베이징
##반도
김원
##番
니그로
주리
세이셸
##도마뱀
##政院
얽히
외삼문
돌방
악평
##행시
##역원
##크래프트
피로스
머리뼈
커미셔너
##害
위령
휴간
과중
헨리에타
니켈로디언
##다를
잔학
##Δ
다원
Area
오월
박지
장고
##붙이
갈증
휩싸여
California
프론티어
강둑
안공근
태안군
팔라비
1424
##민족주의
황룡사
장터
##충숙왕
통장
비협조
표도
메타크리틱
고다이
1423
##페니
##수련
##阮
텍
우스터
동축
##물체
##리브
##소사
반스
슈렉
##바인
총체적
노예주
##컨벤션
EV
동대
장종
##속인
##모시
육영수
숭정대부
잡혀가
고마쓰
누벨
경차
아세틸콜린
보타
아메
에피쿠로스
나탈리
글쇠
반응식
##계승자
배꼽
타투
루이제
##자유당
켈로그
열병식
슈가
프로시저
라팔
멧
딤미
펑톈
칼튼
타밀어
##티티
임차인
##광은
슈퍼볼
알딘
스냅드래곤
##안국
##슝
왕징웨이
우파니샤드
윤치왕
이인임
루틴
헤세
아드리아노
알레스
사일로
어벤저스
위상군
흥업구락부
##無想
홍종우
러브크래프트
개금
##전시회
어긋난
청록색
석학
##클리프
얻어맞
테러리즘
정신력
곡산
##신당서
##世系
##Born
결절
##文王
왜인
트라이앵글
시네
의학자
묘표
팀파니
전반부
##Max
ATV
치자
##Old
바리톤
1490
##咸陽
##우동
조력자
##꺼
##뉴질랜드
시끄러운
Brothers
엿보인다
##진정한
##宇宙
##단결
고농
##가와
청년단
김수현
덮치
수비병
육교
원생
아이유브
눈치챈
티모시
##강당
불거진
투철
부젠
받드
아이드
럭셔리
##온과
##테루
대한체육회
사이러스
조선업
Collection
##納言
닻
Seoul
미지수
##규슈
중앙군
##淮
짜여진
통할
안변
양전
##童
경흥
브레스
수천만
##153
##실라
스냅
##교부
##네프
정양
헤르츠
##구균
진찰
빌라르
##560
류현진
꿩
##키카
절하
UHF
날인
한국과학기술원
나선형
문화상
AOL
411
##修道
저스티스
스노리
##頂
라이카
##요크
컨버터
##잡힌
세단뛰기
회항
##食
1348
1308
속수무책
동정심
##1597
셔플
##포수
마작
반올림
가라오케
백은
탄피
磨崖
##1882
찬송
뜬다
남정
굳혀
##God
PAC
대공세
에스테
율리아
##高速
셸리
RIAA
반자
돌격포
##마틴
##등록증
##붙였
##리포
뒤섞여
루이빌
레드햇
##수목원
1436
국립극장
##아로
서초동
야습
보내온
라흐
##조군
수면제
줘
망신
챠
채록
확률변수
찬동
##수영
별관
기자단
도토리
##순양함
선라이즈
해롤드
즐거워
##창출
vol
마르타
카발라
##미디
##구국
원활히
학우
속리산
서경덕
방어구
낙동
라미레스
##参
##총회의
Class
##국정원
외채
##배급
사이클로트론
일람
브리티시컬럼비아주
##포털
페르마
삼매
페기
안도라
1150
1275
Medicine
지명인
##~〉
##아비달마구사론
농락
치요
매국노
칼만
박카스
##리퍼
코즈
로테르
##section
MY
히스톤
코덱스
##Samsung
##일직
글리
##南海
적어지
##명도
몽키
뒤떨어지
1731
##포즈
사토미
자초
##주조
1407
##漆
##리마
쇼지
중요도
소일
마이즈루
틀림없이
##影
동두천시
문수
치우치
빈민가
##영지
##공산주의자
중도좌파
##Jan
##적설
골칫거리
스퍼
##교식
띄어쓰기
던져서
구위
문경시
##솜
##물고기
조직력
쿠르드인
도리이
##피코
##坐
##연재
##특허
진출로
소매점
늘이
##기나
필러
장석
코스로
논픽션
##遂
어거스틴
##아전
사우드
##뻔
미추홀
##교직
대별
##星州
##通政
글로리아
보여줌
##유고슬라비아
특강
오카야마현
비탄
계신
하옥
298
MI
골재
캐릭
쑤
##센트럴
memory
##낙하
망간
홈플러스
라사
408
천부
구소련
미공개
##망은
사용료
괴이
한국명
##橫
료타로
선봉장
후진국
##연구실
숙식
라크
##역상
Lady
레이턴
앞장
통진
##포지
Prince
##리우
드렸
청바지
통견
##輿地
정미
병법
외로운
합본
긴박
필리피
옮겨온
##강력
흑갈색
비에
##1392
##대략
##용시
휴면
##벽돌
여행사
프로파간다
##澈
아리엘
##멕스
에드가
어두
목천
##꼬마
샤프트
299
1429
수피
##로다
##김해
구이저우
##주정
레이너
##EC
PMC
록과
도토
브론
아나킨
##EP
단군조선
무위법
##훈련소
소우
##쿠가
격납고
연거푸
센세이션
브룬
##이상한
##관동
량강도
##재해
로코코
바이애슬론
##科學
신학문
낙담
류경
축전지
역함수
후고
보건소
공작물
##거용
비쌌
Please
##바오
호지스
한국예술종합학교
증거인
네이선
##석탄
초거
초퍼
##←)
압바스
##승격
##묘법연화경
1024
덤프
##기성회
윤용태
뉴브런즈윅
캐츠
관성계
크룰
포카혼타스
##야인
마농
오오쿠
로터스
##色界
유구르타
앨비언
이스타
##146
움직인
간다고
겨드랑이
임실군
장수군
사손
좌랑
군웅
##산품
빚어졌
부정의
810
오닌
생디칼리즘
##校理
##권기
##아다
Revolution
Place
하도
쓸쓸
식도
산다는
병아리
낭시
아칸소주
##목이
##레우
##壁
##파견
##메오
집권당
턱없이
청년층
##자며
레크
빠져서
철도망
학군
결박
##스트링
메릴
송전
##묘역
##접속
수경
##입력
신이치로
월화드라마
1364
지청천
##사후
순창군
920
##도노
강해져
면밀
단초
빙자
자형
740
##禁府
##정우회
##복싱
331
##흡수
저급
##文獻
그라비아
황초
채무불이행
논거
##게임즈
거북선
##豐
동란
##공대
##体
좌군
머릿속
##스탈린
##행각
288
##404
료코
##과실
##할인
##라메
달마
##학급
기울인
수도승
##1880
천안문
##一等
마누
##레즈
튀어나오
바코드
지울
1405
1362
청년회
산노
##문지
중화학
캄브리아기
##도령
열화
픽사
CGI
##공익
하륜
줄줄이
##346
어느새
면석
3200
##탑비
불탄
##광과
##에스테
라나
나위
키프
##네코
극지
경제난
끼우
바텐
##어류
후지이
조각품
약효
##羲
##의대
홍위병
대조영
Central
알스톰
##켈라
안마
고쳐졌
##淡
깃들
##신단
정암
##등판
243
##창이
카가
도그마
다이에이
이코노미
애완용
클랩튼
SW
##모순
독극물
남한산
BBK
리지웨이
##방이
베르트
j
각본상
##City
##대학인
카다
##와트
##IT
쿠루
##클래식
임상시험
루미
##솝
1738
누수
뱃머리
##토비
##우타
##와카
앳
토트
헤로인
스네이프
##정착
##레브
선린
##식민
##exe
박용만
사증
구이도
삼척시
이봉창
세네카
##코스트
민립
1408
레옹
노기
##슬링
사일런트
반바지
유흥업소
김립
채프먼
부비
홍가권
번사이드
##레츠
김용철
회전자
비트맵
그래핀
##增上
##로모
각역
##使者
##押
폐역
##불명
하안
ad
Pop
485
##特
포항시
프로모터
##모세
집성촌
꺼렸
마계
부응교
261
##Bill
##鼻
##산수
##이소
##선명
녹이
신일
##연한
##춘향전
쌍벽
##불과
섹
몽타주
대림
직공
봉합
카시
필라
페티
어획
상지
심미
SOS
##Simon
법문
한기
팬케이크
KNN
고결
타오
##구청장
YOU
다큐
착색
미스코리아
울분
사우나
##살상
##수용체
도시조
옮겼으나
야마나시현
##나시
##〉)
에드먼턴
닷
##只
##Ernst
중장비
햄릿
눈빛
##이내
Stone
창던지기
팔랑
##담당관
기다릴
##무술
후설
위만조선
양강
거역
기악곡
##사상가
유노
##熟
영아
교하
주어질
##約
국립대
토박이
타라
킴벌리
1472
##쿼크
코모도어
##도쿠가와
브루스터
고다마
프로토케라톱스
##그리드
MRI
##커뮤니티
##234
곤봉
텐데
##썬
동천
포트리스
속히
대덕구
##쓰레기
##부아
406
##보그
프로비던스
리플
##노벨
##더미
외지
##변신
##209
연설문
조병창
논했
하마스
가스펠
미호
##불꽃
MOVIE
##바른
근친
##장대
KV
Bay
830
베티스
##州都
##播
##강원도
##천동
광역자치단체
보크
에번스
##세적
끊겨
야만인
##바이에른
춘다
돋을새김
##본사
##한다거나
선주민
추기
젠트리
1698
보도국
혼천의
모친상
요시토시
##백자
##성부
중랑
##Who
1491
##인삼
번거
532
무연탄
2800
##후이
강소
전초
나카타
티나
게토
쌍안경
미행성
수하물
운남
키츠
##구조물
주원
인순
팔려나갔
칠면조
1425
마크로스
절판
아델라이드
방송법
산업체
##포프
단일팀
개각
중계소
센텀
호스로
화성암
342
##캐피탈
Internet
아마미
동래군
##노다
신호등
미타카
영수증
##포맷
떠서
##둠
솔즈베리
##세인트
앞잡이
건너뛰
##kV
받아들여야
악연
카오
총구
김형욱
셔틀버스
돌려서
계피
##예약
카렐
스펠
이시야마
Ball
카르멘
조로아스터
캐피털
탈무드
##專門
구세군
Stars
김활란
슬래시
##카츠키
놓여졌
하바롭스크
##만스
디아도코이
RFID
스테고사우루스
카도카와
총서기
바이어슈트라스
로드스터
주병진
##Fort
##아세톤
스틸리코
라이엇
소젠
문익환
행이
료스케
카사블랑카
1130
은자
##孔子
상호군
제때
PNG
일률
##보스턴
편법
사출
##成宗
수신료
부천군
은제
화물기
##기심
옥시
##블레이드
오디세이
##修撰
치제
녹음기
##韋
중력파
수필집
낚
청년기
삼천리
군관구
소상
연가
감미
혁혁
크레이터
##쓰키
조림
페레이라
out
##중장
발자취
핑거
##인지라
##笠
송악
##일리
##보부
##로선
밀려난
원양
##목성
##로울
이복남
신보
##飯
##키요
소북
공회
롯데마트
##라곤
##2020
지론
라다
재령
근초고왕
강릉시
주안
##따라서
왕경
후진타오
##사간
##소문
고맙
신태용
아문
사복시
강산
비만
홀극
##블라
을사늑약
##188
어트랙션
밑바탕
힘썼으며
기행문
##지장
사문
페이로드
Press
조희
불러야
횡행
광천
장황
군가
동물학
인세이
요시토
정찰대
##접
데미
new
티레
내보낼
디제이
시빌라
눈보라
##파이프
##한인
흥덕구
##궁을
건넸
포피
지구대
코만도
##항공우주
高
복서
##대문
##국통
##미포
##정찰
언뜻
##政策
청천강
이항복
##촉의
안정복
천문관
사비성
검독수리
부시장
노스다코타
고금
정치력
한없이
롯카쿠
헤드라인
잠재성
테오도어
##고법
동아일보사
조선말
고행
이단자
##하중
심장부
##포식
Valley
커녕
차린
##저리
옌스
##화기
좌담회
떠들
TO
터무니없
##원적
능원
헬리
##SK
레퍼런스
승복
직시
꾸렸
##사드
과녁
플라타
맥시
KOF
쌍둥이자리
data
주격
CEP
DLC
##게스
##山郡
##쥔
벌어들이
맥동
##보험의
##코아
기관구
김학규
과격파
쿰
라멘
281
웨식스
버킹엄
오시리스
임전
아니메
##px
칼데론
튀르
유수프
대공비
##데크
칠성도
최시형
극지방
돌턴
##유대인
뉴사우스웨일스주
##레리
여중생
미로슬라프
세계무역기구
밀렵
놀도르
모노클
카르티에
바고
페더러
古墳
평년
타케루
헤아
베아트리체
근관
피보나치
해곡
연탄
써니
중개인
##한큐
파행
##마니아
다녀
보호의
맞물리
##1856
##수대
##219
Richard
##162
치우친
개기
관세음보살
##진정
급류
품행
구어체
용골자리
##US
내습
과묵
##라디
##암리
##例
##자락
용광로
##염색체
##놉
시게
지구당
##리부
##伝
##코가
##젝
진시황
벳푸
싱크탱크
##이기도
##첼라
합숙
MPI
##벳
감녕
포르타
##完山
수준급
긴밀히
##홀로
청양군
##靑年
욱
##鉄
##167
시민군
프랑세즈
##郡王
부곡
##암사
황현
##〉.
##悌
거야
1376
##정벌
##159
건져
서출
신교
이치카와
##수찬
유형원
지네
황량
카오리
환심
##222
##선상
순욱
초평
욕조
##Can
선승
##自性
##禪宗
##婁
##쿠리
포서즈
##재앙
퇴행
정경부인
##위인
사교계
태양질량
##忠淸
공진
내치
험하
퇴보
시게노부
문짝
##ve
로켓포
경기관총
Mary
보이지
패기
신천지
##衙門
over
##성광
##이타이
도랑
##사본
##정예
아만
바커
방석
척화비
상업시설
##국교
##레터
방제
어빙
##화약
476
구름무늬
##178
서학
과로
Friends
##계주
지물
초로
상근
피츠제럴드
no
##편인
502
마부
Cat
정초
한어
장티푸스
돌아갔으며
##參知
피아첸차
세이건
El
밑거름
시강원
대지법
##無記
폭염
우치다
카디스
부포
길리
##어학회
##여가
##들러
라스베가스
포트노이
도트
조흥은행
슬로프
##텟
크로네커
결정체
##첼리
##측량
뉴어크
트웨인
Hotel
##회원국
##헥타르
에즈라
##函
##web
피구
광역권
사파비
토포
햇
rate
철골
환시
음가
Qt
산삼
쾌감
체칠리아
해서웨이
현미
반남
NO
허드
라파
##개역
휘그
##유자
뇌종양
오리엔탈
Google
##신궁
##스티나
속사포
조광윤
RTL
SJ
울스턴크래프트
슈바인슈타이거
엔셀라두스
점재
##堀
##비평가
##재인
현측
##출혈
공공시설
첨사
심벌
간세이
##냉각
하교
사티
Mobile
갔었
##해라
터보팬
1122
데커
Taylor
밀매
굳어졌
기른
일거
##바나
감은
문득
##호흡
－
##苻
병역법
##신설
무너뜨렸
고추장
촌의
독선
군상
##결사
김현철
기호학
콘티
##해수욕장
##194
632
닛포
Kids
코칭스태프
##倍
광궤
바얀
금석문
1438
덮친
##수습
희극인
나카소네
여울
극구
뇨
##논란
장가
ONE
물든
##靑磁
730
##플레이스
스피어
정준
감량
함종
주기성
사전의
##동향
Years
최하
쌍떡잎식물
##도심
핏
알키비아데스
밀로셰비치
기포
패전국
과부하
프리드
아미가
언론계
루시드
수용성
##니라
단세포
질려
##8000
##207
열등감
##숫자
성불
##올레
힘찬
구휼
##우물
1127
아유타야
##이큐
세디
스낵
포르투갈령
왕대비
종중
들여오
##니나
##파드
대연정
치료비
##방송학
광신
##이주
##Take
무혈
의열
수출액
##성면
##176
##속성
##Green
베네딕
시모어
검의
BM
정보원
창조물
성덕왕
밝힘
능이
가감
동법
##지라
##대제
##CPU
쇤
베사라비아
사모스
본심
418
지켜냈
##선교사
##문사
올라타
명세
편익
뭘
가타카나
##사전의
산티
범천
올라갈수록
1484
가망
시나위
기니비사우
개풍군
##구회
먹히
지의금부사
##야우
##우회
고위층
저런
##전성기
당태
##랜즈
신차
Jackson
쉽사리
정수론
도급
양형
##코더
솔트
만족감
쓰키
1378
##프로덕션
Server
산행
왕당
껌
마데로
##'"
MAC
펩시
루체
##Tom
광개토대왕
바실리스크
끝점
##내려
영월군
선관위
맹비난
인혁
language
에니
파국
은행장
디아루가
1095
윤달
중서령
427
패디
##상관
양성애자
완안
맹달
사산조
NL
숄
잊혀졌
선제공격
물대포
위임통치령
##쇼군
CROW
옥션
##노크
##게시판
##몬드
먹잇감
##망가
표음
치카
입니다
인공생명
퇴관
아시리아인
윤일선
game
##침례
##조지아
마오리족
이성애
미트라에움
측지선
합류점
##풍경
##좌석버스
원씨
광록대부
##난후
##Top
##壤
##Walter
##피안
WTA
관련지
데니
Electric
표차
##음악가
can
바예
##哀
Pu
야쿠자
##構造
광화
명예직
을지로
##나인
##°,
야영지
마우저
1496
지름길
청결
##관사
정혜
콥
감지기
청사진
Allen
혼조
##수화
##War
##바탕
##사명
##伴
Morning
님프
##수성
메이든
##갈리
##199
종대
##渠
##生員
찹쌀
영합
도우미
구부러진
영서
가발
카라얀
##徒
철학박사
##156
##韻
ㄴ
SouL
콘도르
해이
부고
##情
레만
##177
음악사
홍봉한
길다란
##직무
화씨
울퉁불퉁
##하스
렐
##두부
##탑재
귀걸이
재흥
오세르
암각화
금릉
355
##An
토레
##한강
##종대
1486
1428
##바를
##비명
##기획부
접어든
그려냈
희소성
Old
그쪽
연꽃잎
879
##분당
고속정
소천
모가
기항
##중령
##중도
묵자
금성대군
##피로스
디셉티콘
라즈베리
아그네스
전차포
423
앱스
Age
루마니아인
장평
Men
지아
브래그
마사루
##太極
무어인
들으면
쓸데없
선택과
동갑내기
원했으나
##聚
##유신의
빈틈
하필
급급
흐린
가네코
장식품
도강
중유
쓰임새
##버들
##여덟
##전수
모수
베르니니
지롤라모
비파
마네
##작물
Stage
##햐
어니
##庶子
##섹터
##right
##누어
PSR
데시데리우스
##乞
풍광
##크리스
에마
콧구멍
##쿠도
이제현
##종영
##侍講
등뼈
연발
추출물
히토
변성암
life
오에스
보살피
듀티
이후락
작업실
ε
핼
에클스
##병리
EPL
바쳐야
미니밴
농심
장악원
군법
##장로
플로레스
자코바이트
Europe
충효
문희
아우렐리우스
이시카리
팬티
안착
베네벤토
청량리역
##바움
##개벽
레오니다스
삼색기
정원사
데이즈
드리프트
주기율표
바실리우스
##물건
간헐천
##950
일인칭
소매상
오펠
반달족
우후
코이네
엘리야
바실리데스
팔라듐
논개
수돗물
살레르노
오르반
DLL
송병준
##보복
642
쓰루미
##항구
Battle
MUSIC
헨드릭
##스테인
타히티
재편집
마쓰시마
##1885
주변기기
난색
의아
##渤海
##영제
미소년
##발표회
후루카와
##비체
내벽
##譚
두광
##차기
각부
현대건설
##Samuel
이탈로
##베나
요시사다
사세
미니어처
##1890
원색
##우에노
##抄
지휘소
제갈각
##257
From
누린
밑돌
축구공
##벙커
##멘토
##이건
쾨펜
신통
760
결사대
변압기
애나
##무비
龍
담백
##遜
히토쓰바시
-)
##륵
뇌진탕
##상무
##謝恩
첨정
부음
955
##러시아어
##삭제
WCG
윌리암
##못하
##고향
미니게임
##-'
##정후
##安國
Advanced
815
타키
구정
쉴드
크로네
상대주의
##일선
##珥
##이인
용담
명량
오베르
우안
원기
장단점
얼핏
글리세린
마이바라
핵반응
##古今
국조
##스킨
바시
샤오
法
육상자위대
마루뼈
유디트
##사업가
##1689
731
인산염
##발음
##Come
도노
1554
먹거리
##셰프
LSD
##리누스
사파
감복
극진히
물러난다
##Dream
θ
빗나가
##득표
##枝
조르당
##리바
엽기
돌발
다급
##궈
1442
비동맹
곡사포
##대동
쓰러진다
##봄의
##마케도니아
주빌리
마스다
##거사
##옹호
산울림
미곡
네스토르
나노미터
마요라나
##얘
증자
자매결연
1406
어인
##차크
광전
내키
##보조금
뒤흔들
##기획사
1125
##병조
인사동
##비슨
서소문
##신정
##기문
ICT
캐쉬
엿
샴페인
매긴
채층
골조
LL
바리케이드
국제통화기금
게바라
고순
야스오
투시
최대치
스타스
그라쿠스
소지장
미하이
##캡
벨라루스인
엘런
부일
Symphony
찬성표
개척지
##강하
사마사
##슈가
응급실
"“
부재자
잠겼
올리비아
표준편차
##강연회
캡처
서술자
##청산
##보조원
투팍
##압축
##탤런트
Ia
##텔레
바도
김창룡
조수미
##장승
미실
RSS
##쿠데타
##세븐
아카사카
##경상
##성균관
심리전
바륨
##상상
철갑
예문
##공약
一括
##니버
대우그룹
테오필
약세
##보이스
무난히
바이아
참깨
콘라드
소왕국
하이데거
가너
##바다거북
위증
본적지
##등각
크루제이루
아피아
한컴
드베르
파렐
이냐시오
민승호
가습기
정재학
##暴
관입암체
##Heinrich
감속재
연락선
Magic
##Sweet
##客
구씨
곡성군
우린
벗겨지
1726
##분위기
원사
##최소
##조시
1290
##토로
자니
##그래서
에리다누스
##광이
##★
##마산
조만간
엠블렘
픽쳐스
회당
망설
디테일
룸메이트
##우유
술자리
군위군
비지
상명
##자격증
발매기
그림물감
겹쳐서
에두아르
시대상
자유분방
오이타현
히치
##West
##소지
##Lord
창작자
여하
편재
오쿠다
턴테이블
로지스
떠들썩
##접시
뮤지엄
##樊
쏟아부
602
보선
무토
철산
야스히로
원용
제방을
압델
##観
명필
##満
맡긴다
원흉
983
##宣祖
##국정
TKO
복소평면
플라스미드
509
동백나무
##潮
경술국치
##후드
천보
전야
누른
잔액
##인프라
##타니
##공로
발전함
고전파
케인즈
오신
앤트워프
##추리
갈림길
π
##당했으나
논란거리
가믈란
패혈증
##荊州
##AP
미성숙
당구
##病
mi
중풍
음유
##304
어서
fl
끌어들인
이고리
##196
꼬투리
맛의
조프루아
전염성
대호군
##비행기
에마뉘엘
황성
과하
한밭
##착한
별궁
오프셋
러닝메이트
68000
요시하루
##렌스
실용음악
##레닌
##카사
324
독재관
목련
에밀리아
블룸버그
England
비바람
##»(
미각
##輕
조양
익공
주변인
##늦
원각사
웹진
와서야
##방교
얹혀
슈바르츠
사이클링
##≫,
##卒
엽록소
XL
사고기
##건축물
괘
국립중앙도서관
그제서야
호에이
##상금
궁재
##장려
##싱가포르
어종
##이렇
크립톤
음높이
##활자
급조
과육
착생
부강
노원
##구슬
닝보
길모어
분다
1271
예년
318
춘향
다이어리
총인구
닷새
뷰캐넌
퀼
보림사
하르키우
조석력
증거물
금속판
##베어
데스티니
응해
양귀비
##진전
정재
##觀察
1462
##치크
이서우
신동아
##사퇴
콘스탄
甲
미사키
May
##증자
##인민지원군
##한계선
##나머지
입금
Change
황선홍
유니크
배너
프리깃
연보
설로
##ㅣ
평균값
둥베이
1185
##선대
##강습소
마하티르
클래시
##첼
##와와
보른
미카사
호그
VM
수군절도사
마르키
상대국
트란스발
##謨
일인
##역어
달도
팝핀
항공전
판정승
러시앤캐시
##모티프
마일리지
명륜
연대표
383
코요테
상미분
##심슨
인덕
NLL
바알
Flow
뇌하수체
XI
카스텔
그린벨트
##주보
범주론
##다움
##계정
레벤
폰투스
슈파이어
카시우스
##주머니쥐
##일렌
##난교
전매
재조사
##저수지
236
거침없이
마사히코
종목별
알람
벵가지
##百濟
##어리
##Air
미하일로비치
토시
엄선
##掌令
물린
##커드
쇼코
쿠파
##已
1340
##계속
마산합포구
애니멀
##탐구
분큐
참언
백운
##해선
오반
##패밀리
근연
##자바
##願
헉슬리
##조회
초여름
고저
후사르
만델라
##type
##1888
애기
논공행상
하이웨이
구마노
본따서
훈제
##Double
튤립
화백
##루마
경빈
##총액
피조물
##너리
번잡
##이탈
동일인
물리쳐
첨지
저속
헨트
윤기
경정
야담
371
직첩
김연
##해부
전립선
동정녀
서막
숙달
##國公
다나베
##152
##다이빙
아발론
##진군
##산요
##지안
하가
##太陽
취해야
실레
소카
비탈
복주
면역계
초하루
##인재
##산림
자릿
수치심
화이
부커
##신공
장해
##Bob
이진수
##後秦
섬겨
##윌리엄
드나드
##致仕
##꿀
AR
외식
시부
이희
##"(,
##가방
에버튼
##셉
패총
쇼치쿠
아꼈
##poem
좌변
삼공
##164
집무
##플라자
아키타현
서강
콤바인
##막부
깍
전폭기
하루하루
아르투로
##합방
박치기
빚어지
지하자원
##撫
군악대
자파
##감영
모리츠
헤카
석굴암
##자치제
관리국
흔들렸
계원
지자기
왕사
릴리프
바짝
##나요시
가덕
기른다
흡착
베푼
카푸아
국새
##綏
##사바
##혜택
##지니
다물
올리브유
부장품
홍백
에스트로겐
공력
리쌍
일장기
빠져나왔
연차
열사
진기
신검
##보른
##유체
##순례
동류
잣
##舒
##博物
##羌
쾌활
토핑
슈바이처
롤스로이스
유도체
화사석
자폐증
##캠
이가라시
이규보
##화법
##변호
수임
##얼음
##내기
##령기
초강대국
미뤄졌
리도
##레이프
##케인
문산
무종
올랑드
여아
쟁의
음운론
종정
##독립신문
최후통첩
우정국
##국체
##豫
덩
시나트라
##원상
742
카바니
##꾸며
##所生
포사
도량형
그린버그
중도파
하이메
선묘
##오미
1446
비씨카드
라이덴
샤이
허영무
암호학
시민운동
제초제
소양왕
##근위
크로포드
##몽구스
살라망카
FTP
포르투나
말산
타운센드
피상속인
엑스맨
##귀박
LMX
베이츠
##분노
스파게티
##상행
불어났
파양
드라큘라
태종무열왕
##억불
##規
##揚
주쿄
황야
거취
##락과
##武王
공학부
##1398
트롬본
미들웨어
##佳
구세
부대장
달려갔
##뜨거운
##에미
Scott
Hospital
브렌트
프랙탈
의존도
로디지아
하숙
크로마
알츠하이머
##오반
청송군
개중
껴안
미륵보살
##Star
부채꼴
셀룰러
사피
초파리
현덕
병리
견본
전람회
##가노
어려우나
##산천
##天下
비통
소파
Child
비인
수채화
##步
프린시페
##AFC
##매직
마스터플랜
완급
##272
피한
영양군
##貫
##복심
##僉知
독차지
쿠션
시지
314
##문회
자료실
양자리
청해진
발호
초지
##돌과
전시물
유진오
내각부
병마사
##儉
면천
타이핑
배회
특정인
##통지
생겨났으며
육각
##스틴
##--
예학
이정재
901
##좌윤
인디아
태웠
아프리칸스
황토
옻칠
##Albert
UV
불식
마곡사
마음속
##네임
통일로
690
남해
보현
항공자위대
##생체
##마나
process
##상거래
잔털
알아듣
앙금
##又
면역력
##루나
리볼버
##키리
관은
보드게임
바닷속
##동군
들여놓
Family
##운명
##이레
출판업자
##천문단위
딸림
자이로스코프
타츠야
Building
경무대
##알리
Action
엄벌
##간질
긴급히
##티비
1481
##프렌즈
벌린
Nation
래브라도
클레멘테
##When
과소평가
수긍
##居士
모진
##민주주의자
##案
메이컴
Water
비음
##아프가니스탄
신숙
주봉
선후배
##Brian
특출
지동설
알아챈
따듯
상벌
##철수
순록
##戴
268
들소
리피
##琉
시화
##엔딩
추수감사절
합사
##즙
칼집
염주
일으켜서
##원문
아귀
포은
카포
##축소
진강
마이티
272
플린
아미앵
꼼짝
핸들러
나타남
환전
##공직
681
오스미
1054
둘러쌓
찾아간
로버트슨
VGA
민간단체
무루혜
##큐브
빠뜨렸
##ㅁ
섀넌
##설로
아카네
##리디
미나모토
##계약서
오자키
##유클리드
##로군
부경
김홍일
초조대장경
##우아
수코타이
유치에
##북방
프레스토
로티
충치
디킨스
판매점
##된다며
부관참시
세계시
발레단
히코네
선교회
##遺物
838
라시드
크리스트
##의종
아말감
노리스
낱자
리부트
성층권
탐진
머플러
##켈리
Li
SSL
##러블
야학
탐색기
##GT
마카로프
트래비스
##두아
##찰소
데메테르
맹획
브라우어
김영광
##사이먼스
신지학
췬완
고령화
차익
##종일
서현
돌이킬
히로세
캠코더
##1891
##결국
레이버
무주군
새김
요코야마
##나베
##彬
Our
부심
##1889
트리뷴
1320
612
##파섹
##미코
##서도
달려온
블록버스터
부풀리
폭사
엘리아스
지쿠고
##形式
퍼진다
인도양
태만
폐광
##SA
와카마쓰
양육권
조판
흠모
개최권
신경질
##서무
구마모토
##레이블
##간사
치사율
서양화가
빵집
##록과
##會議
나옴
685
조차장
민물고기
set
##아시
##방용
Doctor
큐레이터
##원로
##忠武
##족보
윤진
##경덕왕
안내판
공포심
도인
AIDS
##백조
대불
우에하라
비열
##Ⅰ
풍문
과태료
독고
IGN
문교
대장성
자연어
활엽수
유례없
집산지
파츠
##慰
##197
경험주의
히로미쓰
저음
점퍼
미란
##집안
내려야
##화장실
##약물
논고
차상
열심
파르크
##Hey
Blood
##호남
지역주의
갈릴리
청룡사
잠든
푸마
1126
힘겨운
단다이
##염소
물거품
창원군
##國王
김인후
##삐
##네이버
고세균
변란
##해역
##인공
밑씨
축대
##226
화이트헤드
반대칭
##뽑
##연수원
임나
포보스
1449
##어식
위헌법률심판
IB
뺄셈
슬림
##수비대
세이프
믹서
심사위
##레이더
가나가와
주심포
##이즘
but
곡조
상민
성표
법질서
##바이스
로에
류노스케
영빈
애팔래치아
877
뉴타입
두둔
##광사
##비차
##재벌
플렉스
자생지
##1623
변비
##성기
##해금
묘한
접안
자그마
종기
##캐시
##Jacques
##메노
##흥국
장창
##다우
332
오버로드
##쌍성
플램스티드
韓
887
이와쿠니
헤파이스토스
당선인
날아온
화근
##호환
994
아르고
테니
##문재인
##코쿠
##스모
##미키
##관현악단
##수색
##공비
리야드
공항버스
기압골
타르타로스
교계
쿠라
##이샤
곤트
성정
녹선
리치몬드
영선
팔레트
강역
1258
당무
갈렸
##版
##YMCA
하이쿠
##후쿠
도검
아멘
히우
##작사
걷잡
이병도
장익
##피츠
##삼각형
호아
포고령
바락
대산
쿠샨
깃든
스페이드
반음
친어머니
##산동
승정원일기
##보호구역
졸업장
화정
CAF
SDRAM
수정주의
풋살
마적
저우
애니맥스
필승
##모멘트
열병
아로마
단봉낙타
오픈오피스
콘스탄티우스
계약법
만수르
##DMB
토폴
암호문
원연
비막
기자실
##頓
교바시
어퍼
비류
##1200
계자
데바
레볼루션
중금속
##거라
승전국
##中軍
##태사
재수
##접종
맹금
아크릴
욕실
##스크롤
##방사
절경
##기니
짖
무해
LAN
캘린더
##삿
세바스찬
루드비히
메들리
약사여래
1432
##執事
마이크로미터
강함
비상용
솔직히
고간
아널드
사가현
산속
552
##린을
##美術
KM
창조론
식성
무인도
분절
##典書
격주
식자
담겼
##갤러리
고담
선불
##Last
모인다
Access
라그랑지언
##time
##기수
##나누
인제군
굶주리
계엄군
사토루
항상성
육영
평상
오리진
체호프
퍽
들려오
래더
문초
헬레
이아손
##주거
북지
##방면군
극화
##216
##East
##諫院
##司僕
1361
##조연
가액
가져간
골라서
도재욱
증기압
##선가
정호
##1863
##la
여양
##마자
중화기
사발
고품질
##265
내어주
미들급
##어뢰
단부
전자쌍
마일즈
##해설
625
##1893
##전신
##연출가
##렝가리오
네안데르탈인
수제
##조립
727
휘둘러
1259
잠실야구장
서편
공사장
강제력
지회
안타까워
##부의장
혐오감
##평원
1363
##탈출
겹친
##미인
조치원
고스
OGLE
코타키나발루
##MTV
극저온
적경
1437
##라시오
응오딘지엠
표문
##락지
진에
Generation
러프
대우중공업
조미료
Duke
##램프
1463
타깃
심원
BP
##부치
아리토모
훼철
무찌른
상여
667
경솔
삼포
최상층
##수직
반짝이
심의겸
Rain
정수형
찾기
동제
핸콕
험멜
흔
이호준
갈기
##상감
호인
SKY
신항
근엄
인물상
##예능
##은퇴
##정연
##사이언스
##진료
##이벤트
노렸으나
더치
김유
##膺
##정판
##서울대
##奮
##완벽
이란인
have
손꼽
##div
##Non
석주
폰티
##수군통제사
Songs
되돌릴
아누
쿠팩스
내줬
세척
##좌참찬
레토
향좌
월정사
대의명분
방일
이비
1505
마이크로
엄폐
트론
브룸
##여전
##코시
었
초중력
##니야
배고픔
파천
##에이트
키튼
##플레인
개과
##승려
##상표
합비
나빠져
시아
Linux
천호
##타치
윌크스
두스
이주노
##농촌
포프
보나벤투라
액상
##인지의
이용구
##리도
김윤환
가네모토
##쿵
매드맨
##툭
아두이노
##케이크
숙신
271
신승
네이밍
염파
##파시아
테이텀
룬드
첼레스
머스탱
알렉산더르
헤밍스
새러토가
타원곡선
지르코늄
음악중심
골든디스크
Concert
276
농작
녹음실
윤지
##정승
동조자
아르미니우스
##산화
통천
##브이
폐수
조카마치
일변
벤슨
요지로
IETF
##프레드
미끄러져
명령형
##持平
##사체
##저하
벨로루시
##矢
##ㅅ
레거시
414
백두대간
라코
프리즈
아수라
##平原
씨스타
##세우
잡이
가리켰
길기
텍스
관료주의
사가라
미야자키현
##커버
헤일리
니시오
##손상
Empire
##해병대
영관
일급
티비
AGM
쉬우며
東
플루미넨시
##동식
##쳤
##僖
브로츠와프
##싱어
캐주얼
테크니컬
##출구
청빈
##사조
##特別
딜타이
##従
##中原
##펑
1369
레이캬비크
특약
##안사
엇
##Long
다이얼
임해군
##민국
##라모
잡아당기
길재
총검
##데모
차입
##코리
귀감
##후한서
친화력
강입자
퀸즐랜드주
##인도네시아
##닛폰
가려내
석불입상
##독도
떠올라
##관부
##로그
생각나
케미컬
야영
브릭스
##소개
수과
교향시
진태
##파우스트
위상차
허점
##정당인
##환율
##HO
Fe
Television
파테
별표
검정고시
肖像
##여신
잠재우
완두콩
##박테리아
도드라지
기풍
송산
##놈의
##기이
염포
##174
아그리파
1427
펠로
SAR
##쿨라
안창
##唱
광교
워릭
장애자
##메에
336
벌링턴
안지
영채
기초자치단체
맞아들였
##덩어리
##보충
탐내
Wilson
##팽창
초밥
머스크
##儀式
도우며
이준경
부국강병
흥인군
샐
269
##GP
맥그로
##오류
굴러
전례력
##+,
헌상
미친다는
KGC
씌운
명정
287
말장난
##연출
흉악
we
생겨날
채제공
##서방
##제와
음차
##줘서
서프라이즈
대번
##상선
XM
##완료
숨길
장순
제라
이재면
뒤바뀌
##지장보살
##이혼
소유물
##폭행
홀더
트립
블라인드
##대표단
##도발
데본기
카스미
IE
##Internet
투스
심대
에르난
매니토바
##청와대
유배형
기우
브레드
##잼
아이젠
신적
##욜
XHTML
부성
##빛나
사교육
핵종
검문소
플레쳐
감돌
샬롯
안상수
여불위
##원구
375
##회골
윈터스
##218
##邪見
##무르
마태
사브
아르센
##mol
##공통
가압류
누마루
##미우스
##리토
쿠사나기
바타비아
모디
홍가
##착오
캬
푸치니
셰일
통일안
크라위프
수의학
Pacific
Ka
1279
고려공산당
His
##187
아모레
바실리오스
##제재
아르메니아어
네거티브
##연년
이극용
람세스
집합족
그나이제나우
초평면
주접
아덴하트
이사키오스
로지스틱
폰티액
정원식
노팅힐
국과
어긋난다
봉입
야마나카
##540
##성직자
356
##士禍
명언
요하네스버그
연로
명예박사
법도
##제르
후발
리들리
대놓
##비언
근황
##含
선샤인
##방송인
우진
##서브
정덕
비겁
지구인
##와이드
##카바
##크로아티아
##음원
헤미
star
풀밭
선천적
교본
##毘
##스핀
국은
옮겨간
갤러
내자
담기
냈으나
평강
견실
김기
사옹원
927
마사노부
##이제이
##입체
파슈툰
##南道
요세푸스
##유저
남천
국민주
##彩
##자르
넘어져
사그라들
마쳐
##判事
뻗쳐
시행착오
호흐
법인세
##유고
##아강
##수라
갑부
뱀주인자리
IAAF
해로
##어학
동인도
파펜
282
비행갑판
당혹
셀레늄
##라거나
폴리에틸렌
##포지션
타키투스
집안일
##윈도
820
5500
전거
인포
쳐들어온
##했어야
##悟
##간과
계약직
경안
카미유
장바티스트
평산성
1487
1385
베아트리스
은하핵
##연정
##동천
##Seoul
뒤져
늦춰
일류신
살바토레
후마
경찰국
##게나
이승철
장궁
병졸
바이어스
##핸들
##시코
##수사대
위용
한조
##閑
##정동
##For
몰려오
레이철
애써
##빠른
독방
니이
샌디에고
인디오
##올렸
사자상
성양
##遇
Prize
##三昧
덩굴무늬
향로석
튼
##안면
크레이지
##라이터
나오스케
##236
고대인
##출입
신서
쳐들어갔
난창
##킴
빗자루
나태
##翟
##창자
사루
뻣뻣
##隸
##天文
지장시왕도
##파도
톈안먼
이모티콘
재돌입
345
대기실
##운동사
기벨린
##두더지
식민주의
사적지
392
박모
가면극
췌장암
에이트
행정원
센다
장축
##丈
##呼
동강
마시멜로
조제핀
뒤덮인
스파키즈
南
##남대
##아사
시진핑
요요
롤랜드
##발사관
이긴다
##정하
FF
카론
레이시온
블로
하수도
음성학
이회영
윤원로
흥덕
디케이
실베스터
요금제
입소문
##잖아
홍문
##이여
미야자와
위즐리
##니혼
##설서
##놀라
시스티나
##世間
##얏
류큐국
농학
삼바
테오도로
갈레
##왕사
중하
##사회부
그래야
데파르
통첩
카시미르
##三等
##어음
##DB
후아나
##난징
교무
평행봉
풀러
가등기담보
플랩
키무라
사도좌
아이크
정다면체
몫공간
칼라스
NAD
위더스푼
윤년
프시케
김우빈
##일가
이태
##발생기
티파니
##연소로
##광대
타쿠
##먼지
##149
강설
Classic
과두
##漢陽
##式年
앙겔라
Player
가차없이
##1812
내무
##신선
도이칠란트
뽑아냈
바꿔야
누차
##FA
GABA
##스즈
포격전
도비
886
일수
휴렛
##사무라이
##地理
경계인
##寶珠
가요계
##종점
##수분
정통성
538
분해능
##전송
##허스트
##With
HDTV
면세점
소비세
귀부인
##호스
수취
키드먼
인왕
##단가
##황태후
히나
##214
충렬사
앞마당
파비안
모았으며
모은다
##享
임자
가락국
##禎
562
아로
임꺽정
##장편
##단편
연줄
효도
릿쿄
두꺼비
##발급
피노체트
작품집
##고선
##卜
치어리더
##free
유제프
히다카
고막
사마천
단면적
##遷
효렴
소로
악질
가슴지느러미
##코비
##山寺
수효
스탬프
알렉
창조자
남한강
Freedom
하다
##현세
##소통
##레지
김재
##방울
##1873
개도
OLED
##050
반시
딱지
ex
경외
에이쇼
흘러간다
##안성
##²(
554
##가트
중경상
##169
##179
Bad
메탄올
##테인
시대극
꾸며져
##단락
Trade
신경전달물질
노스럽
##미분
##대변인
##조비
##妙法
오초
표창장
일월
##삼거리
##걸이
대방
무너
보나파르트가
탄복
##성자
RPM
상리
물어뜯
##결선
##동리
휩싸인
##블러
안마당
약력
줄리오
부도심
##실증
소피스트
타협안
이재학
최고신
부국
봄철
제신
##찬스
자카
호킨스
식생활
선위
둘러져
##라파
계성
버마족
범부
월권
##천변
노동법
like
장항
##로사
도롱뇽
바빴
프락치
##가속
##단층
##기판
##피드
크라이시스
##스케일
##MD
##궁이
##産業
##빠르
역풍
알비
첨자
##皇子
위클리프
일등
내관
PCB
과달라하라
증권거래소
이브닝
지쿠호
##페라
Sr
화염병
상서령
최명길
##School
단체교섭
진창
탐닉
부우
리겔
박상
##안테
월산대군
kHz
겐지로
349
임권택
양시칠리아
테르모필레
북제주군
피오나
성숙도
아야카
##행인
##리지
VB
##繫
##조스
다라니
규암
콘웨이
여운홍
희끄무레
아브라삭스
##말씀
남서아프리카
##거룩
다케조에
사일런
애기박쥐
유인물
##석상
한와
병무청
381
1232
채워졌
오랑
##군파
##반환
폐가
주소지
##정파
호사
모았으나
비정부
백남준
##SD
제발
張
산드로
den
전영
정치사
강남역
##Philip
##위해서
##흑의
도화
##중위
상품명
명실공히
나베시마
##루카
##드릴
셰어
북극곰
끈다
##청소
불가결
머스킷
끌어올려
당진시
캘리
사들인
##사국
다다미
창호
무용지물
세레소
세이난
메워
506
아유미
Theatre
##吉林
오물
##스테이
산록
##데이비드
요세프
동오
유종
레디
이은미
감응
##고베
헛된
##1865
##아랍어
##능선
##발굴
제이드
보들레르
##変
이석
시킴
##Henri
##賜
종친부
땄으며
##파악
심부전
##리아스
호성
1374
전위차
경왕
##183
트레버
플라워
뭉친
덕원
나루
요시카와
벳쇼
##뜻
##군들
##按
##야마토
##말단
##微
극좌표
청명
깐
휘어지
은행원
무참히
발도
수태
##국민운동
이뤄졌으며
##수로
보덕
626
헤엄쳐
351
쑹
##171
QR
##숍
라마르크
1355
키티
사우스캐롤라이나주
채의
뗏목
한나
361
수빈
FPGA
연체
##1644
##트리플
다다마사
쟁
군국
##邵
柳
##욘
씨티
후문
##나카지마
도슨
통일호
##절하
end
원빈
##166
인디펜던트
군령
##경고
##제청
KFC
모타운
##경인
##조선소
건즈
##227
캐터펄트
법사
기대승
##自在
기보
##브로크
금속제
거문
갈라놓
##곧
진대
귀로
소정
대격
##소진
포르노그래피
시저
빌렘
연감
회복된
354
##눈물
행패
명한다
##衿
GmbH
공증
몬시뇰
허사
##大成
거들
용머리
삼각산
##공구
칠해져
창의력
뒤러
##소요
##射
출발지
##명성
임실
##헌납
대공습
기에
width
##롤러
격년
Second
##탓
##세이부
무기물
에베르트
이방
브로이
바다사자
조세프
##아즈
##漏
##銀行
σ
장안사
지룽
텐진
##가죽
라킨
크로니클
아스트
아가멤논
뷰어
노부마사
줄타기
##아무개
##영문
기소유예
임계점
금주법
책임졌
아니야
박주영
두마
피소
콴
##하목
文
CNG
##반장
함남
가정주부
스칼렛
형기
석류
##1878
블리스
강권
하이텔
내려갈
공정성
펠라
##킨다
물질대사
블레이즈
묶였
임경업
은수
주점
반송
##랜더
상공부
살펴본
호크룩스
칙허
독점권
회식
거함
스윕
사견
춘분점
고증학
몰로토프
울버
##익스프레스
삼화
Wars
선공
호밀
석현
났으며
쉐프
광안
##파란
홀어머니
아사드
플랜태저넷
HS
신간
Spirit
##ex
##국민주
풍월주
스팍
조반나
카라칼
##업사
정무관
참치
알아흘리
##본당
미스틱
JMA
##방직
비로자나
정죄
##寫像
소지품
슈어
##FE
이원수
비테르보
메네즈
줄인다
##이티
도정궁
김정숙
##매트릭스
이와미
실라
松
Box
몬테카를로
크레이
롤랑
부끄러움
쇼무
into
##附
그린우드
##관습
드워프
문사
실연
이직
개통식
이마이
강자성
와도
##思惟
율동
사회진화론
##배분
천문도
열적
리시
떨림
##도식
Republic
턱잎
##충남
원복
이프
여주인
훔쳤
원더스
Glory
##싱하
용출
뺏기
##710
##동장
후광
##907
스킵
떠받치
가용성
##십육국
앤틀러스
##正義
휘호
혜공왕
되돌렸
아메드
##구획
내친왕
스마일
프레이야
아우른
##198
들어왔으나
편년체
##영회
##1614
계부
##籍
존경심
##고분군
##부전
AMG
어린이집
##學派
부친상
묘비명
범죄인
##호흡기
미와
##족류
##경학
핵합성
잠그
선풍기
Tc
##선부
킬로
##학생회
세레나
티그
##천지
비트레이트
소수파
##신학회
##반트
십육국
##댕
빔포밍
Real
##비법
나온다고
##소셜
1404
1371
##파키스탄
히포크라테스
Hi
##문터
비푸리
소장파
##한다든지
빗추
##이타
질식사
에노
될까
##항법
분로쿠
아열대성
Metal
초대수
##161
발생기
정훈
이채
##歷
옳다
##Project
신중히
양잠
벌꿀
##기관총
다연장
##심의회
발차기
갑석
춤곡
관능
철조
탈영병
문효
흐를
헥사
##캅
##산대
친권자
좌대
오위장
불사르
지구전
##이디스
##翔
##교직원
##노랑
골절상
증액
##일주
부농
그단스크
Universal
남연군
윔
##학술원
영신
##공예품
카탈루냐어
카라치
서거정
정지상
패거리
섬유질
##人間
##거짓
##戰爭
##眼象
대경
의인화
샤를로트
키팅
##요괴
form
##항공대
귀천
613
황권
티베트어
##That
카산드라
성문법
##횡
콜리
##태국
찍혔
스키너
##왕인
대학가
##無常
학행
버마어
지국
##품목
1240
리오그란데
초목
엘더
##Deep
라이즈
스사노
Direct
##Music
오소
##堂上
샌즈
트루스
편인
돛대
##민주공화당
개선문
깁스
FAT
층수
##루쿠
광복회
보국숭록대부
보스케
GIF
마리아노
##DP
309
에우클레이데스
카나메
##오드
땀본
커드
메이트
난보쿠
##》).
알마티
##수이전
##스코어
살생
##쉴
북촌
아모리
스콜라리
방기
권람
day
긍지
##節度
타이슨
전치사
태황태후
직산
삼양
카날
데샹
크로뮴
단원제
##바레
mph
콰트로
에스더
##广
람슈타인
##고스트
원주율
보타포구
##활동가
혈맹
발렌스
접다발
##계장
858
환급
본다는
스터
따낸
부에
바크
##제작사
Gone
보이드
시끄럽
찾아와서
국교회
##금과
8500
저압
왜소
전도성
끊긴
베르길리우스
##레디
외떡잎식물
월계수
##경대
##배수
##本名
##포라
팔렸으며
중심점
에이드리언
기다란
체적
##내성
##빛깔
##過
동탄
호콘
토해
##멕
##소르
하이델베르크
크로마토그래피
##스타인
##固城
##라미
FT
수혜자
수정체
##기오
##서이
잊혀진
등유
##Power
##Fly
밀로
논지
SOHC
도요다
갈고
##橘
훙서
##서체
영돈녕부사
각개
##시국
Century
근접전
##영사관
해초
##扈
1403
##Otto
키운다
관비
##경사
이루어짐
화산섬
해밍
##정한
##버즈
관내후
##행대
이자벨
인망
선현
##시비
물기
호중구
비보
핵력
대통일
##비인
##幕
##사쿠
구불구불
295
##선법
##아이템
##적도
##한나라당
##모빌
토루
후타바
499
전주곡
여소
남중
By
자유인
획정
##마태
루쉰
기조력
##燦
##니우
##체르
##1874
##湖南
의학박사
KD
킬리키아
견직물
나카니시
반대론
샴푸
##주재
조선왕조
헤로
매김
허무주의
오클라호마주
##440
##이사회
##중앙일보
1010
go
##오즈
앞당기
오컬트
코브
Crew
##Low
##찰방
치천
##解脫
연지
석공
천한
타나
엘바
페어리
죄와
진성여왕
경문
##다요
고연수
스노보드
명승부
##비구
닥쳤
던컨
전나무
##藥
소과
시론
##드립니다
류이치
영어사전
숙련도
##kcal
Unit
##비틀즈
숙위
불상사
윤곽선
드문드문
##티베트
금니
##남기
항명
고치현
닥친
##복권
러요시
계수기
척탄병
중앙고속도로
알렉시스
배화
유재석
##牙
##滉
한과
바탄
##주전
보증금
괴력
비엔티안
다카야마
##더가
##포켓몬
창정
##斤
호키
##학장
무루지
##심소법
지지층
##텍스트
##Space
파노
##자도
화산암
질질
ED
수탉
만담
김화
심연
##테이블
설리반
퍼듀
##XX
서호
##체학
스펙터
관헌
경주마
JP
##세금
테제
덕천
비드
서우
##戎
부수상
CAD
카스틸리오네
잔기
유라쿠초
이의민
비클
Knight
##주스
##프론트
##벨라
주작
타치바나
유하
유이치
멎
##실증주의
황금빛
후지사와
브렉
한센병
다부
캄포
양치식물
자키
##마리아나
유성룡
케렌스키
##서기관
간본
탈리
덩컨
방시혁
운산
##AT
아데바요르
구법
북키프로스
우먼
민관
럭스
Major
괵
권동진
고엽제
Roll
플라티니
연제
고별
베켄바워
곽상훈
##리교
돈대
##카라바흐
예레반
번디
##아세트산
박정양
데지레
홀슈타인
테르시오
루미아
최용신
카테
NWA
DVI
콜롬보
이영
가다
##幽
스타더스트
밀어붙이
직할
고여
정내
##油
Professional
479
##007
기동대
소리치
공주시
에라스뮈스
폴타바
정치사상
경부고속철도
쿠폰
터트리
피티
##중성자
졸음
홍삼
줍
##五
##여인
떠올렸
탈착
##출간
##질병
아킬레스
##륙부
리보
말려서
##Wilhelm
##비우
순화
##스탁
성천
남남동
##恪
잡다
KBL
총생
Mission
PM
Make
강해서
왜란
노천
믹스테이프
367
적응력
##244
##석가
입산
##위즈
##악지
##때로
값진
1282
즐라탄
학성
##南宮
차석
##晦
정당문학
국무총리실
지구력
##정심
실랑이
권이
##화산
##怡
레더
금곡
다이버
페로몬
##성주
##173
##860
이레네
아우토반
Authority
##레저
야콥
행정가
청와
유봉
##황이
꽃부리
마이크로폰
##테크닉
##고요
복각
##함정
없앤
##쓸
섭식
고름
지방세
빨라졌
겐조
건국동맹
젤라틴
he
원명
##푸트
금오
수덕사
무심
##Human
##랍토르
스이코
##미드
무덕
담요
씰
일익
사숙
병선
본딴
구혼
##생기
간음
임레
늪지대
##독서
##206
계양구
##가짜
##후일
클리닉
밀서
운모
##技術
2024
푸둥
몰아가
##다린
District
##박사의
하성
신포
태형
##設
##聖人
작사자
삼사
##법무
##荒
사명대사
##제니
##가칭
선창
##우체국
주전원
지맥
##오차
삼청
남량
허저
결계
서번트
파헤쳐
##제왕
##맹자
##간행
기러기
Wi
예종이
노로돔
##저자
436
체증
구부리
##윤회
쏠리
본청
##비사
날씬
##1886
비키
족자
마틸데
스코틀랜드인
멀쩡
첫눈
수비군
외행성
코친차이나
##寒
해리엇
역명판
워터게이트
##후소
##키타
식충
이귀
##시당
그라모폰
도체찰사
봉림대군
##天子
##有爲
오사수나
##야간
체니
유안
##남군
휴게
팹
합쳤
##미네
마이트너
난생
동전주
장왕
##305
수정과
##개헌
소방청
##틈
보육원
어셈블러
##고노
페어차일드
##운동량
당헌
김문수
##鮮于
노노
##셤
수입품
Re
##485
##좁
데얀
FIBA
##판례
##농단
##察訪
조창
카슈가르
위조지폐
이륜차
샤크
##정확히
리베카
##원형
시루
알라리크
플로라
##비게
##悼
항렬
졌으며
##재지
고소득
##직제학
에히메현
지휘권
추자
저울
##질소
이슬람주의
에시엔
하이츠
보호관찰
만프레디
##차일드
납치범
##지킬
노을
이규
톰스
##고분
임씨
선더버드
IDE
##나눔
스포르트
Mi
라플라타
말디니
케일
##영이
오경석
황민화
애퍼처
##슐레
광역버스
서북서
베즈
서브루틴
CDU
발뷔에나
평창동
##치마
##땐
흡혈
##工部
뿌리깊
배소
갈라서
##瑞山
##진스
##藝
자긍심
##of
##仁宗
1426
들어왔으며
##岑
Friedrich
연단
눌
로키츠
멋있
##로트
##半島
불감
##無量
연판
##401
우스
두꺼워
최서단
##오스만
송아지
활강포
##사선
희화
##토우
고준
Da
지녀
##바루
화물차
##선지
굴리
연세
##그림자
포이어바흐
찍히
반동탁
신정왕
387
##켈빈
진덕여왕
Wilhelm
화성군
장렬
세워질
극치
정청
왕손
##일본인
##야로
묘향산
762
##靑松
영평
박영희
분속
##犬
행정법
##출발
삭주
페트로그라드
의창구
귀빈
지린성
원진
##삼각
##컨설팅
무너질
##가옥
##地獄
김석주
##중용
얼라
##구당서
저수
##지바
##무제
단성
탯줄
근현
단색
##Eric
싯
후년
일컬으며
##첼로
부귀
##숫
##탈해
##센티
민회빈
산타크루스
진후
터뜨린
다이카
##만남
인습
유머러스
일조량
선공감
담합
##카운트다운
##460
##등지
콩데
##화자
현행법
서덜랜드
##백은
적병
유한군
##1598
모굴
다카토
와키
연소실
콜드플레이
015
번역판
##제현
회계사
##상처
들어선다
위작
타령
리비우스
분규
개성부
##거든요
##Special
##級
부산포
초년
윤근수
사관생도
인사이트
하렘
휘날리
대응책
연식
##이시오
##나올
폴립
##견과
##미얀마
서남아시아
준이치
베트
대장암
매어
금치
수직선
향나무
##민은
##파시스트
글루텐
##き
브린
예비대
모발
##만한
##총통
》
##필수
그쳤으나
대현
뚫리
##기피
##시카고
성룡
경조윤
건원
죄명
천차만별
키오스
형식주의
초호
##마인드
들어서야
고경명
≤
환성
##색깔
공군기
교법
##煩
불쌍히
상전
이태리
뫼
##봉환
##우주선
##봉행
296
동식
수소문
279
이구
퉁구스
미의
##내셔널
포이
교살
##준위
##탐지기
프라이팬
analysis
##공보
##배럴
if
교서관
##어제
##훼손
주급
##AC
하우프
##忘
눈꺼풀
플리트
그리하여
에페소
진입로
바퀴벌레
##과세
코린트
서빙
경평
나루터
##아리아
쌍방향
##악부
대관령
1276
Theological
##違
만도
ext
바울로
리보르노
아부쿠마
토벌대
ESP
흑룡
##먼즈
##白山
##刑部
데이비드슨
585
파보
VH
재탈환
안우
##미소
Services
합격률
세일즈
##팩토리
페이즈
라이히
범함수
대각합
바르가스
##Central
라도
도르래
##주교좌
CVT
마드라사
과즙
CONMEBOL
지글러
##見道
##세니아
구제역
보스포루스
메이테
버고인
칼리오
##apos
지소
엠버
##Beautiful
##스러우
당국자
성우진
상표명
##채지
##鄴
죄상
##冬至
##Franz
외톨이
##겐지
##케이프
##++,
##스타크래프트
SNCF
놀림
##윙스
##丙科
오테
콜트
길림성
##소주
329
군호
균질
##증대
주특기
##제리
##달콤
무거워
일깨우
아흐메드
우주관
소년기
발생학
##군사령관
경화증
훌
##피언
보조국사
해질
CRT
싫증
다수결
방불
Monthly
아사카
Sweet
Believe
경릉
##남동
유지비
##블럼
부러진
원시림
##도호쿠
호아킨
도쿄대
망령
이강
##Anna
##카즈
태봉
##경향
허영
##琳
##or
##太尉
시랑
##大明
추성
##속기
##약체
##공조
결연
λ
##액체
빨갛
향촌
경신환국
##1860
부르즈
日
##엑
##파이트
##공용
양재
##통증
병목
착복
봉록
가묘
축의
##司徒
번대
455
버킷
세종문화회관
가져간다
옆집
##諦
337
교묘히
디코더
##화장
스티치
인드라
##질문
##로미오
나사렛
토질
청음
맞아들이
##류인
VP
눌려
##核
기관지염
매제
스메
319
원도
people
##사이클
##통계학
OR
1375
탈러
##1618
##실기
고슴도치
Us
##목포
##선장
크림슨
##모듈
Galaxy
TOKYO
##기만
##오마이
쓰촨성
콩팥
##311
##입문
Architecture
##女子
요즈음
돌담
복개
##旨
적잖
283
문터
개인기
보제
##伸
##1568
송정
수그러들
부신
연남생
666
김시진
라흐만
고단
개혁자
훌쩍
고등어
259
##모션
신교도
신미양요
##Golden
##들어갔
피란
양가
반원형
삼신
꿰차
##실현
산탄젤로
긱스
매병
튀겨
##오프라인
동지경연사
##마법사
##피탈
KOREA
##총괄
##사민
##北朝
주산
아르미
강민
감압
##사성
아키즈키
넓적다리
호걸
칼라비
##관행
##天地
잔지바르
code
레이몬드
브랜든
##ˈ
테리어
토토
부상병
주워
아지
##백색
박정석
##한데다가
하만
휘감
신호탄
재협상
VOD
LPGA
한경
색경
복호
알아차린
요시나리
테츠야
랜딩
다이앤
굳어진
##누시
반대표
##서유기
헐크
##⋅
##云
##무한도전
##660
찻잎
공복
일으킨다는
알렉산드로프
##BSD
##장정
무리뉴
마릴린
##and
캠핑
직할지
본루
##275
감점
오역
타케
##강철
리브스
채병덕
KGB
퍼브
진해시
1189
##주류
##천리
##거래법
갈릴
센리
놀라울
##매입
랄
그레고르
##버터
보속
세무사
##주당
로타
##통문
1230
재클린
청소부
크레모나
##제출
조희연
훈공
소돔
음형
종아리
광견병
첨가물
TTL
김동주
##호아
아이슬란드어
사네토
##유인
카지
바베이도스
##발자국
터커
바르톨로메
호라산
##奧
##순진
트렌턴
가미카와
미코얀
왕지
삼지연
프레셰
훌라구
시게모리
IgA
##바일로
##땅다람쥐
##1887
상서좌복야
양쯔
##익찬
거침없
중남
신축성
##흔히
##참한
돌핀
세워야
##엘리
##피스트
녹아웃
현란
##샬
한껏
암투
##스톡
험
자태
라트
##서클
마침표
##구상
##応
총본산
##톤즈
##미나
해악
##정촌
사이토카인
복발
##공양
##片
다마스
소절
마쓰라
의론
##오전
한배
music
독설
##도량
##淨土
오쿠
##총서
킵
MAX
Room
##荷
##일러
보탰
나카마로
의암
내국
복면
주강
##인연
촬영장
망국
##럼블
##웍
##송심
##泗
##세균
본즈
대시보드
##구들
##脫
##세종실록지리지
운봉
철광
디제이맥스
GCC
내리막길
고래잡이
HAL
란다우
##용액
논산군
우유부단
##迎
##State
창덕
알도
취합
캘커타
감방
림프절
##양성자
372
경료
내국인
침전물
타의
##불멸
##224
진남포
힘껏
골목길
경호실
##식인
번리
에베르
PCR
##신약
Eyes
##발사기
##740
공산화
혜원
##息
##終
APS
Nature
인평
크래프트
브라반트
멸문
##병마사
##신곡
간호학
정철의
일용직
광채
독가스
##东
논리식
##교육법
상담역
언도
##의정부
DMZ
##연평해전
승산
체이
슈토
435
##추력
계급장
웨이퍼
전할
찾아낸다
##까치
Jane
과르디올라
비즈
히나타
권지
##전시실
##격투
쿠즈네초프
##면도
진희
##개주
##태극
네이비
융희
정자각
능인
광교산
##251
나옹
##監務
계승해
NHN
나그네
김동률
나이로비
다케치
몰려와
EVER
이타쿠라
##무게
야누코비치
성탄
손씨
아킬레스건
흉작
##형조
기념탑
포그
동덕
절실히
야경
아치형
빈농
편마암
##난민
##大典
제빵
##Los
다쓰노리
align
패러독스
##비토
볼펜
서스펜스
안트
웁
법화경
신도가
산천
도해
875
아스티
##음직
##연주회
종편
##王子
흑수
의근
##미친
6500
Washington
##비행대대
팔머
발틱
정수리
##남면
바버라
##동위
##預
니콜라예비치
##신세계
중형차
농무
##BR
이너
린드버그
정수장
사카키
니혼마쓰
폐지론
##부피
편애
싸이클론
해라
Justice
보여서
항량
노르망
초토화
시빅
목탑
군경
상용차
손준
스탬퍼드
##오사
##육사
베개
##암살
햇살
1328
##펀트
흘러갔
보드카
용은
페헤이라
스포팅
원리주의
아름다웠
북섬
보데
##고백
##도코로
GARNET
##강색
##충동
성묘
절연체
입맞춤
국한문
부왕령
경찰력
Interface
허트
교위
추악
##Il
실비오
프록시
##력도
프리기아
배석
##뵈
Lake
울산광역시
아타나시우스
Method
백설
##타비
박성준
스트레인지
폭등
레지나
##淸道
1277
불가리아어
개부의동삼사
수하르토
국민대표회의
##헤이케
FR
##동회
헌공
그레이드
멘데스
Sport
돈바스
멱집합
엘레우시스
##계약자
상비
장도영
OOO
공병우
핑크니
급약
##초과
다카쓰키
##海南
##直長
##戶長
잣대
IBK
사량
##듬
趙
키위
##Joe
덴메이
network
스펀지
거슬리
##체스터
모조
마르부르크
##세르비아
수갑
##페우스자리
##우울
##다투
터프
중독자
##암호
애환
##체중
베지
##빙상
줄다리기
Transit
벽지
사기업
##세일
전비
##대해
535
득표자
변변
백석
##침체
양무
##Heart
젖꼭지
655
##이너
스크래치
##트래
##駒
진달래
여러해살이
##仁王
고묘
갈음
뒷문
##라티
물렸
샤리아
경조
찬성사
피체
피터스
##옹정
##수복
##僉正
##자이언트
흑의
419
조숙
에두아르도
황혼
서서
1174
##스타워즈
가사도
##254
##가난
우간
##개척
임재
뽑혔으며
저본
방금
##CEO
코리안
감이
##염과
막후
1352
##물품
최북
비올
소듐
도제조
##left
Asian
##礪
##指揮
일본공산당
##시시
붕소
세분화
##지도부
##道路
동판
##회적
부축
국화과
혹성
##獅子
##肅宗
젓
Court
놀리
국구
여겨졌으나
사피엔스
보탬
##장도
쇄
조준경
야노시
##영당
##政丞
받아들여진
하마다
헤밍웨이
##화사
양팔
염장
사회과
스스무
ACT
아쓰시
##치전
선문
Only
부산진
타르투
히에로니무스
##군장
이상호
전천후
##소나무
인상선
삼투압
##할당
푼다
##덴마크
웨스팅하우스
서둘렀
논한
정광필
##414
##頌
1172
필화
##버마
##童子
김창완
##기념비
퇴락
선각
주간고속도로
하북면
Index
보천
항마촉지인
가로등
쿠투조프
시달린
도호부
##플라밍고
줘야
정취
화강
칸토
식감
태화강
이종범
289
외골격
오퍼레이션
의서
홍경래
##遵
벼룩
##귀신
카구
##허용
흑해
슈퍼스타즈
구포
지안
불이행
모택동
현대로템
빈첸초
콘스탄츠
십상시
##252
제석
괘불도
꿰찼
독어
흘러내린
ㄹ
##러닝
티끌
##배기
서투른
##장부
옥살이
##원공
포지
##시크
##무에
잊어버리
수어
근적외선
##여단장
1365
##충선왕
사업소
##조종사
##좌익
수뢰
노섬브리아
Fall
##몰라
심즈
서전
##지소
##Giovanni
괴롭
##타협
옥좌
##晟
달려와
월턴
홋타
##화장품
쿠리
미즈사와
붕대
니더작센
두골
파스카
##裴
마피
오판
김기춘
##제급
저물
망언
모녀
맨하탄
##based
몬테레이
최항
콜로세움
남몰래
##선로
##옥타브
임성
##汗
##조합장
아웅
팝송
휴이
##學院
##오케스트라
##미술가
##오래
##기성
집중호우
마츠이
정인보
들으면서
자기력
원희
인세
##厭
내세
마르셀루
호르스트
괴도
페르디낭
486
루아르
타나카
##경찰관
##클레이
366
배신감
1330
##Art
저장고
해밋
사륜
애국지사
MTR
무장봉기
##치부
##피오나
##포시
이겨야
##넓
마리노
which
구직
미라주
인은
카멜라
극비
대이동
종소리
팔레즈
##팔레
다카쿠라
그란데
이소선
포카
##NO
노동절
자경
첼리
휠베이스
브루넬
경부보
실온
코바
라벤
##동성애자
##트라프
##무위
##영락
튜플
울릉군
##칼륨
아카리
##고딕
모르핀
박순천
##慚
벨리사리우스
부잣집
Policy
신시가지
매설
뿌린다
##Two
성실히
동륜
제바스티안
혈투
알레고리
##870
##일시
무법자
뒤스부르크
##쇠약
클로스
불량배
세태
가둬
579
편력
##라구
능묘
##종착역
##사형
발병률
피부병
이곳저곳
잡아가
뿌리줄기
##261
557
주력군
소승
끈기
하후
건설사
##당초
우석
베냉
##글씨
헨드릭스
##마마
Beautiful
발레리나
요요기
352
##랭크
군사학
마사시게
동의보감
Block
##긴급
##뒷
##극동
아가타
뎁
##藏經
경문왕
##γ
올리베이라
##堤
맨스필드
##왕실
##禄
어지럽히
매긴다
미완
##봉이
##軸
##사무처
병실
##上將
부사과
##扶
##°)
겸해
##연방군
요시프
북극점
민국
##펜스
장검
보호구
스나
사타
##腹
##피치
내분비
##NT
속였
미천
문병
MIPS
국사편찬위원회
##317
고세이
무착
##扇
마사타케
##오레
장온
비츠
643
아모
Ⅰ
시클
##치료제
베를리오즈
##al
##야생
아사마
야스토키
##감도
##백이
##瓊
민무늬
CTS
##가라
휴게실
술수
조직체
테노치티틀란
투지
진남
다몬
휘슬
##솔루션
나와야
희망봉
RP
발렌티니
##치킨
떨어뜨린
육해군
663
KAI
##납의
##판타스틱
포레
단조로운
##中宗
원효대사
##두품
불기
광각
탁자식
옹진
행은
헌강왕
승기
압록
소백산맥
정여창
##타이틀
어깨높이
##後燕
##생년
##틸리아
길들이
내몰
##530
##評
##燈
##정교
예정일
옥계
##화학자
결의문
건설비
성적표
##GDP
홍진
앞길
Next
언문
##self
법무사
Protection
내셔널리즘
안식일
독백
알곤킨
HQ
그윈
마흐
라모
프리슬란트
채운다
##自治
스눕
무허가
비티니아
노부히데
가라앉히
스콘
##노로
##메이저
무찔러
##이히
오모
다스린다
성보
연좌제
승리자
카르파티아
1099
##전투단
상군
트라이던트
로커
##Tell
쌓였
주력함
아이라
흡기
1050
AAU
남반
개리슨
##다네
##위튼
IR
##737
##험자
향시
##금강
##봉투
숙영지
##지국
청성
##전산망
##게이지
정의감
작아진다
법익
##발효
돌스
카르스트
조강
이상설
##문인협회
##우위
##어디
트와일라잇
##讀
##산다
##선종
타나크
맥과이어
브롱크스
363
##JST
해룡
타코
##이양
귀두
Department
##폴라
##||
제온
1234
della
불결
투숙
호너
전자레인지
city
##성결
고문치사
##성립
##570
서모
슈즈
셰리
리시마코스
기라
호엔
투키디데스
페타르
비금속
리니지
코지마
비엣민
##러너
乙
강제노동
장보
##우즈
온조
후나바시
##생성물
무색계
조이스틱
조현우
쿠라키
피츠로이
페란
강원용
자한기르
판매로
도축
##프라임
야오
대낮
Kiss
습지대
틀어지
소나기
##聖王
립싱크
방공호
입학시험
PBS
##鐸
텃밭
관건
##인한
##오테
사쿄
##263
방자
옌볜
##연맹전
##키퍼
헐값
허다
갤
##워커
휨
##지만은
중심주의
의기
##速
벚나무
##가도
##high
스펜
##메틸
배우체
아불
1298
##파장
다비
##아오
##나다
종심
##管理
##본질
통의
##불사
##미만
##점차
노리히로
##奈良
패색
호반
한국전력공사
산지와
##突
싱커
덩달
만해
김정렬
##화인
화물역
##涼
마사토시
##丞相
풍모
하이테크
890
##근처
둔하
주치
휩쓴
롯데시네마
밀직부사
洪
##처에
##부두
가져와서
능창
황금시대
보온
장상
인텔리
우두
1107
##戶部
##阜
금구
시소
형양
##향후
엄금
튀빙겐
##돌격
제언
##소드
감세
손대
학맥
파울루
##홋카이도
영덕군
뭉툭
사마라
수어사
##芸
##종종
골격근
##대보
##원고
부끄러운
방첩
##법학자
끊임
297
DSM
##810
개구
##Andrew
##호실
수십만
병탄
##하비
민호
Tor
##AD
오스트랄로피테쿠스
붙임
시노부
카테리나
뭍
일보
다이내믹
니치
##혔
피연산자
대구경
엥
##양부
중좌
중북
낭중
##오락
운운
요시나가
Today
영동선
##제휴
요이치
무한소
노이어
쉬프
Come
마필
##밸브
##겨
고목
##선녀
풍속화
RCD
오르페우스
##이호
##조자
옛터
정우회
##밀양
필즈
##퇴임
사냥터
##宣王
접지
##분명
자국어
새겼으며
조향
서희
##번개
##幕府
대분
##西秦
##편마암
깰
##우미
##정법
의기투합
오색
다름아닌
하반
잇몸
목축업
쿈
환곡
양종
허황
##생산량
불소
BMG
##필자
##러셀
크림색
꽃대
간여
시아누크
무리지
부등
예서
##1604
노루
##서민
동격
화궈펑
쇠퇴기
홍예
##행은
낙오
##충신
Secret
##원도
능지
롯폰기
니시자키
##팔라
파상
무전
현주
쇄국정책
##느니
531
북돋
space
##코니
##개혁자
##헨리
##보선
BMP
착발
##이보
리구리아
이명희
KH
##육군사관학교
##왕립
##바크
##Summer
텔러
우성전
안향
에리코
도예
##창업
화베이
##계획서
##자이
노부히로
헤이하치로
신성시
##351
##촌간
##부르주아
덴마크인
##순은
IAEA
환송
##교육령
육전
##ㅂ
성유
##지한
골랐
##베르케
처해지
니케
고쿄
##우자의
##정찰기
주문모
거버넌스
초이
원환
후국
아자르
Fox
##사쿠라
브라질인
DA
키론
##組合
##지은
감귤
중매
컬처
area
사피어
학생회관
사진술
라리사
크세노폰
##편한
##홉
에제키엘
##추오
##춘천
색법
LIG
##畠
##초거성
산초
##신판
묄렌도르프
##냉전
##송정
자침
##1570
방응모
모병
##해독
카쿠
동학군
참기름
##라우스
아사히카와
##쥴
도취
피지컬
하우저
하숙집
사육제
민법전
유월절
##토어
댐퍼
##큘러스
목각
패트리
베로니카
천리마
##갸
르노삼성
아바르족
##파지
##나한상
플라미니
벵거
슐레스비히홀슈타인
루이사
줌비니
##김영삼
옥구
파사드
샤오미
바예지드
무상정
옹켈츠
동인련
단돌로
타라칸
레이맨
##베르거
수송력
##양지
헌팅턴
큐리
field
만끽
정촌
통기타
클린트
##南宋
##깊이
오드리
##필터
##도교
맛볼
石
##도관
##Stephen
아무개
레터
헤이안쿄
피지배
레하겔
불탔
퍼시벌
##엔젤
##킬러
화환
윌킨슨
피시
빨아들이
봉상
##고라
##停
##타상
이기도
부추
학자금
총살형
로엔
##이라도
Alexander
모래사장
행정명령
기능주의
건다
오무타
##오무타
##1801
히라타
##목소리
373
제이컵스
##Social
문부성
공공사업
잠비
본영
극우파
욧카이치
화폭
가희
Capital
##척도
멸족
##揚州
구사쓰
뱃길
꺽
##朔
얌전
좌우익
라그랑
##엔시
605
##닌텐도
금관가야
##円
스가와라
##政堂
효경
##비행사
##도지사
##품종
1105
##査
온수
핏줄
고글
머물렀으며
##노브
외각
갈취
맥박
꺼져
재지
##武官
##241
경진
메드베데프
##対
##거미
튜턴
조후
야자
경각심
불확정성
##三郎
주익
291
이문
평균인
미끄럼
##유효
##실명
##산차
레드카드
우메
범어
##니와
##국수
##살라
##1620
문지기
##쳐서
영영
미디어위키
##마르틴
강정
야로
##획득
연습곡
소풍
젓가락
소광
총서
##시우
##道觀
도원
아틀란티스
유산균
헬파이어
##회피
##零
##경도
##1624
##참조
##번은
군현제
염소자리
성북
Version
##186
아크로폴리스
꽃봉오리
족적
성공리
아바나
신사동
세움
##游
끼얹
long
미사와
##馨
노총
##마운틴
비제
명가
864
의친
장기하
석불좌상
승과
##1763
##오일
국법
##각종
팔괘
동공
경비병
곱집합
냉장
부추겨
파울라
왕광
태학
치약
##文臣
##마고
##토신
융단
##리진
589
아루
전주성
페레스트로이카
인조잔디
곡예
버벌진트
##옷의
주구
##핸드
심할
##변론
##니케
건넨
##1776
##1850
태자비
고기잡이
##모기
##발생학
티어
블레셋
목동자리
도전장
김홍욱
##差別
명해
디종
안테
##룬의
크뤼
유재
감경
529
美
제막식
공동생활
햄스터
만사
검단
##GE
주향
스프레드시트
##시속
베스파시아누스
안타까움
라이트급
쓰보네
##퇴치
www
남월
월식
앨버커키
코를레오네
##242
휘어진
##通商
플란
흔했
탄화
이집트어
콥트어
백강
분계선
연신
세바스티앙
민도
강경책
반공법
테무
##CO
CdLS
뚝섬
플로어
##공안
##우어
##웜
농과
휠러
삿
펠리
결정력
프렌드
감퇴
머리털자리
거류지
평문
나카하라
##々
##670
차액
아르망
케손
가정제
유채
양용
##차노
우월주의
레퍼드
##소유자
미발표
##기념탑
막아주
아류
윤치소
Core
훈춘
백동
창씨
##스타즈
이몽학
곤드
첼리스트
오펜하이머
광야
김성현
##메이라
유금필
워든
##중국인
왕령
마리사
sp
목탄
실지
와타리
로보트
증거능력
모래시계
슈퍼카
##납언
##고택
나스티시즘
간공
아다마르
NTSC
만노
라발
체코인
##마황
끊어진다
모용보
우젠
족청
##math
돌프
발해사
구드룬
봉오동
##퀴어
##풀밭
주세죽
##소득세
특수작전
장례식장
허스키
##永興
##杞
브롬
##만점
하찮
##냄새
폴리우레탄
##Your
##양주
로스토프
화첩
Airport
##306
##＞(
##文集
메이와
소용
호나우지뉴
##쎄
부업
산탄총
증권사
##1875
##王妃
##禪定
합일
문학인
##메는
##멀리
곡류
##1861
유어
슬기
절삭
윌란
disease
##는데다
##遺
몬족
일어남
청순
##가를
혼고
맺히
일렉트로닉스
치렀으나
##汀
##라이온
슈이
인내심
우스이
애니원
돌린다
카트리나
라일
북간
##픈
##흰색
##脩
웃기
위중
세탁기
이수한
##황기
가경
##계절
power
반인
보헤미안
##남편
돌다리
알샤바브
뱅킹
##瑩
##忠義
찰방
##명제
흐로닝언
기름진
##Ray
##아미
이회
##대개
##이탈리아어
##長城
속기
식량난
##흥부
대할
##로카
##정령
센티넬
##Duke
실향민
압박감
김응용
##鵬
주저앉
불러일으킨
##國史
김지
##리알
막료
브레튼
쓴다는
종적
화수
##시치
대구경북
##벤쳐
432
부다
질린
##기편
플루오린화
##교재
##諸法
##北道
노우
견성
상좌
진국
지방인
스팟
##품명
point
궤양
##타드
선봉대
본고장
Convention
##재팬
도자마
##워너
##다이스
##巫
정남
##게리
태백선
벤치마킹
충전기
##229
라텍스
포르토
813
##RAM
##左衛
김근태
##680
이택근
##창설
Na
##칼슘
감미료
개머리판
잿더미
사무원
바카
##훈련기
##쇼트
##塾
술법
데가
통례
##탈리아나
##동로
체사
##포계
외숙부
##大東
##岸
오펜바흐
##장미
서애
##군직
흉흉
##제철
솜털
##취약
##해했
역공
공융
몽땅
칭할
아르놀트
##213
육경
내민
김조순
안젤라
뚜
투투
안도
국역
이복동
수렁
난초
뿜어내
경연관
##1605
##영입
이달고
깔리
하라다
기우제
이광
창동
주아
##스투디
##天安
알링턴
이본
직격
##小學
##덩
참위
##鷄林
미지
1199
현지인
소위원회
외몽골
알렉산다르
데브
자넷
쑥
정합
##전동차
##릴리
검수
OFC
883
세입자
폴리곤
##색소
학교장
산봉
##반도체
모서
갑산
##이슬
##바카
연공
##구라
다다카쓰
서니
##채권자
##변혁
##토치카
크룸
페트리
웰즐리
제쳐
##레이티
우봉
뉴스데스크
##대항
스카프
상원사
관조
바쳐진
362
토치
밝아지
최태민
1202
APC
오버레이
우마코
##천읍
이태원
참례
알아낸다
엔탈피
비합법
꺼냈
##지움
치리
레트로
메달리스트
체크인
##취업
앞선다
염기쌍
혈우병
Online
티머니
테렌스
【
##磨
치려
##313
##垂
후편
##종자
합자
은전
##나타
식용유
딤
임정의
##외르
##종파
임화
보불
조합장
귀리
햄프턴
부작위
##유희
동래부
조선일보사
##과대
헛간
아브루초
##미산
댁
보나
MBS
종교학
855
견인력
격발
김현정
##건전
옐로우
김영환
##하자드
단경
##데카
리미니
구심력
겹친다
솔리
임충
##메가와트
타밀
수정구
피카츄
투르쿠
##난쟁이
조선혁명
버넷
##善心
##원법
하하
네기시
##소매업
출교
광독
권영길
평결
비자나무
수도교
오버리가
정형근
길가메시
캐드
김우영
##테무르
##보살도
UCC
##애인
##"'
##熹
이씨
Things
재빠른
우장
취함
향의
악습
하리코프
1333
호라
인조인간
##반복
NME
Golden
펼
구원병
##π
##리본
점잖
호러스
알류샨
전언
배웅
학제간
294
수미산
선입견
마컴
##동명
주창자
들여보내
박연차
전정
다가갈
마리화나
파스텔
제강
##관목
동의서
##』,『
독해
전기차
##두산
오비완
앞머리
적격
962
본전
##디아블로
##전두환
##임용
오히라
순장
##코크
559
DirectX
적남
경창
산실
##특구
CBC
망할
##얼스
별빛
비애
어질
##；
IX
##탐지
전략가
석양
389
황토색
핥
북양
멈춘다
##혼마치
1354
석궁
##국소
받아들여진다
신위
포즈난
##아르메니아
##염증
phase
##수축
##防禦
##진술
김윤아
타타
##325
Her
고프
제동력
##연화
##수동
##신조
##구문
개인차
닐센
##菩提
##화엄
지크
754
집단지
아마데우스
##664
##피로
성루
추방령
##강원
1040
##미마
요시즈미
##틸라
##Juan
리베로
마그레브
534
##하부
낙차
황강
Truth
향연
##셩
##246
##너비
LC
SLS
##圈
##도호부사
겸한다
테살리아
기도서
##자선
##Only
##스러울
메스티소
고용인
비할
성황
##행상
##궤조
양기
윌리엄슨
용주사
내곡동
대석
##우다드
트루히요
##雅號
##918
포석
근위병
##분위
구와타
교회력
수풀
##두리
577
364
탕평책
##인하
##고니
꼰
첩운
##Union
수학여행
두상
용문사
가져왔으며
##失
시계탑
정학
촘촘히
밤나무
부지런히
호성공신
판매원
샹송
##섹슈얼
도니
##오릭스
##고산
요아킴
카프카스
심사숙고
전격전
침울
유대감
뤼첸
##항도
신계
허세
진루
빨아먹
##매개
추시
우스타샤
화천군
아퀴
##자결주의
보증인
클레멘트
니카
##레이디
정운
##실습
##根本
품성
산만
co
신징
다쿠미
대사도
##교시
과금
타이트
##원잠
##스카우트
사워
참찬
##위임
썸
##安城
니트
##배트맨
정윤
티모르
분대장
##박수
허엽
찰턴
게이요
렉
골든골
Hits
사만
측두엽
가호
##마모
와타라
탬파
##무과
##등록금
##御所
##그날
아이톨리아
##慕
순자
##事故
카즈
Hell
##루주
구상성
IM
적포도주
로아
츠벤티볼트
SNP
##태평기
##절로
덕산
##Never
##奉行
마상
버치
영과
거포
##프린
원자론
미쳤으며
지게
IGBT
노즈
슐레
검역
마페이
1187
기축옥사
##르보
휴교
##나바
완다
인칭
누메노르
카모
알루
back
민주진보당
배럿
압구정동
##금융조합
Deep
셀렉
롤린스
##지구당
푈러
퓨리
##천점
미즈호
몰리에르
알라모
황호
브러시
민주사회주의
지젝
바냐
##문화축제
특위
맥그리거
##예시
오턴
콜론나
Macy
김단야
자리스키
키르허
크레용팝
##경량
##漁
Winter
군구
카셀
스키점프
웅천
##세보
##력사
설명도
SHOW
미추
##셜록
애시
모씨
펼쳐서
블라드
파트리크
641
Children
예찬
##캐넌
족쇄
##처치
##930
발한
분하
의연
##交通
브레슬라우
스트라우스
프랑크푸르트암마인
##토니안
메콩강
간송
##섹
고마움
비행단
입부
##노머
간간이
야히코
볼리
유키나
히마와리
고메즈
Have
제본
##세토
사관후보생
요시시게
##인텔
##289
카메라맨
급거
인라인
경찰차
슬로우
758
##410
1268
##和順
##크리스마스
뒤르켐
블랑코
여주군
##ε
##Show
꺾여
시험장
난투극
##주간지
묘갈
정현왕후
자프
하이틴
##간첩
패사
쉬페르리그
히메네스
심의회
총칙
##미학
육종
김인식
밴더빌트
광란
끈끈
1411
4217
임란
##전증
##속력
파인만
마스트리흐트
노성
울름
##할머니
꾸민다
##索
장희재
오라비
##빗이
HO
##靈山
감찰관
알렉산드
순양
뛰어다니
레크리에이션
자이로
미라이
ALU
##이인의
되살아나
다시마
##그로브
##나리타
##269
##에피소드
##國語
탄다
##생명체
##南山
##江南
순한
격정
##스펠
조동
지음
반입자
소식통
유경
포츠
진앙
##드레싱
천재지변
파혼
무대인
호각
세븐일레븐
##1582
##艦
##해부학
대약진
예인
##266
##002
화도
발안
휴머니즘
##Second
##명문
닝
급진주의
박보영
##방해죄
헬리오스
##永安
돋우
##비지
MQ
욤
##곡도
##상도
영포
##이부
구해야
산악인
##마장
##圓覺
정감
화문
하대석
##陜川
흥덕왕
화승총
난전
유신의
금지곡
만력제
에우도
디어
송어
사쿠마
형남
##光武
유휴
다이너모
##담당자
##진성
씹는
지선버스
길러졌
##お
##민단
겉옷
백미
봉기군
매달렸
##탱화
묽
랴오둥
##양정
엽문
##병증
##2019
밧
아쉬워하
신진대사
김광
가지런히
셀린
카브레라
##치도
낯설
ASP
자매지
퐁텐블로
그라츠
키노
화가자리
헤어져
애니미즘
분향
김희선
활의
뚱보
로드니
##자인
혼담
철거지
가즈히사
Earl
Audio
무한궤도
트로이군
##桃
##온스
에뮬
대상물
실리카
운동부
깨우치
##매출
기승
히데이에
무참
상급자
듀드
이복형제
곡옥
엘시
조순
해칠
Broadcasting
파트리키
생성자
봉선
교권
음란물
##토론회
##김정일
##초점
핵형
특보
##등관
##노미
제안서
리베이트
싱크로
둔덕
함북
##")》
프래
##로버트
##레비
##레미
하루나
콘래드
누아
##부투
폭죽
흑룡강
말포이
##만리
전공의
점철
##諍
최연
##은행장
빵이
영건
로레
##합계
##François
도코모
플레이아데스
마레
그레고리우스
유카탄
담당관
889
눌렀
##약학
가래
궁술
유비쿼터스
##원년
루벤
보훈
##동래
발머
도카치
코돈
Guide
##리퍼스
##行爲
조지아어
스트론튬
선거전
떡볶이
섀플리
평리원
TLC
헤론
틸리히
크로커
입법원
##픽스
패닝
Kong
투표인
1115
순제
안토노프
자비르
바이바르스
조선문
##建國
기림사
##縛
##污
도레미
희토류
고래상어
##카가와
종합진흥국
절제술
##아리오
드와이어
##바나흐
##저빌
리스벳
유공자
비나
시타
##원자로
인사이드
빛낸
##ONE
Champions
구스노키
##José
중추부
무손실
마르탱
##광해
죄질
이력서
크리스티앙
거둠
본머스
##＞,
##正祖
혈연관계
##교육부
##지혜
궁의
끝단
논제
동지의금부사
큰개자리
엿보이
##쓴
다락방
##거기
도망자
베이지
##삼국
##"〉
구양
수관
539
실력파
무모
##肇
조방
대역죄
flow
마진
전화선
섰으며
##소감
크래커
1173
604
로케이션
##불타
노부타카
내응
절교
헤리티지
##소보
##쨩
밋
침상
433
##으로선
아수라장
자장율사
』
##진인
깔때기
##관문
화훼
##피쉬
로제타
재사
말자
##유역
경기만
환궁
##붙인
탄생지
##도메인
이용의
산둥성
##明宗
##皐
홍원
##첨의
다카노
툴민
순번
가학
##內侍
히키
체육학
##주서
##속일
고야마
##영진
워스
##균일
시청각
운주
차임
##조프
무르익
##항공모함
영풍
한일회담
은평
위위
마우리아
묘연
##-》
277
액슬
부원장
피우스
##1648
흥성
##寂
아비달마
투폴레프
##장만
파주군
1246
1278
진범
커짐
아스퍼거
##설도
##나사
##襄陽
로고스
##陝
##가쿠인
Wave
##각도
##Mike
##계기
천칭자리
292
주황
##트이
Defense
목전
서임권
##항아리
바스코
시선속도
##우표
입식
맵시
미발
장춘
시학
시문집
재커
백암
서까래
웨더
##고궁
정품
굽다리
##文宗
617
유군
so
상륙함
잡힌다
이암
##貴人
대런
점필재
부레
##제후
완제품
알렉산드로비치
자잘
##"/"
##열매
뭇
자라난
달여
묘의
대세지보살
명월
경운궁
하곡
객관식
스피리
삼산
성절사
무염
캇
아고라
##画
Universe
포돌스키
##예컨대
##제식
##집결
원일점
대월
북학파
연직
##勉
끼니
총감
two
그랑제콜
보석금
대리자
중부고속도로
변호사법
영희
남남서
905
지그재그
나락
투표용지
니진스키
##하단
기폭제
예일대
##분교
##왜곡
역률
신앙인
쇼타
매사냥
꾸며진
함미
시황
GX
##】
배심
리세
매카시즘
##무공
법치
살아났
샤이엔
##아시안
원동
가부
헤이즐
가까워진다
뉴에이지
##원류
역효과
##기록물
##Adam
널려
외압
##조카
문헌상
##교무
갑종
공저자
엑스박스
보안법
도미닉
수색대
##혼인
이진호
##교감
김익렬
포물
공준
##사에
광평대군
코티
##知事
박혁거세
Vision
적산
와라
##개신교
실비
왕십리
중리
호소력
보부상
프리모
##く
군선
Jazz
실무자
시금치
메아리
스카이랩
정분
503
코르뷔지에
##大方廣
몽포르
이타치
##겁
피용
핀인
용주
마르가
##CP
##컬처
##추출
Wolf
할릴
##窟
뤼트
젝
한산도
사가미하라
멜라니
##라이어
중간값
게으름
이소
성전사
##포이
RSA
소야
알약
도너
문지
강호동
##석동
파열음
알바니아어
##정무
디케이터
기타카미
아르노
IRC
디르크
##스택
##괘의
##주경
##노모
직교군
륄리
무류
로마누스
준군
腹
가산기
##매각
ACF
연료봉
스테인리스강
에큐메니컬
##안현
##丕
워크아웃
##여져
##1876
##다녔
일국
탈진
good
영민
질리
Production
자서
쪼
근대사
고전기
##중성
성간매질
박식
##295
뫼즈
크라우스
에조치
열처리
악랄
미혼모
망명지
갖춰야
〈"
##어깨
##관절
##루즈
플루오린
##780
취수
이중의
##공직자
박영선
내동
어지럽
스기
Sounds
과부가
##항로
신교통
접이식
일정량
왕수
colspan
국립은행
##康熙
유호
Laboratory
##연과
##급유
조스
서계
기개
##1700
##1590
기예르모
675
##카네
##무슬림
앰버
잇기
##323
Movie
봉읍
##802
조주
649
한남
##전례
공급량
##288
후쿠하라
트렌트
앨빈
자구
##산읍
마수
##인즈
돗토리현
중앙역
##稽
반고
관상감
술라웨시
##수회
##생리학
Ca
레르
매장지
##1830
##자강
##고발
843
전일
의료인
왕공
##추상
소냐
꼬리지느러미
감별
불곰
var
##霞
548
레반테
##청동
친밀감
베틀
Wild
##윗
병변
안키
바웬사
웜홀
비타
허큘리스
알골
1387
##성리
자일
호숫가
##수설
현수교
승합차
권문세족
Miss
잠복기
Anniversary
비안
뽕나무
영방
모여든
자임
면전
##House
그레이스
##플랜
강위
연연
Lonely
깨우
##Jim
채식주의자
##회상
##일당
실업가
궤주
괴임
中
##아가씨
문성왕
덧대
골다공증
엑토르
조신
##춘향가
다카요시
##醫學
495
매킨리
전등사
감봉
##항성
학회지
##경화
##새우
경영인
김효원
수신사
약이
러버
아리스타
헤르츠스프룽
특설
부천시
존상
##請
아사다
##출목
나한상
보건부
##엔젤레스
반반
Youth
밀명
五層石塔
아야세
경중
토템
유숙
녹권
부주
예안
##포탄
고마키
십일조
행과
다고베르트
고드프루아
결단력
큰형
##註
##요스
사쿠라기
스치
트릴
test
가즈토
연습장
델포이
한전
##敎授
점치
##戒禁
DK
양서
대보
공히
##여러분
설리
리메
매형
종제
화롄
방위청
워리어
사쓰
이계
골드버그
Mountain
##IBM
892
타란
놓아주
##추안
##遮
개략
##투나잇
쌍성총관부
콘서트홀
갱단
Need
핵물리학
##진다면
코임브라
##Happy
봉고
레굴루스
휴업
##Re
##천은
##신기록
쓰레기통
만장
##경왕
Works
밀레토스
##브레이크
영화계
##509
1190
##주의보
##各
백포도주
CB
성인용
##검수
896
##약국
월폴
##텔라
지롱드
압구정
아궁
##전개
측정의
문민
리베르
##dB
몽블랑
닷지
##군공
##결절
질레트
##인임
스티코프
균사
오리건
왠지
##말레
시프
낙진
293
조동사
##노동자당
##대대로
여개
##콜로부스
아들러
약의
유재하
부정맥
호르티
유허비
클로이
##포구
바른틀
독산
앙굴렘
피피노
발칸반도
##아레스
휴리스틱
##플로트
참인
프린츠
베오울프
사법시험
##친목회
타이쿤
##삼천리
자명군
##초급
트라파토니
칸타브리아
보홀
촉토
김하영
그리어
결핵균
이윤영
##노르드
퀼런
BH
스퀴드
엑스페리아
##윗수염박쥐
##키시
코빈
펜타곤
군부인
빚어진
##318
##호족
##佐命
##皓
콩코스
##등산
하버드대
Trust
##영광
##租
자포
왕세제
##別將
콘티넨탈
378
##1791
치러졌으며
알려졌었
훌리오
기껏
괴기
##조세
아자
투성이
Analysis
##정맥
구급
##사노
추도식
##Peace
예정지
갈리치아
278
로스앨러모스
##식성
알려준
##있는
부숴
경박
상통
##에리
정강이
##송사
##아프
서운
신에쓰
##그래피
##은커녕
##발이
##법회
건업
민속학자
##저택
##얼리
정사면체
혼미
값싸
##횡령
페치
에나멜
##잔디
##낸다는
용장
##북스
##δ
파킨슨
##鴨
역성혁명
##중추
##趾
그랜저
원한다고
##冷
##만구
머슴
두더지
곰솔
무선랜
##상보
##윤리학
##箕子
##杓
##일스
충목왕
##僉
##증보문헌비고
##탐색
운송인
서태
추국
##APG
mg
마루야마
골인
핸들링
φ
##좌의
중한
특선
##1862
##상은
토니상
출궁
남창
낭청
섞여서
기동차
##712
##義城
시몬스
##택지
##崗
파일드라이버
박정
##에린
경어
플로린
삼론
##리야
겁쟁이
수종
##미타
쪼개지
layer
영도구
백지화
##사무실
##매거진
목가
1367
겐무
응결
사동
매연
##电
충북선
연방주
사예
##그레이
##大橋
인쇄기
##모험
바이엘
모살
CL
브랜
태어남
날지
경청
##몰리
송상현
##유생
##有限
맵더소울
미용실
파마
##클레어
환론
##940
##심문
##브로스
##日報
강약
Studios
##신데렐라
사포
Joe
이누야마
판이
##로에
분광법
##호시
국난
크로나
##신칸센
##가락
##이만의
##나온다
경국대전
##치안
움직여서
갸름
대각국사
신륵사
원공
택해
일견
크리드
##肉
썰물
##朝臣
김창
이서
김영철
반음계
앙숙
동시대인
바야흐로
##상륙작전
계동
##팔가
##比丘
척살
##려는데
불모지
풍긴다
불충분
창발
반청
##공방
명명권
박람
##1607
##漢字
##자부
쬐
그로테스크
##文帝
유소
서풍
##농공
최제우
##長生
의학교
보천교
##셀라
몽테
TSV
##액자
##철강
지구촌
##대지도론
혁명기
##팽이
가르니에
착실히
죽여야
bit
369
대연
떠났으나
##전복
데려간다
##라자
영연
##강행
말린다
팔리움
스타일스
터보차저
##슬픈
##지르
문수사
간체자
미대
몽구스
장명등
일념
##檀君
##현관
사무장
속셈
culture
##1799
##소재지
##석대
코번트리
##山脈
위어
##스톨
용호
갖춘다
크랙
되니츠
##원면
##바사
야쿠
구메
히우그란지
몬태나주
↔
오슈
투표소
##신찬
##제곱미터
##코이
국선
##昆
##오우
고선명
느껴졌
##AI
신민부
##포사
위격
에페소스
칼데아
봉상시
혐기성
체념
페론주의
인정전
구두약
프리퀄
불활성
##부통령
마씨
왕유
히바리
가차
##양도
삼켜
갈문왕
651
폐서인
용궁
훌라
5200
공가
날렸으나
선운사
##檢
##오렌지
##요제
EL
백수
독립기념일
##아머
##파랑
맥라렌
경험론
##箭
한중일
##타바
문간채
##민공
##세리
바레
보현보살
비동기
수의사
물레
한숨
유분
풀크
변전소
##무예
##LA
포키스
고슈
##룬드
기독론
TA
KLM
북마크
##베일
파레토
어쌔신
크루저
##憲法
Still
##자오
콘트라
양어머니
##Light
알힐랄
카브
##훌륭
아이보리
슬로바키아어
철포
기전력
비커스
##급유기
벤제마
요제
후소
##컬링
바실리오
정육
김경준
후스파
아나스타시
벌통
메르키트
##NP
IRB
신응희
##로마누스
챙긴
##요즘
##그래도
모젤
오락실
노릴
에브리
타케우치
##268
연령군
윤덕영
요술
근무자
댔
만전
지켜봐야
Jack
마이닝
늦가을
##1790
##자발
합창곡
옵저버
그래머
##문학사
##주력
오피셜
가야산
##늠
회비
##訥
624
용돈
재발견
아랑전설
##部分
##벽화
여리
##영구
마스터즈
류블랴나
우레
멜빈
의문시
구성주의
우토
##情報
허정무
##258
형태론
채드
뉴튼
밭농사
퍼트넘
Modern
DE
Community
##전직
이치노미야
손담비
오이시
##太上
456
Wind
프로세싱
누마
LH
##333
리셋
레지던트
스트릿
JFL
왕년
야르
나란
##매가
창조성
##貢
지지대
브리타니
옮겨야
자해
원어민
밝혀짐
##폰트
不
나주시
등주
##柱國
##英祖
지롱댕
멸실
멜란히톤
제조자
Food
적지
##state
눈높이
떨어졌으며
다이나
##럭스
내시경
경유지
파하
출판인
대변자
덧붙인
SSC
부속지
교역자
다지기
내신
대총통
류트
지방분
럭
바라본다
루거
기총
오귀스탱
##경제학자
으깨
XOR
수석대표
호건
루차
변환기
##line
명덕
구소
매너리즘
OSI
유나
생긴다는
불도
##선비
Four
메리트
헛스윙
청이
ICC
눌러서
##마노
슈고다이
아네
개그콘서트
노틸러스
##전교회
쇠뇌
소린
##부지사
##Lee
니즈니노브고로드
##로니아
928
##비오
이상주
근계
용자리
키퍼
세니
개틀링
우어
시모네
철갑탄
##에드워드
두보
화난
해양경찰
1211
##Harry
제너레이션
신무
Sunday
잘랐
##권익
대청마루
잭슨빌
청요
광운
##덮
556
1307
##침입
##쌍이
CV
남접
묘제
묵직
원숙
김시민
1381
우문
생매장
족속
늘어지
경운
새장
오거
위턱
언더핸드
보르네오
파트리치오
##’(),
폭투
지어낸
테르미도르
졸속
범람원
##횡단
영단
거름
아오시마
레소토
##반면
토바
비스듬
충직
병서
##감리교
##뒷면
불가타
454
괘불탱
##1555
병인박해
267
폰타나
##匠
흠집
사제품
RKO
대추
완벽주의
딩
##피토
##大阪
해변가
지제교
##마이너
외친
##여라
##프로그래밍
⑥
운전수
몬트
문해
Ab
베테
636
##占
##구려
메넬라오스
에드나
DTS
##321
엣
라이노
##루드
헌재
##경상남도
##교동
코비
스터디
Performance
시경
##299
이룬다는
##미판
##판타지
유치장
신실
양로원
##추억
간분
패서디나
배런
쇼리
파워북
벤치마크
미공군
청부
##高山
##오바
대우건설
한왕
왕보
##ㅡ
끼리
이경규
##1615
소말리
##파이브
앵베르
MSN
##미로
##박계
여직
엔비
블레즈
File
Communication
##정정
지현
서양화
##横
흑운모
##檜
##가이
턱수염
안서
컵라면
##le
레이븐
##달린
##썸
##뭐
##공전
##입단
레밍턴
초시
강상
##항전
그린피스
서동
##冊
심방
Government
주준
트집
개발비
지진계
1086
하소연
마리에
직지사
Dictionary
전리수소영역
손기정
파르테논
교련
사마광
돤치루이
마조레
이선
노룡
경학원
##천역
이대호
##산염
분한
소비에스키
맷돌
가림
프리스트
합명회사
참서관
페름
##메티
##墳
함무라비
놀란다
##스트룀
나카이
물개
##철교
듀폰
보부아르
##베누
씨네
바부르
##족제비
펙
FSB
의주군
변사
Square
베게너
파놉티콘
모일
냉면
아녜스
##滿洲
전자석
사이쿄
##차수
사이리스터
브로스
데미안
예술단
시라즈
사라졌으며
데이크스트라
성재기
고슬링
오빌
풀어쓰기
생도맹그
공교회
체크섬
투라
포토샵
비달
동파키스탄
아넬카
##종택
##드레드
##펀딩
##계금
##伺
멸진정
김용판
재수사
트리어
공항역
완산구
가려진
##도마
떤
댄싱
산계
1219
홍농
윤하
##蘆
##512
건국자
조고
운트
##NF
##辨
##溥
##작품상
편입학
히가시야마
섬긴
SPD
##執義
##하차
일동
전유물
자파스
보살펴
대운
##灘
##最古
방위선
정현
##디스플레이
##신뢰
림프구
##247
##舍利
종형
BRT
##혈액
1301
##로우스
휘도
응전
##버로
오키나
##넥스트
문헌학
##통념
미사에
##수배
이웃집
부리부리
야금
결방
야마가타현
캐나디안
Military
황록색
##히타치
##음향
##전북
##햄릿
##사리탑
인비
종부시
##Young
##코엔
마이코
##大同
담아낸
너그럽
부용
##노에
##불가결
행정력
1101
553
676
교가
##민정
겐키
였으며
문하시랑
##潭陽
##員外
안국
종교계
와이어트
무화과
효문
1254
로드맵
##촌은
중계방송
##동제
이완구
후이
누웠
##징계
##-’
##르마
##즐거운
이치하라
##"")
393
농노제
1176
##산화물
DEC
허창
피로감
비루
##324
##도카이
management
박희도
##자일
##진공
나아졌
##본산
호통
비슈
줄리안
헤드셋
북인도
##630
##수염
위리안치
상추
광대뼈
용인시
##존슨
불러와
일곱째
##1792
마흔
기와집
두만
##스파이
당직자
마장
사가독서
아순시온
일루
찻집
Country
고블린
##카프
저명인사
##라운
구부러지
맹호
스케르초
##대미
화불
애런
두려운
고적
하오
복사압
집념
시노다
##監察
##원부사
##실태
옮김
참고인
정침
##沛
소콜
메가트론
히지카타
##분국
##각본
좌복야
##1881
악조건
강원도지사
##Hyundai
##OECD
##毘盧
##농민군
가족법
다부치
한호
##호군
로시니
토욕혼
##卑
단주
뭉쳐서
장식물
문학자
박제가
##屈
왕통
척족
참찬관
마름모
유달리
주걱
김전
시스터즈
명령서
민속학
당해서
##다중
백토
초단파
고풍
영왕
화계사
격찬
##돌리
매거
광둥성
##弟
CRC
밀과
군입
##색상
##렁
##몰의
1349
브리즈
면역학
##Anne
베젤
##384
브랜치
숨어들
정역학
##貢擧
Technologies
외래종
Dog
필자
1261
ZF
##산적
##Kiss
Disc
##배지
히라이
##이산
기라티나
산다고
##자용
클린업
옥천사
독식
유란시아
고승덕
중랑천
체포영장
##단속
##통폐합
##헤비급
신갈
##討
##영재
안영
언사
여후
박용
안정환
DRAM
암매장
EM
래스터
태어난지
서인영
##피타
##偉
맥퍼슨
바이트코드
ㅈ
##슴
풍채
##관용
증표
놓쳐
컴퍼스
##鹽
노부요시
##가족의
우박
다용도
##라완
소임
##판매량
##Miss
피오르
이민호
저항권
##믿
펑위샹
허가증
콩쿨
미들랜드
간몬
##수퍼
전문부
##키노
리딩
직인
물러났으나
##Steve
천동설
양심선언
소쉬르
##반부
##라에
1281
히카르두
Care
##し
조폐국
에드몽
친할아버지
페어플레이
##328
정한론
해모수
히로모토
##주심
센추리
##貿易
##레가
맹사성
##마오
##375
인물평
포말하우트
오각형
##볼츠만
DH
Seminary
천황배
Albert
주재소
원삼국
볼튼
화룡
##契約
횡성군
프러시아
모술
##푹
루빅스
비첸차
##광도
##사대부
형리
리그베다
피아제
윤이상
##나가사키
마시모
##연사
에파
대항해
도모미
정략결혼
ISA
칠천량
유전율
용혈성
추진기
돕지
스미레
염기성
망했
낙농업
스케치북
XIII
경품
리빌
경무관
이재호
탈락자
##벚꽃
이동인
##out
천정배
보탄
공인회계사
##프런트
트롤리
화각
신임장
칼리닌
감람석
목판화
가경제
##Francis
솔레노이드
도세
라캉
SCI
센티
수카르노
강기갑
세이퍼트
니옹
IgE
##531
##릴로
나르세스
스터리지
##샛
복소다양체
세아
##초선
공분산
##chem
월레스
##달성
##SM
##재와
##마술
##따위
안중
##통수
박애
갤런
##줄여서
마기
구로사와
##라세
퇴조
역작
##핵연료
##일설
##1840
헤치
속행
도둑맞
라베
대전역
버스트
칼의
김현수
서랍
##뎀
아더
##별과
연길
##치진
##"/
유성체
정철이
켐프
##Dark
##材
였으나
##사극
위화감
아까
베네라
##Sea
##銘文
보여야
조가비
마음가짐
병존
층군
글리세롤
##기경
##송도
##슈팅
Tiger
꾸밈
애견
점보
##필리
##1701
적설
정봉
페이스트
팀버레이크
홀리데이
##퍼트
##308
콘테
##대표인
꽃밥
땔감
##덴쇼
##斎
온상
처자식
##일전
전기식
이시카와현
##도국
##쑤
아보시
##레라
##哉
태묘
무자
##철인
TFT
우키요에
##카모
밀어붙였
곤욕
브론즈
##宣傳
이상화
639
선덕
##大匡
##침공
모식종
##적분
다변수
##고체
1009
1012
복성
##효경
##隴
##折衝
##특권
만듦으로써
알바레스
홀란드
453
남벽
##up
##패널
이마무라
##폭스
다쓰노
도통
##막대
바덴뷔르템베르크주
맞바꾸
##융의
물러갔
부산역
##동국통감
##조개
##플레
##被
1214
암갈색
외기
외력
동광
투과성
엄씨
응한
##1610
간조
하려
트래
##學會
인간관
##유발
대원사
주두
Angel
비슈누
717
##란다
콘트
##송신
1220
인기몰이
##블링
##터보
파묻혀
##목장
##치즈
바가지
##플라스틱
다이키
##경장
마사모토
핸디캡
논리합
1218
1372
태복
황석
뛰어든
도야마현
IMAX
Tree
##中心
데모스테네스
어차피
비텔스바흐
##무근
자동소총
##Santa
함흥시
북두칠성
을지문덕
자양
##Day
참호전
경비행기
에마누엘
번식지
##자료실
당호
Low
##친화
##어른
##하바라
도매상
##아연
##穀
박순
의로운
##평화상
##緯
##경상도
##히틀러
범자
벤트
요스케
대웅보전
##관서
마사시
컨템포러리
##의결
##율리우스력
추격전
가벼워
뤼베크
재세례파
##1601
장수인
신참
시달려야
##殊
##증세
##California
금군
디스켓
브리태니커
##해졌으나
마도
##소라
##약사
가천
##외편
감춘
뜯어먹
노랗
##절감
##민속자료
상판
##천문대
##오치
강감찬
##상징
판형
##항체
취학
발루
##포탈
인생관
##출범
##충청
정서법
주교관
##방전
료헤이
##다이라
돌아갔으나
알츠하이머병
리비에르
##여지도
동왕
화로
869
신페인
##IMF
494
이부키
##양왕
##西晉
식습관
##소체
##亀
굵직
##회의실
말나식
##SNS
##항해
방파
##브라운
##구아
##Club
플레이도
브레이브
레이프
문화일보
Lewis
오스트리아인
##사소
Under
도로테아
채플
스탄
구피
NSA
##싱에
하이퐁
나진
##可能
##젖
알지
751
##삽
Hand
노섬벌랜드
오클라호마시티
알데하이드
여드름
##누크
낮춘
에이사쿠
요다
##안소
##바타
글루카곤
스쳐
겁탈
벨레스
##Lady
##파고
강체
이매진
##원역
##영단
##네츠
신규식
##쩌
스팅
순발력
1198
##總督
특허청
데칸
흥친왕
사명감
하프시코드
##説
자계
##육체
외연
스기우라
##마츠
1343
헤자즈
##지질학
##라칸
iTV
##오마
심일
##응시
##1567
스래시
##招
##길래
코끼
##國立
##브레스
가져갈
산자락
Full
등호
곽광
##침묵
##스펙트럼
지오반니
버저
으레
##充
선스
김상용
공지영
클래런스
샤르트르
##린다
환조
탈모
넘긴다
스웨이드
도계
##성전사
종소명
##모니터
앨릭스
블루밍
시버
엠폴리
이아
포르피린
수탁
1383
트뤼도
목격담
액티비전
##필레
나데
호손
닥
„
Rc
깟
글리세르알데하이드
아라타
##259
팩맨
베르그
콩도르세
스콜스
굴리엘모
황비홍
탁음
엘리사벳
발라크
헤라클리우스
뢰머
PFA
서터
이치고
한성은행
탕크레드
절리
녹림
##ltr
홍조
##상담소
##장지
유바리
##마테
첫발
정발
요시카즈
완쾌
##湘
##切
휩쓸리
##익대
힘쓴
##1815
Beat
##錦城
통혼
팅
레퀴엠
바질
##유원지
##太原
측정치
##성도
##286
##○○
디노
##軾
##포토
불탑
##아바
결격
감칠맛
##위장군
오제
간척지
3600
561
##뭇
이당류
하간
점술
적응도
최고상
##호이
비열한
통했
다다오키
쓰러트리
제갈근
낙산
꽃다발
##店
파인먼
허쉬
IIDX
##차지
세로줄
뇌우
가극단
##徹
##760
##光明
##피플
춘성
##우스키
가리온
##절리
마리노스
지나칠
##州郡
부원수
##~?)
측지
노리코
##暦
##메토
세바
2050
샤리
구연
##자랑
##헌터
Against
##湜
보지
겐타로
##粉
시계열
상주국
퀘이크
NES
아스피린
다지마
스당
속지
블랙박스
논법
진동자
항균
백인걸
직하
유선형
소화관
판적봉환
금붕어
주우
##위서
훈련대장
##이수
노르트라인베스트팔렌
##가쿠
결승점
이입
살균제
에크
반물질
683
##儒學
Memory
갈채
십계명
와일드캣
기흥
칭기즈칸
호라즘
미나마타
##阳
##Train
수플
우왕좌왕
고전압
##불설
344
##광명
내다봤
속세
하이네
1227
와인버그
348
하야마
우트
Post
##殺
##弥
1335
에필로그
##프린세스
##..)
입힌다
##방패
통일교
##연관
소청
안희정
Hearts
거쳐가
억만장자
##讀書
601
기증자
##장갑차
요동군
의창
##운임
##여수
##益州
치역
##레우스
어울렸
UAV
착시
##랜덤
오리지날
알라딘
오음
##Here
##우려
시묘
프리맨
##전담
##System
뗄
마에바시
##Girl
##분극
닥칠
##적십자
##무도
빼어나
한노
에이치
내실
칠곡
##廢
##선문
##양동
변절자
##트리오
##470
전해온다
잔디밭
직능
쿠스
란츠
##몸돌
Miller
##WD
##選擧
아껴
최자
큰소리
개벽
연주시
촉의
동천왕
##하구
밀려오
끌어안
형제간
북극권
가후
전국연합
노크
물갈퀴
##될지
아쿠타가와
아스파라거스
어명
1217
##諫
##芬
##稅
말벌
명예혁명
핌
리베
피혁
분수대
##왕릉
##장시
윤치오
##청색
JD
환태평양
##합창
##253
전경련
동영
카스티
증조할아버지
학적
마음씨
##분양
라자르
들뢰즈
예니체리
노르말
아흐
스토크스
물시계
맏이
##레토
총지배인
##본래
##諫議
##성왕
제스
김성태
페르시아인
새천년
style
장포
보호막
뒷좌석
우보
대통
##브레이
스타팅
EE
822
##770
모세관
어쩌다
##건립
한우
곤혹
몫의
형문
##마구
##와가
산장
##동물원
신시아
비망록
광안리
마이트
Edge
##밈
진딧물
타이둥
직불
##편암
경사도
퓨마
페트루치
플레브스
##문하
해운업
곤지
이른다고
맛깔
버너
꿰매
Garden
이리듐
##처형
하태경
바타
##공모
김선
사순
파가니니
1257
원평
골라인
##추월
노약자
전두엽
고화질
경남대
서상일
밀무역
Study
​
남제
카바레
서정원
긴급자동차
1266
단도
##히가
교고쿠
천자문
헤이든
나르바
취재진
땅바닥
벼루
1146
아리크
캐러멜
##해전
##무지
사디
신공
보노
암각
##Donald
타림
요시히데
##퀘스트
##不定
이극돈
##원료
LM
개로왕
우마르
##近江
다마소
##Google
세카
발렌틴
격벽
풍덕
징표
홀소리
사바스
머시
뷰런
포리
김태균
이슈타르
웅변가
낙소스
##open
##반명
오르도스
##흥행
남역
##차단
멘델레예프
린지
귈
월시
태영
종현
가렸
장각
파바로티
##선양
코스트코
##카슈
단모음
오각
##자명
##도레
동위체
특실
점괘
소방본부
##타일
예레미야
피그
영국항공
경본
안토니아
몽키스
마르카
표시줄
임마누엘
##行法
1205
하이파
티라나
석경
##실트
##惡見
SHA
록티
칼로얀
카사트
범그리스
승락
제어봉
##鄒
##From
움브리아
크루세이더
마치다
불통
기축
##醴
##永川
붙들
##576
패용
489
마두
우러러
조구
향방
505
##1848
인육
멕시칸
##테츠
##拜
퇴적층
양초
##620
퇴직금
의숙
중성자로
하시
여동
애틋
근데
##장터
##통이
곤충류
운다
경제사
네크로
부종
##王朝
김동현
면한다
보충역
PFC
분무
피막
도스토옙스키
1273
증가세
예심
베델
고춧가루
##제법
art
코널리
##바야
##스위트
노부히코
Davis
사치품
At
Just
##트릴
problem
우루무치
자판기
청백색
하이랜드
##쿠나
756
넘어왔
##沔
##특례
##Four
하이엔드
거문고자리
천제
##방어사
지노
##漢族
게이한신
손수건
선계
##성씨
##Not
##쾌
나룻배
##予
도다이지
등딱지
##전동
사납
568
Daniel
가야르도
리드보
상쾌
GTK
칭해졌
Store
퓰리처
머나먼
##모인
배알
제남
설인귀
##粹
##산진
##538
피나
자하
##동한
성산구
##약관
##렸다
##學堂
바랄
##가려
밤과
활공
사류
그쳤으며
가마타
##라그랑주
##수관
##메이드
레이코
##류로
얼룩무늬
큰데
Congress
body
##弗
##포비
수지구
##甁
##작국
윤활유
##고속화
##1504
필레
동갑
##레그
갈려
##아르헨티나
비크
휘트
##348
##漢譯
##수림
음낭
JAL
소무
##스캔
Cortex
##망한
노중
1366
1287
##쓴다
도망간
이철
추행
밀어내기
뺐
산타나
하임
고라
현진
##1585
##弁
걸렸으며
열네
신성모
레조
Vehicle
##성대
성수기
961
김홍
##티켓
대북방
펜들턴
볼린
기다린
전회
이세황제
하신
##전교
##음계
별당
##築
##402
당좌
이근호
순명
진품
비뚤
장례원
##綱目
대감
유덕
제다
여전사
레우
준준결승전
봉사손
세쿠
Intelligence
잇단
##자전
##齒
FRS
‘"
##고인
##트러스
창군
국립묘지
염라대왕
##여지
생활관
##시왕
##정제
채화
해방군
네루
면직물
##郁
347
사적비
##위시
##1879
트레비
USD
##더비
https
선혜청
이상훈
해낼
네모토
구족계
루어
편자
반갑
##동도
##瓦
##수레
##신상
빗댄
지공거
##민시
묘기
##승차
암모늄
국유지
MAN
수비율
##일리아스
##대주교
팽창주의
다르빗슈
추모비
##양이
벤틀리
무식
펩티드
떠돌아다니
나오마사
칼리스
의민
##해년
##露盤
##자립
관학
야만족
스미르나
위장전입
。
핸슨
##1635
##오지
브라가
미디엄
##탄강
##국제금융센터
문리대
코모로
곡명
##지스
변법
육영재단
중위도
삼각함수
집기
마르티니크
##소령
##510
496
##1836
평신
교회당
상납
##정점
수레바퀴
남면
정의부
##예술인
##치프
결판
##娘
정창손
오소리
묵돌
##장수풍뎅이
##ν
혈육
1253
타원체
하트퍼드
플레이보이
##재활
업의
시메
피히테
##슘
장타
래드
바스케스
##黃海
메시징
냇
아프리카너
les
스푼
[...]
